{
  "version": "1.0",
  "truncation": null,
  "padding": null,
  "added_tokens": [
    {
      "id": 0,
      "content": "<|endoftext|>",
      "single_word": false,
      "lstrip": false,
      "rstrip": false,
      "normalized": false,
      "special": true
    },
    {
      "id": 1,
      "content": "<|padding|>",
      "single_word": false,
      "lstrip": false,
      "rstrip": false,
      "normalized": false,
      "special": true
    }
  ],
  "normalizer": {
    "type": "NFKC"
  },
  "pre_tokenizer": {
    "type": "ByteLevel",
    "add_prefix_space": true,
    "trim_offsets": true,
    "use_regex": true
  },
  "post_processor": {
    "type": "ByteLevel",
    "add_prefix_space": true,
    "trim_offsets": true,
    "use_regex": true
  },
  "decoder": {
    "type": "ByteLevel",
    "add_prefix_space": true,
    "trim_offsets": true,
    "use_regex": true
  },
  "model": {
    "type": "BPE",
    "dropout": null,
    "unk_token": null,
    "continuing_subword_prefix": null,
    "end_of_word_suffix": null,
    "fuse_unk": false,
    "byte_fallback": false,
    "vocab": {
      "<|endoftext|>": 0,
      "<|padding|>": 1,
      "!": 2,
      "\"": 3,
      "#": 4,
      "$": 5,
      "%": 6,
      "&": 7,
      "'": 8,
      "(": 9,
      ")": 10,
      "*": 11,
      "+": 12,
      ",": 13,
      "-": 14,
      ".": 15,
      "/": 16,
      "0": 17,
      "1": 18,
      "2": 19,
      "3": 20,
      "4": 21,
      "5": 22,
      "6": 23,
      "7": 24,
      "8": 25,
      "9": 26,
      ":": 27,
      ";": 28,
      "<": 29,
      "=": 30,
      ">": 31,
      "?": 32,
      "@": 33,
      "A": 34,
      "B": 35,
      "C": 36,
      "D": 37,
      "E": 38,
      "F": 39,
      "G": 40,
      "H": 41,
      "I": 42,
      "J": 43,
      "K": 44,
      "L": 45,
      "M": 46,
      "N": 47,
      "O": 48,
      "P": 49,
      "Q": 50,
      "R": 51,
      "S": 52,
      "T": 53,
      "U": 54,
      "V": 55,
      "W": 56,
      "X": 57,
      "Y": 58,
      "Z": 59,
      "[": 60,
      "\\": 61,
      "]": 62,
      "^": 63,
      "_": 64,
      "`": 65,
      "a": 66,
      "b": 67,
      "c": 68,
      "d": 69,
      "e": 70,
      "f": 71,
      "g": 72,
      "h": 73,
      "i": 74,
      "j": 75,
      "k": 76,
      "l": 77,
      "m": 78,
      "n": 79,
      "o": 80,
      "p": 81,
      "q": 82,
      "r": 83,
      "s": 84,
      "t": 85,
      "u": 86,
      "v": 87,
      "w": 88,
      "x": 89,
      "y": 90,
      "z": 91,
      "{": 92,
      "|": 93,
      "}": 94,
      "~": 95,
      "¡": 96,
      "¢": 97,
      "£": 98,
      "¤": 99,
      "¥": 100,
      "¦": 101,
      "§": 102,
      "¨": 103,
      "©": 104,
      "ª": 105,
      "«": 106,
      "¬": 107,
      "®": 108,
      "¯": 109,
      "°": 110,
      "±": 111,
      "²": 112,
      "³": 113,
      "´": 114,
      "µ": 115,
      "¶": 116,
      "·": 117,
      "¸": 118,
      "¹": 119,
      "º": 120,
      "»": 121,
      "¼": 122,
      "½": 123,
      "¾": 124,
      "¿": 125,
      "Â": 126,
      "Ã": 127,
      "Ä": 128,
      "Å": 129,
      "Æ": 130,
      "Ç": 131,
      "È": 132,
      "É": 133,
      "Ê": 134,
      "Ë": 135,
      "Ì": 136,
      "Í": 137,
      "Î": 138,
      "Ï": 139,
      "Ð": 140,
      "Ñ": 141,
      "Ò": 142,
      "Ó": 143,
      "Ô": 144,
      "Õ": 145,
      "Ö": 146,
      "×": 147,
      "Ø": 148,
      "Ù": 149,
      "Ú": 150,
      "Û": 151,
      "Ü": 152,
      "Ý": 153,
      "Þ": 154,
      "ß": 155,
      "à": 156,
      "á": 157,
      "â": 158,
      "ã": 159,
      "ä": 160,
      "å": 161,
      "æ": 162,
      "ç": 163,
      "è": 164,
      "é": 165,
      "ê": 166,
      "ë": 167,
      "ì": 168,
      "í": 169,
      "î": 170,
      "ï": 171,
      "ð": 172,
      "ñ": 173,
      "ò": 174,
      "ó": 175,
      "ô": 176,
      "Ā": 177,
      "ā": 178,
      "Ă": 179,
      "ă": 180,
      "Ą": 181,
      "ą": 182,
      "Ć": 183,
      "ć": 184,
      "Ĉ": 185,
      "ĉ": 186,
      "Ċ": 187,
      "ċ": 188,
      "Č": 189,
      "Ď": 190,
      "ď": 191,
      "Đ": 192,
      "đ": 193,
      "Ē": 194,
      "ē": 195,
      "Ĕ": 196,
      "ĕ": 197,
      "Ė": 198,
      "ė": 199,
      "Ę": 200,
      "ę": 201,
      "Ě": 202,
      "ě": 203,
      "Ĝ": 204,
      "ĝ": 205,
      "Ğ": 206,
      "ğ": 207,
      "Ġ": 208,
      "ġ": 209,
      "Ģ": 210,
      "ģ": 211,
      "Ĥ": 212,
      "ĥ": 213,
      "Ħ": 214,
      "ħ": 215,
      "Ĩ": 216,
      "ĩ": 217,
      "Ī": 218,
      "ī": 219,
      "Ĭ": 220,
      "ĭ": 221,
      "Į": 222,
      "į": 223,
      "İ": 224,
      "ı": 225,
      "Ĳ": 226,
      "ĳ": 227,
      "Ĵ": 228,
      "ĵ": 229,
      "Ķ": 230,
      "ķ": 231,
      "ĸ": 232,
      "Ĺ": 233,
      "ĺ": 234,
      "Ļ": 235,
      "ļ": 236,
      "Ľ": 237,
      "ľ": 238,
      "Ŀ": 239,
      "ŀ": 240,
      "Ł": 241,
      "ł": 242,
      "Ń": 243,
      "en": 244,
      "er": 245,
      "ch": 246,
      "Ġd": 247,
      "ei": 248,
      "un": 249,
      "ie": 250,
      "st": 251,
      "in": 252,
      "an": 253,
      "Ġs": 254,
      "ein": 255,
      "ich": 256,
      "es": 257,
      "au": 258,
      "ĠS": 259,
      "Ġun": 260,
      "Ã¼": 261,
      "Ġw": 262,
      "on": 263,
      "ge": 264,
      "al": 265,
      "te": 266,
      "Ã¤": 267,
      "Ġm": 268,
      "Ġund": 269,
      "Ġdie": 270,
      "ung": 271,
      "sch": 272,
      "ar": 273,
      "it": 274,
      "Ġv": 275,
      "as": 276,
      "Ġein": 277,
      "Ġb": 278,
      "el": 279,
      "or": 280,
      "Ġder": 281,
      "ĠA": 282,
      "at": 283,
      "ĠD": 284,
      "ĠB": 285,
      "Ġz": 286,
      "Ġi": 287,
      "Ġn": 288,
      "hr": 289,
      "ten": 290,
      "Ġau": 291,
      "ur": 292,
      "gen": 293,
      "em": 294,
      "der": 295,
      "ĠM": 296,
      "Ġf": 297,
      "Ġh": 298,
      "Ġin": 299,
      "ter": 300,
      "ĠE": 301,
      "den": 302,
      "ĠF": 303,
      "ĠK": 304,
      "Ġk": 305,
      "et": 306,
      "Ã¶": 307,
      "ĠG": 308,
      "ĠW": 309,
      "ĠP": 310,
      "Ġzu": 311,
      "lich": 312,
      "ab": 313,
      "ti": 314,
      "ir": 315,
      "ol": 316,
      "ach": 317,
      "Ġg": 318,
      "le": 319,
      "am": 320,
      "Ã¼r": 321,
      "ĠT": 322,
      "de": 323,
      "ĠH": 324,
      "ĠI": 325,
      "eit": 326,
      "ck": 327,
      "Ġdas": 328,
      "ĠV": 329,
      "ber": 330,
      "Ġge": 331,
      "ier": 332,
      "ĠL": 333,
      "ĠR": 334,
      "Ġden": 335,
      "Ġmit": 336,
      "ro": 337,
      "is": 338,
      "Ġer": 339,
      "il": 340,
      "icht": 341,
      "Ġan": 342,
      "us": 343,
      "re": 344,
      "om": 345,
      "Ġvon": 346,
      "Ġist": 347,
      "ig": 348,
      "Ġauf": 349,
      "um": 350,
      "ra": 351,
      "ut": 352,
      "sen": 353,
      "âĢ": 354,
      "ÃŁ": 355,
      "eh": 356,
      "Ġal": 357,
      "isch": 358,
      "and": 359,
      "ĠfÃ¼r": 360,
      "Ġver": 361,
      "ĠN": 362,
      "se": 363,
      "ann": 364,
      "Ġo": 365,
      "rei": 366,
      "Ġim": 367,
      "Ġl": 368,
      "ben": 369,
      "len": 370,
      "ent": 371,
      "ĠZ": 372,
      "Ġ1": 373,
      "ĠU": 374,
      "ft": 375,
      "Ġsich": 376,
      "nen": 377,
      "ion": 378,
      "Ġnicht": 379,
      "Ġwir": 380,
      "Ġbe": 381,
      "ĠSch": 382,
      "Ġsch": 383,
      "ser": 384,
      "och": 385,
      "Ġ(": 386,
      "..": 387,
      "men": 388,
      "Ġaus": 389,
      "ĠSt": 390,
      "ĠVer": 391,
      "Ġ2": 392,
      "ĠJ": 393,
      "ind": 394,
      "Ġeine": 395,
      "Ġp": 396,
      "Ġdes": 397,
      "eu": 398,
      "ff": 399,
      "ahr": 400,
      "kt": 401,
      "ĠC": 402,
      "Ġauch": 403,
      "ag": 404,
      "Ġes": 405,
      "sp": 406,
      "Ġdem": 407,
      "ehr": 408,
      "ĠSie": 409,
      "sten": 410,
      "ell": 411,
      "Ġbei": 412,
      "iel": 413,
      "ah": 414,
      "ĠIn": 415,
      "ĠAn": 416,
      "Ã¤n": 417,
      "ungen": 418,
      "Ã¼ber": 419,
      "ĠâĢ": 420,
      "uch": 421,
      "ĠDie": 422,
      "Ġso": 423,
      "ing": 424,
      "Ġab": 425,
      "Ġst": 426,
      "Ġt": 427,
      "Ġj": 428,
      "eich": 429,
      "ĠO": 430,
      "Ġwer": 431,
      "ern": 432,
      "ien": 433,
      "ik": 434,
      "ver": 435,
      "Ġwie": 436,
      "etz": 437,
      "Ġich": 438,
      "Ġoder": 439,
      "esch": 440,
      "Ġals": 441,
      "ĠÃ¼ber": 442,
      "wei": 443,
      "Ã¶n": 444,
      "und": 445,
      "Ġwerden": 446,
      "mer": 447,
      "ation": 448,
      "ungs": 449,
      "be": 450,
      "Ġhat": 451,
      "ot": 452,
      "Ġsind": 453,
      "enn": 454,
      "hn": 455,
      "os": 456,
      "Ġhab": 457,
      "uf": 458,
      "ĠEr": 459,
      "Ġsein": 460,
      "ort": 461,
      "im": 462,
      "00": 463,
      "Ġvor": 464,
      "ĠUn": 465,
      "oll": 466,
      "Ġsie": 467,
      "tig": 468,
      "ĠEin": 469,
      "Ġum": 470,
      "ĠSp": 471,
      "Ġnach": 472,
      "est": 473,
      "chen": 474,
      "urch": 475,
      "rau": 476,
      "ad": 477,
      "ischen": 478,
      "Ġ-": 479,
      "eil": 480,
      "ul": 481,
      "Ã¼n": 482,
      "ri": 483,
      "ed": 484,
      "Ġdass": 485,
      "Ã¤t": 486,
      "ger": 487,
      "he": 488,
      "hal": 489,
      "end": 490,
      "Ġihr": 491,
      "la": 492,
      "aus": 493,
      "Ġwird": 494,
      "eg": 495,
      "op": 496,
      "anz": 497,
      "Ġwar": 498,
      "ĠPro": 499,
      "wer": 500,
      "Ġeinen": 501,
      "kti": 502,
      "ang": 503,
      "auf": 504,
      "all": 505,
      "ech": 506,
      "tel": 507,
      "Ġeiner": 508,
      "tern": 509,
      "eine": 510,
      "tet": 511,
      "scha": 512,
      "gt": 513,
      "Ġzum": 514,
      "ru": 515,
      "ler": 516,
      "01": 517,
      "Ġman": 518,
      "Ġkann": 519,
      "Ġda": 520,
      "Ã¼ck": 521,
      "ick": 522,
      "Ġeinem": 523,
      "zen": 524,
      "âĢľ": 525,
      "Ġzur": 526,
      "Ã¶r": 527,
      "ĠkÃ¶n": 528,
      "...": 529,
      "pp": 530,
      "Ġnoch": 531,
      "zu": 532,
      "Ġam": 533,
      "Ġent": 534,
      "Ġdurch": 535,
      "ĠAr": 536,
      "rie": 537,
      "eiter": 538,
      "iv": 539,
      "rÃ¤": 540,
      "ste": 541,
      "ner": 542,
      "bt": 543,
      "art": 544,
      "lichen": 545,
      "Ã¤r": 546,
      "ĠâĢŀ": 547,
      "igen": 548,
      "ĠJahr": 549,
      "Ġunter": 550,
      "Ġnur": 551,
      "ĠAl": 552,
      "gel": 553,
      "ĠGe": 554,
      "fÃ¼": 555,
      "orm": 556,
      "uss": 557,
      "iert": 558,
      "eiten": 559,
      "Ġr": 560,
      "Ġhaben": 561,
      "Ġaber": 562,
      "ster": 563,
      "pf": 564,
      "ank": 565,
      "schl": 566,
      "hl": 567,
      "arb": 568,
      "ische": 569,
      "schen": 570,
      "og": 571,
      "Ġsp": 572,
      "geb": 573,
      "ĠAus": 574,
      "Ġmehr": 575,
      "Ġ3": 576,
      "schaft": 577,
      "ĠMit": 578,
      "ĠIhr": 579,
      "liche": 580,
      "lin": 581,
      "Ġ\"": 582,
      "acht": 583,
      "stell": 584,
      "ieren": 585,
      "ige": 586,
      "eben": 587,
      "Ġwur": 588,
      "ers": 589,
      "aten": 590,
      "Ġunser": 591,
      "elt": 592,
      "ĠBe": 593,
      "ess": 594,
      "ehen": 595,
      "Ġbis": 596,
      "che": 597,
      "ĠâĢĵ": 598,
      "ĠkÃ¶nnen": 599,
      "ĠÃ": 600,
      "ĠDas": 601,
      "ex": 602,
      "eut": 603,
      "atz": 604,
      "dern": 605,
      "cht": 606,
      "bl": 607,
      "gr": 608,
      "ĠEn": 609,
      "bar": 610,
      "Die": 611,
      "ass": 612,
      "Ã¤l": 613,
      "keit": 614,
      "hen": 615,
      "her": 616,
      "Ġander": 617,
      "ommen": 618,
      "gl": 619,
      "assen": 620,
      "ĠGr": 621,
      "ĠDer": 622,
      "ist": 623,
      "Ġdies": 624,
      "ĠBer": 625,
      "utz": 626,
      "ht": 627,
      "lei": 628,
      "ellen": 629,
      "Ġ201": 630,
      "ahl": 631,
      "Ġneu": 632,
      "heit": 633,
      "ÂŃ": 634,
      "Ġre": 635,
      "ert": 636,
      "glich": 637,
      "ĠAb": 638,
      "fen": 639,
      "ill": 640,
      "du": 641,
      "Ġuns": 642,
      "ĠVor": 643,
      "ob": 644,
      "omm": 645,
      "rit": 646,
      "Ã¤hr": 647,
      "etzt": 648,
      "ffen": 649,
      "Ġwenn": 650,
      "ÃŁen": 651,
      "Ġall": 652,
      "unden": 653,
      "ant": 654,
      "ont": 655,
      "ges": 656,
      "eigen": 657,
      "ok": 658,
      "Ġber": 659,
      "sam": 660,
      "rÃ¼": 661,
      "mal": 662,
      "ĠAuf": 663,
      "ild": 664,
      "Ġdann": 665,
      "ze": 666,
      "Ġkl": 667,
      "ap": 668,
      "ktion": 669,
      "ss": 670,
      "ak": 671,
      "alt": 672,
      "me": 673,
      "ic": 674,
      "ast": 675,
      "fahr": 676,
      "ehmen": 677,
      "bst": 678,
      "ekt": 679,
      "Ġ4": 680,
      "Ġweiter": 681,
      "Ġges": 682,
      "Ġje": 683,
      "pl": 684,
      "iz": 685,
      "ĠRe": 686,
      "ark": 687,
      "Ġbes": 688,
      "Ġwurde": 689,
      "wie": 690,
      "nis": 691,
      "Ġsehr": 692,
      "Ġgen": 693,
      "Ġwieder": 694,
      "war": 695,
      "Ġdar": 696,
      "age": 697,
      "form": 698,
      "od": 699,
      "ne": 700,
      "per": 701,
      "Ġwas": 702,
      "ĠAu": 703,
      "eb": 704,
      "Ġsoll": 705,
      "Ġ5": 706,
      "ĠZu": 707,
      "rag": 708,
      "Ġschon": 709,
      "Ġet": 710,
      "kl": 711,
      "ĠWir": 712,
      "Ġhier": 713,
      "ibt": 714,
      "ial": 715,
      "Ġimmer": 716,
      "att": 717,
      "ohn": 718,
      "Ġdiese": 719,
      "fer": 720,
      "Ġlie": 721,
      "ÃŁe": 722,
      "Ġc": 723,
      "Ã¶glich": 724,
      "ĠHer": 725,
      "Ġhin": 726,
      "imm": 727,
      "iele": 728,
      "ken": 729,
      "ĠZeit": 730,
      "eits": 731,
      "Ġ19": 732,
      "leich": 733,
      "fach": 734,
      "fl": 735,
      "einen": 736,
      "Ã¼t": 737,
      "ack": 738,
      "Ġviel": 739,
      "Ġgro": 740,
      "ĠEs": 741,
      "Ġgew": 742,
      "Ġher": 743,
      "ho": 744,
      "itÃ¤t": 745,
      "Ġgibt": 746,
      "Ġganz": 747,
      "Ã¤ch": 748,
      "ĠSo": 749,
      "mit": 750,
      "ts": 751,
      "Ġvom": 752,
      "lie": 753,
      "fol": 754,
      "achen": 755,
      "elle": 756,
      "gend": 757,
      "Ġhabe": 758,
      "eld": 759,
      "lo": 760,
      "schie": 761,
      "fe": 762,
      "Ġsel": 763,
      "eln": 764,
      "ĠUm": 765,
      "Ġmir": 766,
      "hnen": 767,
      "dem": 768,
      "osten": 769,
      "ĠMa": 770,
      "sche": 771,
      "dig": 772,
      "was": 773,
      "Ġbest": 774,
      "Ġalle": 775,
      "inden": 776,
      "ĠGesch": 777,
      "ĠMen": 778,
      "Ġzwei": 779,
      "eite": 780,
      "ĠGes": 781,
      "ĠBei": 782,
      "fÃ¼hr": 783,
      "Ġa": 784,
      "hne": 785,
      "qu": 786,
      "onder": 787,
      "Ġdieser": 788,
      "ĠIm": 789,
      "zeit": 790,
      "lung": 791,
      "ĠKl": 792,
      "ĠIch": 793,
      "rin": 794,
      "ud": 795,
      "inder": 796,
      "Ġmich": 797,
      "reis": 798,
      "pt": 799,
      "ragen": 800,
      "ĠNach": 801,
      "agen": 802,
      "ĠÂ": 803,
      "ĠBl": 804,
      "los": 805,
      "ord": 806,
      "tigen": 807,
      "ĠOr": 808,
      "halten": 809,
      "ĠArb": 810,
      "Ġgegen": 811,
      "amm": 812,
      "ĠÃľ": 813,
      "ĠEnt": 814,
      ").": 815,
      "Ġle": 816,
      "gesch": 817,
      "ett": 818,
      "kte": 819,
      "ichtig": 820,
      "adt": 821,
      "aut": 822,
      "Ã¼hr": 823,
      "bur": 824,
      "ĠUnter": 825,
      "Ġdu": 826,
      "ÃŁer": 827,
      "vor": 828,
      "Ġgem": 829,
      "ationen": 830,
      "ĠDeut": 831,
      "ma": 832,
      "onn": 833,
      "Ġ6": 834,
      "ierung": 835,
      "Ġeigen": 836,
      "Ġgut": 837,
      "cken": 838,
      "ollen": 839,
      "Ġeinfach": 840,
      "ĠPl": 841,
      "rank": 842,
      "issen": 843,
      "spiel": 844,
      "ran": 845,
      "id": 846,
      "ĠCh": 847,
      "Ġsowie": 848,
      "Ġkeine": 849,
      "Ġmein": 850,
      "In": 851,
      "inn": 852,
      "ale": 853,
      "olle": 854,
      "ĠFl": 855,
      "Ġeines": 856,
      "iger": 857,
      "ĠDaten": 858,
      "reich": 859,
      "Ġe": 860,
      "Ġger": 861,
      "Ã¼s": 862,
      "ate": 863,
      "Ġwo": 864,
      "itz": 865,
      "eist": 866,
      "Ã¶ch": 867,
      "angen": 868,
      "erson": 869,
      "icher": 870,
      "amit": 871,
      "Ġbek": 872,
      "atur": 873,
      "Ġmal": 874,
      "ielen": 875,
      "ĠKon": 876,
      "net": 877,
      "wick": 878,
      "tige": 879,
      "ĠUnd": 880,
      "lau": 881,
      "ĠÃľber": 882,
      "wischen": 883,
      "for": 884,
      "esen": 885,
      "ke": 886,
      "eht": 887,
      "Ġgesch": 888,
      "gab": 889,
      "eute": 890,
      "ĠWer": 891,
      "ĠLeben": 892,
      "Ġpro": 893,
      "nah": 894,
      "reu": 895,
      "ĠSpiel": 896,
      "Ġbet": 897,
      "unde": 898,
      "ativ": 899,
      "ĠEur": 900,
      "),": 901,
      "stÃ¤n": 902,
      "bau": 903,
      "ktiv": 904,
      "Ġohne": 905,
      "br": 906,
      "Ġgr": 907,
      "ater": 908,
      "we": 909,
      "ug": 910,
      "Ġselbst": 911,
      "Ġson": 912,
      "ine": 913,
      "ĠTh": 914,
      "Ġihre": 915,
      "pro": 916,
      "eim": 917,
      "off": 918,
      "Ġ|": 919,
      "ĠLand": 920,
      "ade": 921,
      "ĠWas": 922,
      "tion": 923,
      "Qu": 924,
      "Ġwen": 925,
      "abei": 926,
      "alen": 927,
      "ĠHand": 928,
      "Ġbeim": 929,
      "Ã¤u": 930,
      "Ã¶ff": 931,
      "wend": 932,
      "zeu": 933,
      "yst": 934,
      "Ġjed": 935,
      "arten": 936,
      "Der": 937,
      "geben": 938,
      "so": 939,
      "weise": 940,
      "satz": 941,
      "ia": 942,
      "ay": 943,
      "Ġwel": 944,
      "ften": 945,
      "teil": 946,
      "Ġmuss": 947,
      "Ġdiesem": 948,
      "fall": 949,
      "Ġ...": 950,
      "ard": 951,
      "arbeit": 952,
      "Ġetwas": 953,
      "ust": 954,
      "Ġhatte": 955,
      "ĠFrau": 956,
      "Ġbie": 957,
      "ez": 958,
      "Ġ200": 959,
      "ha": 960,
      "spr": 961,
      "ĠBet": 962,
      "Ġange": 963,
      "Ã¤h": 964,
      "eren": 965,
      "Ġdeut": 966,
      "Ġerst": 967,
      "ĠRech": 968,
      "ucht": 969,
      "Das": 970,
      "ding": 971,
      "ystem": 972,
      "omp": 973,
      "Ġ7": 974,
      "Ġseine": 975,
      "Ġdir": 976,
      "stand": 977,
      "Ġanderen": 978,
      "ĠMenschen": 979,
      "zt": 980,
      "ĠQu": 981,
      "ĠSe": 982,
      "aufen": 983,
      "Ġ8": 984,
      "ov": 985,
      "ow": 986,
      "line": 987,
      "Ġins": 988,
      "ternehmen": 989,
      "Ã¶l": 990,
      "ruck": 991,
      "amen": 992,
      "ierte": 993,
      "oren": 994,
      "ren": 995,
      "Ġgel": 996,
      "kel": 997,
      "ĠIhre": 998,
      "nung": 999,
      "Ġ/": 1000,
      "ommt": 1001,
      "ost": 1002,
      "ĠMar": 1003,
      "aum": 1004,
      "ition": 1005,
      "io": 1006,
      "ĠDu": 1007,
      "Ġdamit": 1008,
      "innen": 1009,
      "Ġob": 1010,
      "Ġgleich": 1011,
      "ĠProdu": 1012,
      "uten": 1013,
      "ieder": 1014,
      "Ġfinden": 1015,
      "burg": 1016,
      "rechen": 1017,
      "ichte": 1018,
      "ce": 1019,
      "cher": 1020,
      "ĠRei": 1021,
      "Ã¤lt": 1022,
      "Ġmachen": 1023,
      "halb": 1024,
      "ĠAut": 1025,
      "dr": 1026,
      "ange": 1027,
      "our": 1028,
      "vers": 1029,
      "Ġgeht": 1030,
      "stellt": 1031,
      "ute": 1032,
      "Ġausge": 1033,
      "ahn": 1034,
      "ĠKinder": 1035,
      "ide": 1036,
      "Ġneue": 1037,
      "Ġja": 1038,
      "ĠGer": 1039,
      "ĠJahren": 1040,
      "Ġdoch": 1041,
      "Ġgef": 1042,
      "bes": 1043,
      "Ġschn": 1044,
      "weg": 1045,
      "immer": 1046,
      "Ã¶s": 1047,
      "ĠBr": 1048,
      "schland": 1049,
      "Ġ10": 1050,
      "Ġ9": 1051,
      "lt": 1052,
      "sk": 1053,
      "ĠTag": 1054,
      "ĠDa": 1055,
      "ogen": 1056,
      "ĠmÃ¼s": 1057,
      "hm": 1058,
      "ĠGrund": 1059,
      "rad": 1060,
      "sst": 1061,
      "gang": 1062,
      "Ġ0": 1063,
      "ĠTeil": 1064,
      "Ġjetzt": 1065,
      "ĠIhnen": 1066,
      "eid": 1067,
      "lage": 1068,
      "schieden": 1069,
      "uchen": 1070,
      "aar": 1071,
      "tem": 1072,
      "Ġviele": 1073,
      "land": 1074,
      "ĠLie": 1075,
      "eiÃŁ": 1076,
      "mittel": 1077,
      "Ã¤d": 1078,
      "inde": 1079,
      "orn": 1080,
      "Ġkein": 1081,
      "olog": 1082,
      "zeich": 1083,
      "Ġzwischen": 1084,
      "Ġ&": 1085,
      "ip": 1086,
      "St": 1087,
      "ander": 1088,
      "keiten": 1089,
      "fahren": 1090,
      "Ġgeh": 1091,
      "ub": 1092,
      "ĠBes": 1093,
      "Ġdenn": 1094,
      "ĠHo": 1095,
      "rupp": 1096,
      "Ġalles": 1097,
      "201": 1098,
      "gung": 1099,
      "ischer": 1100,
      "gem": 1101,
      "setz": 1102,
      "Ġwurden": 1103,
      "zent": 1104,
      "ĠwÃ¼r": 1105,
      "bild": 1106,
      "si": 1107,
      "under": 1108,
      "Ġ.": 1109,
      "ats": 1110,
      "esse": 1111,
      "ĠStadt": 1112,
      "Ġlassen": 1113,
      "wir": 1114,
      "atÃ¼r": 1115,
      "Ġnun": 1116,
      "ĠAm": 1117,
      "ĠWelt": 1118,
      "fÃ¼r": 1119,
      "ĠBo": 1120,
      "kommen": 1121,
      "ĠInform": 1122,
      "Ġsondern": 1123,
      "halt": 1124,
      "Ġseit": 1125,
      "akt": 1126,
      "oten": 1127,
      "rieb": 1128,
      "asse": 1129,
      "ĠPerson": 1130,
      "Ġwaren": 1131,
      "ium": 1132,
      "undes": 1133,
      "Ã¤re": 1134,
      "ichten": 1135,
      "Ã¤m": 1136,
      "unktion": 1137,
      "ele": 1138,
      "ĠFÃ¼r": 1139,
      "Ġeinz": 1140,
      "ĠMus": 1141,
      "licher": 1142,
      "ĠFahr": 1143,
      "richt": 1144,
      "ĠBest": 1145,
      "ks": 1146,
      "fte": 1147,
      "sel": 1148,
      "urz": 1149,
      "alten": 1150,
      "zie": 1151,
      "Ġunsere": 1152,
      "annt": 1153,
      "eig": 1154,
      "ĠDeutschland": 1155,
      "lagen": 1156,
      "Ġdabei": 1157,
      "ĠHaus": 1158,
      "Ġeben": 1159,
      "tur": 1160,
      "essen": 1161,
      "ĠMin": 1162,
      "amt": 1163,
      "igkeit": 1164,
      "Ich": 1165,
      "ĠUhr": 1166,
      "ĠWeb": 1167,
      "rage": 1168,
      "ĠMon": 1169,
      "Ġbesonder": 1170,
      "ache": 1171,
      "Ġbereits": 1172,
      "ald": 1173,
      "Ġbin": 1174,
      "ail": 1175,
      "alitÃ¤t": 1176,
      "Ġdieses": 1177,
      "ĠJahre": 1178,
      "rot": 1179,
      "anden": 1180,
      "Ġkonn": 1181,
      "gleich": 1182,
      "Ġandere": 1183,
      "Ġ18": 1184,
      "ĠFr": 1185,
      "Ġaller": 1186,
      "ĠEx": 1187,
      "ĠmÃ¶ch": 1188,
      "Ġersten": 1189,
      "Ġsollte": 1190,
      "ĠUnternehmen": 1191,
      "stellung": 1192,
      "ĠReg": 1193,
      "ĠVers": 1194,
      "ĠHau": 1195,
      "Ġgest": 1196,
      "ĠPol": 1197,
      "Ġseiner": 1198,
      "amil": 1199,
      "inter": 1200,
      "blem": 1201,
      "enden": 1202,
      "ienst": 1203,
      "hol": 1204,
      "ĠMan": 1205,
      "Ġverl": 1206,
      "ĠPart": 1207,
      "ĠSchw": 1208,
      "ĠSex": 1209,
      "ĠGl": 1210,
      "ĠGew": 1211,
      "trag": 1212,
      "Sch": 1213,
      "ĠIntern": 1214,
      "000": 1215,
      "Ġex": 1216,
      "Ġletz": 1217,
      "Ã¤uf": 1218,
      "ph": 1219,
      "erv": 1220,
      "Ġbesch": 1221,
      "ĠmÃ¶glich": 1222,
      "euer": 1223,
      "reichen": 1224,
      "orden": 1225,
      "Ġkommen": 1226,
      "Ġ20": 1227,
      "eiden": 1228,
      "Ġper": 1229,
      "berg": 1230,
      "eile": 1231,
      "ĠKont": 1232,
      "ĠzurÃ¼ck": 1233,
      "auer": 1234,
      "Ġwill": 1235,
      "uÃŁ": 1236,
      "schutz": 1237,
      "ian": 1238,
      "sammen": 1239,
      "Ġde": 1240,
      "indet": 1241,
      "tschaft": 1242,
      "ĠWoch": 1243,
      "unkt": 1244,
      "Ġunserer": 1245,
      "Ġzusammen": 1246,
      "ĠBild": 1247,
      "min": 1248,
      "ĠArbeit": 1249,
      "Ã¤tz": 1250,
      "Ã¤nder": 1251,
      "ĠmÃ¼ssen": 1252,
      "ive": 1253,
      "schu": 1254,
      "ĠÃĸ": 1255,
      "Ġheute": 1256,
      "ĠThem": 1257,
      "wert": 1258,
      "ĠDe": 1259,
      "ĠRo": 1260,
      "folg": 1261,
      "aden": 1262,
      "zw": 1263,
      "Un": 1264,
      "raum": 1265,
      "ĠWenn": 1266,
      "stellen": 1267,
      "ierten": 1268,
      "Ġverschieden": 1269,
      "haus": 1270,
      "wo": 1271,
      "ment": 1272,
      "zei": 1273,
      "tag": 1274,
      "Ġdrei": 1275,
      "ĠBau": 1276,
      "ktu": 1277,
      "An": 1278,
      "unter": 1279,
      "erne": 1280,
      "Ġ15": 1281,
      "ĠCo": 1282,
      "ĠkÃ¶nn": 1283,
      "ac": 1284,
      "Ġneuen": 1285,
      "Ã¤ÃŁ": 1286,
      "ies": 1287,
      "Ġte": 1288,
      "ĠWasser": 1289,
      "hÃ¤lt": 1290,
      "ĠFre": 1291,
      "ign": 1292,
      "Ġalso": 1293,
      "klÃ¤r": 1294,
      "Ġbeg": 1295,
      "Ã¼l": 1296,
      "Ã¼nst": 1297,
      "ĠNeu": 1298,
      "if": 1299,
      "ĠStra": 1300,
      "kten": 1301,
      "ĠEl": 1302,
      "Ġdazu": 1303,
      "entlich": 1304,
      "ĠFor": 1305,
      "atÃ¼rlich": 1306,
      "Ġvers": 1307,
      "Ã¤hrend": 1308,
      "nit": 1309,
      "bel": 1310,
      "reiben": 1311,
      "ĠSchl": 1312,
      "rum": 1313,
      "zahl": 1314,
      "Ġkommt": 1315,
      "Ġkosten": 1316,
      "pr": 1317,
      "ĠWohn": 1318,
      "Ġweil": 1319,
      "ĠDiese": 1320,
      "Ġsei": 1321,
      "gie": 1322,
      "uche": 1323,
      "ĠGeb": 1324,
      "ĠTe": 1325,
      "ĠZus": 1326,
      "Ġihrer": 1327,
      "Ġschnell": 1328,
      "Ġdiesen": 1329,
      "iss": 1330,
      "ende": 1331,
      "wa": 1332,
      "ĠAuch": 1333,
      "amp": 1334,
      "recht": 1335,
      "man": 1336,
      "hÃ¤n": 1337,
      "ĠWei": 1338,
      "Ã¤hl": 1339,
      "ĠDes": 1340,
      "Ġbef": 1341,
      "ĠfÃ¼hr": 1342,
      "klich": 1343,
      "ĠEine": 1344,
      "sicht": 1345,
      "ilder": 1346,
      "eister": 1347,
      "Ġ12": 1348,
      "ĠSti": 1349,
      "achten": 1350,
      "ammen": 1351,
      "forder": 1352,
      "Ġeinmal": 1353,
      "ĠMed": 1354,
      "ĠInter": 1355,
      "org": 1356,
      "ĠUr": 1357,
      "ron": 1358,
      "ĠPf": 1359,
      "Ġverb": 1360,
      "Ġsicher": 1361,
      "ĠKunden": 1362,
      "stag": 1363,
      "wort": 1364,
      "Ġihn": 1365,
      "ĠschÃ¶n": 1366,
      "ym": 1367,
      "Ġmeine": 1368,
      "ĠSte": 1369,
      "gar": 1370,
      "ker": 1371,
      "rat": 1372,
      "Ġhoch": 1373,
      "hau": 1374,
      "Ġihren": 1375,
      "Ein": 1376,
      "echn": 1377,
      "Ġsteht": 1378,
      "isten": 1379,
      "Ġnie": 1380,
      "ritt": 1381,
      "ĠLe": 1382,
      "ĠAber": 1383,
      "Ġfol": 1384,
      "Ã¼nd": 1385,
      "mus": 1386,
      "ĠGem": 1387,
      "hin": 1388,
      "tlich": 1389,
      "yp": 1390,
      "rem": 1391,
      "Al": 1392,
      "agt": 1393,
      "stÃ¼t": 1394,
      "Ġjeder": 1395,
      "mann": 1396,
      "Ġho": 1397,
      "sprechen": 1398,
      "schein": 1399,
      "fern": 1400,
      "gew": 1401,
      "ĠBundes": 1402,
      "ĠWie": 1403,
      "ott": 1404,
      "schlie": 1405,
      "ĠMo": 1406,
      "ĠGen": 1407,
      "nahme": 1408,
      "eter": 1409,
      "ĠGro": 1410,
      "ĠOn": 1411,
      "Ġseinen": 1412,
      "ĠEuro": 1413,
      "cker": 1414,
      "grund": 1415,
      "rain": 1416,
      "Ġjedoch": 1417,
      "ĠVerb": 1418,
      "ER": 1419,
      "riv": 1420,
      "allen": 1421,
      "ĠFrei": 1422,
      "ionen": 1423,
      "altung": 1424,
      "immt": 1425,
      "Wir": 1426,
      "ĠFot": 1427,
      "ĠWar": 1428,
      "falls": 1429,
      "Ġsol": 1430,
      "ĠSeite": 1431,
      "enz": 1432,
      "zial": 1433,
      "ĠFil": 1434,
      "ringen": 1435,
      "bung": 1436,
      "ens": 1437,
      "ĠInternet": 1438,
      "âĢľ,": 1439,
      "ĠHier": 1440,
      "nisse": 1441,
      "Ġgeb": 1442,
      "euch": 1443,
      "Ġallem": 1444,
      "az": 1445,
      "zug": 1446,
      "kehr": 1447,
      "Ġlang": 1448,
      "ĠMann": 1449,
      "tre": 1450,
      "werk": 1451,
      "eitet": 1452,
      "Ġvoll": 1453,
      "als": 1454,
      "Ġen": 1455,
      "unst": 1456,
      "Ġblei": 1457,
      "ĠDurch": 1458,
      "legen": 1459,
      "Ġem": 1460,
      "cke": 1461,
      "Ã¤ft": 1462,
      "Ġdort": 1463,
      "Ġfest": 1464,
      "bo": 1465,
      "ĠwÃ¼rde": 1466,
      "ĠBuch": 1467,
      "ĠInformationen": 1468,
      "Ã¤nger": 1469,
      "ĠNe": 1470,
      "pti": 1471,
      "ĠRÃ¼ck": 1472,
      "10": 1473,
      "af": 1474,
      "Ġrecht": 1475,
      "jekt": 1476,
      "fang": 1477,
      "orgen": 1478,
      "prÃ¤": 1479,
      "ĠFall": 1480,
      "Ġbietet": 1481,
      "stÃ¤nd": 1482,
      "Ġeinge": 1483,
      "ĠLu": 1484,
      "ĠSchu": 1485,
      "zogen": 1486,
      "ĠFamil": 1487,
      "ĠArt": 1488,
      "orf": 1489,
      "Ġwelche": 1490,
      "ingen": 1491,
      "gabe": 1492,
      "ennt": 1493,
      "eitung": 1494,
      "riff": 1495,
      "chn": 1496,
      "kon": 1497,
      "Ġgar": 1498,
      "ere": 1499,
      "ĠKomm": 1500,
      "Ġkon": 1501,
      "Ġeh": 1502,
      "Ġben": 1503,
      "Ġinter": 1504,
      "Ã¶rt": 1505,
      "frei": 1506,
      "ĠFrauen": 1507,
      "von": 1508,
      "ĠÃĦ": 1509,
      "Ġmacht": 1510,
      "weit": 1511,
      "Ġallen": 1512,
      "fÃ¤l": 1513,
      "ice": 1514,
      "Ġ,": 1515,
      "Ġbel": 1516,
      "ĠÂ»": 1517,
      "Ġfrei": 1518,
      "Ġkom": 1519,
      "Ġsehen": 1520,
      "schluss": 1521,
      "unft": 1522,
      "Ġihm": 1523,
      "zimmer": 1524,
      "gramm": 1525,
      "ĠBeg": 1526,
      "Ġbzw": 1527,
      "anst": 1528,
      "ckt": 1529,
      "ĠProblem": 1530,
      "ĠLin": 1531,
      "itte": 1532,
      "arbeiten": 1533,
      "alis": 1534,
      "ĠSon": 1535,
      "ĠMÃ¶glich": 1536,
      "ĠBereich": 1537,
      "ipp": 1538,
      "rieben": 1539,
      "ations": 1540,
      "Ġwirklich": 1541,
      "fort": 1542,
      "ider": 1543,
      "wor": 1544,
      "Ġstehen": 1545,
      "schied": 1546,
      "Ġbr": 1547,
      "Ver": 1548,
      "els": 1549,
      "Ġ[": 1550,
      "Ġâ": 1551,
      "ĠEnde": 1552,
      "etten": 1553,
      "Ġbesser": 1554,
      "ĠNutz": 1555,
      "ĠBerlin": 1556,
      "tiert": 1557,
      "umen": 1558,
      "ĠLebens": 1559,
      "uer": 1560,
      "__": 1561,
      "Ġaktu": 1562,
      "Ġbeh": 1563,
      "Ġnichts": 1564,
      "ĠForm": 1565,
      "ĠDies": 1566,
      "tigt": 1567,
      "Ġkonnte": 1568,
      "ĠJu": 1569,
      "stens": 1570,
      "iet": 1571,
      "dings": 1572,
      "ĠAngeb": 1573,
      "ote": 1574,
      "je": 1575,
      "raf": 1576,
      "kunft": 1577,
      "ĠUS": 1578,
      "enk": 1579,
      "ite": 1580,
      "ans": 1581,
      "raft": 1582,
      "hÃ¶": 1583,
      "ĠKar": 1584,
      "ilfe": 1585,
      "opp": 1586,
      "co": 1587,
      "asst": 1588,
      "Ġon": 1589,
      "ĠSchul": 1590,
      "schaften": 1591,
      "ĠAll": 1592,
      "gaben": 1593,
      "ĠnatÃ¼rlich": 1594,
      "Ġwichtig": 1595,
      "ys": 1596,
      "Ġliegt": 1597,
      "Ã¼nf": 1598,
      "Ġleich": 1599,
      "Ġletzten": 1600,
      "ĠStud": 1601,
      "ĠDr": 1602,
      "av": 1603,
      "anis": 1604,
      "neh": 1605,
      "zer": 1606,
      "ĠStand": 1607,
      "opf": 1608,
      "inanz": 1609,
      "ĠKosten": 1610,
      "Ġmus": 1611,
      "ĠgrÃ¶": 1612,
      "19": 1613,
      "ktur": 1614,
      "eilen": 1615,
      "Ġ14": 1616,
      "ielt": 1617,
      "ĠBesch": 1618,
      "weil": 1619,
      "Ġerhalten": 1620,
      "wicklung": 1621,
      "ultur": 1622,
      "tier": 1623,
      "icherheit": 1624,
      "wohl": 1625,
      "stoff": 1626,
      "eider": 1627,
      "Ġverw": 1628,
      "Ġgerne": 1629,
      "ĠMark": 1630,
      "ersÃ¶n": 1631,
      "ĠOber": 1632,
      "kauf": 1633,
      "Ġ16": 1634,
      "ĠY": 1635,
      "ĠPreis": 1636,
      "Ġwollen": 1637,
      "ĠdafÃ¼r": 1638,
      "Ġstatt": 1639,
      "seite": 1640,
      "Ġverst": 1641,
      "ennen": 1642,
      "achsen": 1643,
      "ĠWeiter": 1644,
      "hlen": 1645,
      "gangen": 1646,
      "ĠStel": 1647,
      "Mit": 1648,
      "ĠHoch": 1649,
      "11": 1650,
      "ĠArbeits": 1651,
      "Ġwohl": 1652,
      "ette": 1653,
      "Ġ30": 1654,
      "ĠMal": 1655,
      "obil": 1656,
      "zeug": 1657,
      "rom": 1658,
      "ĠnÃ¤ch": 1659,
      "Ġgenau": 1660,
      "Ġgemein": 1661,
      "Ġ:": 1662,
      "lex": 1663,
      "voll": 1664,
      "ĠBÃ¼r": 1665,
      "one": 1666,
      "fil": 1667,
      "app": 1668,
      "ĠmÃ¶chte": 1669,
      "ino": 1670,
      "inger": 1671,
      "Ġgeben": 1672,
      "arm": 1673,
      "olit": 1674,
      "Ġschw": 1675,
      "ĠZusammen": 1676,
      "ĠOnline": 1677,
      "ĠPh": 1678,
      "rÃ¤n": 1679,
      "heim": 1680,
      "Ã¤ter": 1681,
      "Ġgerade": 1682,
      "utzen": 1683,
      "Ġwe": 1684,
      "Ã¤sst": 1685,
      "Ġ2018": 1686,
      "sÃ¤tz": 1687,
      "Ã¼ss": 1688,
      "\",": 1689,
      "ingt": 1690,
      "hand": 1691,
      "Ã¶rper": 1692,
      "ĠSport": 1693,
      "isk": 1694,
      "einer": 1695,
      "punkt": 1696,
      "bei": 1697,
      "Im": 1698,
      "ĠwÃ¤hrend": 1699,
      "bet": 1700,
      "Ġvielen": 1701,
      "itzen": 1702,
      "aterial": 1703,
      "ĠwÃ¤re": 1704,
      "Ġjeden": 1705,
      "ĠSta": 1706,
      "iere": 1707,
      "leicht": 1708,
      "rech": 1709,
      "bie": 1710,
      "Ġget": 1711,
      "Ġseinem": 1712,
      "ruppe": 1713,
      "stra": 1714,
      "Ġdirekt": 1715,
      "etter": 1716,
      "Ġrund": 1717,
      "Ġeinige": 1718,
      "ager": 1719,
      "tikel": 1720,
      "Ġweitere": 1721,
      "ellschaft": 1722,
      "utter": 1723,
      "ĠMusik": 1724,
      "druck": 1725,
      "rift": 1726,
      "ĠWeg": 1727,
      "leist": 1728,
      "lig": 1729,
      "ĠSel": 1730,
      "sol": 1731,
      "ĠBed": 1732,
      "ember": 1733,
      "ĠFach": 1734,
      "12": 1735,
      "ĠKÃ¼": 1736,
      "iff": 1737,
      "ĠEurop": 1738,
      "50": 1739,
      "....": 1740,
      "Ġ17": 1741,
      "Ġdenen": 1742,
      "Ġwenig": 1743,
      "Ġsex": 1744,
      "Es": 1745,
      "ĠBeh": 1746,
      "nehmen": 1747,
      "Ġir": 1748,
      "Ã¤ss": 1749,
      "sl": 1750,
      "Ĥ¬": 1751,
      "ĠgroÃŁe": 1752,
      "Ġoft": 1753,
      "âĢĿ": 1754,
      "30": 1755,
      "ĠSa": 1756,
      "ĠGeld": 1757,
      "igung": 1758,
      "ĠhÃ¤t": 1759,
      "icken": 1760,
      "Ġhand": 1761,
      "ampf": 1762,
      "Ġkurz": 1763,
      "Ġbeiden": 1764,
      "ied": 1765,
      "ahmen": 1766,
      "ĠgroÃŁen": 1767,
      "EN": 1768,
      "hop": 1769,
      "rist": 1770,
      "ĠStr": 1771,
      "Ġlange": 1772,
      "beh": 1773,
      "ĠGemein": 1774,
      "ĠLeist": 1775,
      "ative": 1776,
      "ven": 1777,
      "ĠMod": 1778,
      "verb": 1779,
      "ĠAls": 1780,
      "aÃŁ": 1781,
      "aher": 1782,
      "itu": 1783,
      "Ġmo": 1784,
      "Ġoffen": 1785,
      "licht": 1786,
      "gestellt": 1787,
      "Ġ100": 1788,
      "Ġgehen": 1789,
      "bereich": 1790,
      "ief": 1791,
      "scheid": 1792,
      "Ġfr": 1793,
      "Ġbieten": 1794,
      "ose": 1795,
      "ĠVerl": 1796,
      "Ġof": 1797,
      "schlieÃŁ": 1798,
      "are": 1799,
      "ix": 1800,
      "olz": 1801,
      "Ġbesonders": 1802,
      "str": 1803,
      "Ġempf": 1804,
      "up": 1805,
      "Ġetwa": 1806,
      "rotz": 1807,
      "ĠGegen": 1808,
      "mÃ¶glich": 1809,
      "ĠWochen": 1810,
      "ĠVide": 1811,
      "achte": 1812,
      "Ġgute": 1813,
      "Ġdarauf": 1814,
      "uter": 1815,
      "stadt": 1816,
      "ĠIhrer": 1817,
      "feld": 1818,
      "Ġbrau": 1819,
      "ĠPlatz": 1820,
      "aler": 1821,
      "ĠChr": 1822,
      "ax": 1823,
      "ĠFar": 1824,
      "ĠSeiten": 1825,
      "Ã¶ren": 1826,
      "Ġerste": 1827,
      "Ġsogar": 1828,
      "ĠgroÃŁ": 1829,
      "Ġunseren": 1830,
      "ib": 1831,
      "erk": 1832,
      "urs": 1833,
      "ehn": 1834,
      "ĠKr": 1835,
      "Ġstell": 1836,
      "Ġeigenen": 1837,
      "ĠThema": 1838,
      "Ġgemacht": 1839,
      "ĠHotel": 1840,
      "Ã¼b": 1841,
      "Ġverm": 1842,
      "eigt": 1843,
      "einander": 1844,
      "Ġteil": 1845,
      "Ġwissen": 1846,
      "gÃ¤n": 1847,
      "ĠMitgl": 1848,
      "reise": 1849,
      "old": 1850,
      "Ġch": 1851,
      "ahlen": 1852,
      "ĠIde": 1853,
      "ĠkÃ¶nnte": 1854,
      "Ġbesten": 1855,
      "Ã¶rder": 1856,
      "ĠMill": 1857,
      "ĠÃ¶ff": 1858,
      "ommer": 1859,
      "ings": 1860,
      "Ġca": 1861,
      "Ã¼d": 1862,
      "auft": 1863,
      "mb": 1864,
      "weis": 1865,
      "ĠOrt": 1866,
      "ĠSu": 1867,
      "legt": 1868,
      "Ġ11": 1869,
      "jÃ¤hr": 1870,
      "ĠGeschÃ¤ft": 1871,
      "ĠNatur": 1872,
      "Â«": 1873,
      "Ġ13": 1874,
      "ĠKunst": 1875,
      "Ġstark": 1876,
      "fÃ¼hrt": 1877,
      "!!": 1878,
      "ĠlÃ¤sst": 1879,
      "scht": 1880,
      "gegen": 1881,
      "Sp": 1882,
      "ĠauÃŁer": 1883,
      "ilt": 1884,
      "ĠEm": 1885,
      "ore": 1886,
      "fÃ¼l": 1887,
      "ĠPar": 1888,
      "leben": 1889,
      "wand": 1890,
      "ologie": 1891,
      "ufen": 1892,
      "ĠTer": 1893,
      "lossen": 1894,
      "IN": 1895,
      "Ġentsprechen": 1896,
      "ĠThe": 1897,
      "ĠBeispiel": 1898,
      "ĠTechn": 1899,
      "ister": 1900,
      "ffe": 1901,
      "hof": 1902,
      "zieh": 1903,
      "ĠMittel": 1904,
      "aben": 1905,
      "Ġpl": 1906,
      "ĠEner": 1907,
      "yn": 1908,
      "genden": 1909,
      "ĠfrÃ¼": 1910,
      "Ġwei": 1911,
      "laub": 1912,
      "ĠOb": 1913,
      "ĠSpr": 1914,
      "ĠHÃ¶": 1915,
      "bildung": 1916,
      "ĠAd": 1917,
      "mÃ¤ÃŁ": 1918,
      "tik": 1919,
      "ond": 1920,
      "ichtet": 1921,
      "Ġaufge": 1922,
      "ĠErfahr": 1923,
      "Ġfast": 1924,
      "mm": 1925,
      "ĠFol": 1926,
      "ĠJugend": 1927,
      "ĠKn": 1928,
      "Ġdavon": 1929,
      "arbeiter": 1930,
      "ame": 1931,
      "ĠX": 1932,
      "Ġeuch": 1933,
      "schnit": 1934,
      "ĠZiel": 1935,
      "Ġjeweil": 1936,
      "ĠpersÃ¶n": 1937,
      "Ã¤ten": 1938,
      "Ã©": 1939,
      "Ġthe": 1940,
      "ĠAben": 1941,
      "20": 1942,
      "auen": 1943,
      "anken": 1944,
      "Ġinner": 1945,
      "mar": 1946,
      "echt": 1947,
      "ĠVerein": 1948,
      "urt": 1949,
      "Er": 1950,
      "Ġunserem": 1951,
      "Ġgl": 1952,
      "ollte": 1953,
      "ĠTeam": 1954,
      "ĠFrage": 1955,
      "Ġzie": 1956,
      "Ġgemeinsam": 1957,
      "tieren": 1958,
      "ĠFrank": 1959,
      "Ġrichtig": 1960,
      "Pro": 1961,
      "ook": 1962,
      "Ġfindet": 1963,
      "ĠProzent": 1964,
      "ĠTex": 1965,
      "ĠIhren": 1966,
      "Ġentwick": 1967,
      "Ġinteress": 1968,
      "nahmen": 1969,
      "wahl": 1970,
      "ĠRahmen": 1971,
      "eisten": 1972,
      "ĠweiÃŁ": 1973,
      "Ġ50": 1974,
      "Ġu": 1975,
      "ĠHaupt": 1976,
      "rauen": 1977,
      "ina": 1978,
      "ĠDi": 1979,
      "ĠDar": 1980,
      "Ġpaar": 1981,
      "ĠDienst": 1982,
      "glichen": 1983,
      "ĠRegel": 1984,
      "inen": 1985,
      "Ã¤tig": 1986,
      "Ġrei": 1987,
      "ĠKir": 1988,
      "ĠFir": 1989,
      "arbeitung": 1990,
      "ĠMet": 1991,
      "etzen": 1992,
      "ware": 1993,
      "Ġabge": 1994,
      "anten": 1995,
      "ĠAnt": 1996,
      "ĠAt": 1997,
      ".âĢľ": 1998,
      "ase": 1999,
      "Ġind": 2000,
      "Ġel": 2001,
      "ĠSicherheit": 2002,
      "ĠApp": 2003,
      "Ġx": 2004,
      "Ġhinter": 2005,
      "Ġkaufen": 2006,
      "antwort": 2007,
      "ath": 2008,
      "welt": 2009,
      "Â»": 2010,
      "red": 2011,
      "Ġvier": 2012,
      "isches": 2013,
      "CH": 2014,
      "ĠSystem": 2015,
      "Ġmeiner": 2016,
      "Ġirgend": 2017,
      "annten": 2018,
      "Ġdich": 2019,
      "ure": 2020,
      "Ġkleine": 2021,
      "Ġihrem": 2022,
      "roffen": 2023,
      "Ġgilt": 2024,
      "18": 2025,
      "stÃ¼ck": 2026,
      "ĠGo": 2027,
      "Ġzwar": 2028,
      "ivers": 2029,
      "reffen": 2030,
      "ĠâĢľ": 2031,
      "Ġonline": 2032,
      "ome": 2033,
      "gehen": 2034,
      "Ġheraus": 2035,
      "ĠBilder": 2036,
      "omat": 2037,
      "ĠSk": 2038,
      "zung": 2039,
      "ĠEigen": 2040,
      "alter": 2041,
      "platz": 2042,
      "Ã¤hlen": 2043,
      "ĠInst": 2044,
      "ober": 2045,
      "ivi": 2046,
      "iges": 2047,
      "amer": 2048,
      "ĠSelbst": 2049,
      "ĠQualitÃ¤t": 2050,
      "Ġgab": 2051,
      "Ġ25": 2052,
      "ĠHin": 2053,
      "ĠdaÃŁ": 2054,
      "ĠMehr": 2055,
      "fÃ¼hrung": 2056,
      "tiv": 2057,
      "Ġkleinen": 2058,
      "ubl": 2059,
      "Ġderen": 2060,
      "ĠverfÃ¼": 2061,
      "uren": 2062,
      "ĠVerfÃ¼": 2063,
      "iker": 2064,
      "Ġhatten": 2065,
      "hle": 2066,
      "ball": 2067,
      "ĠBesuch": 2068,
      "Ã¤tze": 2069,
      "ĠFest": 2070,
      "ĠPartner": 2071,
      "schw": 2072,
      "atten": 2073,
      "buch": 2074,
      "Ġ199": 2075,
      "Ġerfolg": 2076,
      "li": 2077,
      "jahr": 2078,
      "zept": 2079,
      "ĠMe": 2080,
      "scher": 2081,
      "liches": 2082,
      "ĠVert": 2083,
      "Ã¤us": 2084,
      "ital": 2085,
      "Ġschwer": 2086,
      "sy": 2087,
      "echs": 2088,
      "blick": 2089,
      "Ġallerdings": 2090,
      "heiten": 2091,
      "ĠSer": 2092,
      "ock": 2093,
      "ĠFragen": 2094,
      "ĠAuft": 2095,
      "des": 2096,
      "Ġern": 2097,
      "lichkeit": 2098,
      "ĠDenn": 2099,
      "Ġro": 2100,
      "ets": 2101,
      "ain": 2102,
      "ĠPrÃ¤": 2103,
      "ĠJe": 2104,
      "ĠKom": 2105,
      "atte": 2106,
      "ĠMÃ¼n": 2107,
      "Ġneben": 2108,
      "Ġnehmen": 2109,
      "ĠDoch": 2110,
      "beding": 2111,
      "ĠViel": 2112,
      "Ġwahr": 2113,
      "âĢŀ": 2114,
      "ichts": 2115,
      "agte": 2116,
      "ĠTr": 2117,
      "rakti": 2118,
      "ividu": 2119,
      "ĠprÃ¤": 2120,
      "Sie": 2121,
      "Wenn": 2122,
      "ĠspÃ¤ter": 2123,
      "Ġspez": 2124,
      "ile": 2125,
      "Ã¤ndern": 2126,
      "agement": 2127,
      "ĠBeit": 2128,
      "Ġ#": 2129,
      "flÃ¤": 2130,
      "Ã¤hlt": 2131,
      "Ã¤hn": 2132,
      "Ġtun": 2133,
      "mÃ¶": 2134,
      "vent": 2135,
      "ĠEU": 2136,
      "ĠEinsatz": 2137,
      "ĠVol": 2138,
      "Ġunterschied": 2139,
      "bach": 2140,
      "ĠRechts": 2141,
      "ĠGeschichte": 2142,
      "ehlen": 2143,
      "ity": 2144,
      "annte": 2145,
      "ĠServ": 2146,
      "ĠWissen": 2147,
      "arte": 2148,
      "ĠDir": 2149,
      "genommen": 2150,
      "ĠArtikel": 2151,
      "ĠVon": 2152,
      "Ġsollten": 2153,
      "ons": 2154,
      "ĠJun": 2155,
      "ĠunterstÃ¼t": 2156,
      "undheit": 2157,
      "indung": 2158,
      "ĠdÃ¼r": 2159,
      "indest": 2160,
      "stehen": 2161,
      "Ġgesp": 2162,
      "lege": 2163,
      "ĠSchwei": 2164,
      "reg": 2165,
      "ĠPer": 2166,
      "ĠRu": 2167,
      "ĠBel": 2168,
      "ichtige": 2169,
      "Ã¤nd": 2170,
      "ko": 2171,
      "les": 2172,
      "spro": 2173,
      "eller": 2174,
      "Bei": 2175,
      "Ġweit": 2176,
      "AN": 2177,
      "leb": 2178,
      "sterreich": 2179,
      "mals": 2180,
      "ĠFer": 2181,
      "Ġ2017": 2182,
      "Ã¶ffentlich": 2183,
      "ĠKo": 2184,
      "affen": 2185,
      "Ġbede": 2186,
      "verl": 2187,
      "Ġkam": 2188,
      "Ġleben": 2189,
      "ĠNov": 2190,
      "ĠFuÃŁ": 2191,
      "ester": 2192,
      "ĠProjekt": 2193,
      "ĠMÃ¤n": 2194,
      "ĠLehr": 2195,
      "ool": 2196,
      "ator": 2197,
      "ĠPr": 2198,
      "ĠMarkt": 2199,
      "Ġworden": 2200,
      "Ġihnen": 2201,
      "Ġbekommen": 2202,
      "ĠZahl": 2203,
      "setzung": 2204,
      "ĠerklÃ¤r": 2205,
      "ĠMÃ¶glichkeit": 2206,
      "ĠKa": 2207,
      "lieÃŁ": 2208,
      "zÃ¼": 2209,
      "ĠFilm": 2210,
      "omit": 2211,
      "ĠBÃ¼": 2212,
      "ruktur": 2213,
      "rÃ¼f": 2214,
      "Ġsagen": 2215,
      "Ġnah": 2216,
      "spruch": 2217,
      "ĠKrank": 2218,
      "ruppen": 2219,
      "laden": 2220,
      "arbeitet": 2221,
      "ĠEnergie": 2222,
      "ĠPat": 2223,
      ".:": 2224,
      "Ã¶t": 2225,
      "gst": 2226,
      "ĠWe": 2227,
      "ente": 2228,
      "Ġeigentlich": 2229,
      "rauch": 2230,
      "âĢľ.": 2231,
      "Ġ24": 2232,
      "eint": 2233,
      "erst": 2234,
      "steller": 2235,
      "ational": 2236,
      "Nach": 2237,
      "ĠProdukt": 2238,
      "ĠHa": 2239,
      "Ġleicht": 2240,
      "ĠKontakt": 2241,
      "ĠBlick": 2242,
      "mo": 2243,
      "ient": 2244,
      "utt": 2245,
      "rÃ¤ge": 2246,
      "ĠGeh": 2247,
      "rigen": 2248,
      "ĠGrÃ¼n": 2249,
      "ĠBeruf": 2250,
      "baren": 2251,
      "olf": 2252,
      "ĠGroÃŁ": 2253,
      "ĠAngebot": 2254,
      "Ġvert": 2255,
      "wohn": 2256,
      "Ġcm": 2257,
      "ĠFunktion": 2258,
      "dent": 2259,
      "Ġweniger": 2260,
      "ĠRecht": 2261,
      "Ġverk": 2262,
      "Ġintern": 2263,
      "Ġzeigt": 2264,
      "ĠHam": 2265,
      "Ġgek": 2266,
      "Ġfor": 2267,
      "ĠTran": 2268,
      "Ġzahl": 2269,
      "Ġkeinen": 2270,
      "reiche": 2271,
      "ichtung": 2272,
      "mbH": 2273,
      "bare": 2274,
      "th": 2275,
      "ĠTage": 2276,
      "ĠMinuten": 2277,
      "Ġklein": 2278,
      "stein": 2279,
      "ĠMein": 2280,
      "ĠVerfÃ¼gung": 2281,
      "ĠSchn": 2282,
      "Ġschl": 2283,
      "ĠFrÃ¼": 2284,
      "ĠWor": 2285,
      "ĠRaum": 2286,
      "reifen": 2287,
      "Ġverschiedenen": 2288,
      "Ġopti": 2289,
      "Ġqu": 2290,
      "sf": 2291,
      "ĠAuto": 2292,
      "ĠhÃ¤tte": 2293,
      "Ġstellen": 2294,
      "Ġschreiben": 2295,
      "Ã¤te": 2296,
      "Ġaut": 2297,
      "15": 2298,
      "gesetzt": 2299,
      "lungen": 2300,
      "zel": 2301,
      "fon": 2302,
      "ance": 2303,
      "wendung": 2304,
      "ienen": 2305,
      "ession": 2306,
      "ï¿": 2307,
      "ĠVeranst": 2308,
      "ï¿½": 2309,
      "warz": 2310,
      "ption": 2311,
      "ĠBetrieb": 2312,
      "Ã¼ler": 2313,
      "nehmer": 2314,
      "kung": 2315,
      "ĠErgeb": 2316,
      "deut": 2317,
      "ĠDat": 2318,
      "bin": 2319,
      "ĠAugen": 2320,
      "Mail": 2321,
      "arf": 2322,
      "gemein": 2323,
      "ĠHe": 2324,
      "Ġfreu": 2325,
      "geber": 2326,
      "ĠTest": 2327,
      "Ã¤ren": 2328,
      "fÃ¼hl": 2329,
      "Ġebenfalls": 2330,
      "sweise": 2331,
      "ffiz": 2332,
      "ĠNacht": 2333,
      "ĠBas": 2334,
      "itel": 2335,
      "ĠDank": 2336,
      "stÃ¤ndig": 2337,
      "Ġeher": 2338,
      "inner": 2339,
      "Ġvielleicht": 2340,
      "Ã¤chst": 2341,
      "ĠzusÃ¤tz": 2342,
      "ĠNetz": 2343,
      "ĠPersonen": 2344,
      "Ġdaher": 2345,
      "Ã¤nde": 2346,
      "Ġerz": 2347,
      "ĠJahres": 2348,
      "ĠKÃ¶rper": 2349,
      "ĠGmbH": 2350,
      "ĠDann": 2351,
      "ĠWirtschaft": 2352,
      "site": 2353,
      "eten": 2354,
      "Ã¤um": 2355,
      "Ġklar": 2356,
      "artner": 2357,
      "ĠMÃ¤r": 2358,
      "fr": 2359,
      "Ġmeinen": 2360,
      "ĠFlug": 2361,
      "tisch": 2362,
      "ĠUnser": 2363,
      "abel": 2364,
      "ĠVort": 2365,
      "ichtigen": 2366,
      "sport": 2367,
      "ĠMitarbeiter": 2368,
      "hÃ¤ng": 2369,
      "herap": 2370,
      "ĠLandes": 2371,
      "ummer": 2372,
      "Ġkostenlos": 2373,
      "werb": 2374,
      "treten": 2375,
      "Ġbl": 2376,
      "lose": 2377,
      "besser": 2378,
      "orien": 2379,
      "\".": 2380,
      "schung": 2381,
      "leid": 2382,
      "ĠSommer": 2383,
      "ĠRad": 2384,
      "ĠTrain": 2385,
      "Ġkompl": 2386,
      "ĠKomp": 2387,
      "ĠDesign": 2388,
      "Ġkannst": 2389,
      "Ġsollen": 2390,
      "ches": 2391,
      "ante": 2392,
      "scheiden": 2393,
      "ĠCl": 2394,
      "Ġpassen": 2395,
      "Ġbew": 2396,
      "ĠSal": 2397,
      "Ġwegen": 2398,
      "mel": 2399,
      "Ġend": 2400,
      "ĠKap": 2401,
      "ĠTele": 2402,
      "zeitig": 2403,
      "ĠGott": 2404,
      "schlag": 2405,
      "ĠReise": 2406,
      "ĠDabei": 2407,
      "Auf": 2408,
      "ww": 2409,
      "Ã¶ÃŁe": 2410,
      "ĠSh": 2411,
      "ĠKind": 2412,
      "ĠHal": 2413,
      "zess": 2414,
      "ĠAbend": 2415,
      "gs": 2416,
      "unk": 2417,
      "Ġspielen": 2418,
      "âĢĻ": 2419,
      "ĠStunden": 2420,
      "Ġfre": 2421,
      "ĠDen": 2422,
      "leg": 2423,
      "ĠCas": 2424,
      "ika": 2425,
      "fin": 2426,
      "Ġkont": 2427,
      "utzt": 2428,
      "ĠNew": 2429,
      "FÃ¼r": 2430,
      "ĠProf": 2431,
      "Ġbekannt": 2432,
      "ĠgehÃ¶rt": 2433,
      "Ġerfol": 2434,
      "ĠIhrem": 2435,
      "Ã¶sung": 2436,
      "ĠRest": 2437,
      "ct": 2438,
      "laf": 2439,
      "spl": 2440,
      "bezogen": 2441,
      "icherung": 2442,
      ".\"": 2443,
      "Ġangeb": 2444,
      "Ġsieht": 2445,
      "Ġbesteht": 2446,
      "assung": 2447,
      "ĠWo": 2448,
      "tif": 2449,
      "ĠChrist": 2450,
      "ĠMaterial": 2451,
      "zlich": 2452,
      "sehen": 2453,
      "abl": 2454,
      "14": 2455,
      "Ġging": 2456,
      "par": 2457,
      "ĠDem": 2458,
      "lay": 2459,
      "osition": 2460,
      "ondere": 2461,
      "ĠWerk": 2462,
      "Ġ2016": 2463,
      "halte": 2464,
      "ĠStÃ¼ck": 2465,
      "izin": 2466,
      "statt": 2467,
      "wendet": 2468,
      "hren": 2469,
      "ĠLi": 2470,
      "Ġzun": 2471,
      "ĠHerr": 2472,
      "ĠWahl": 2473,
      "ersonen": 2474,
      "Ġkn": 2475,
      "ĠBen": 2476,
      "ĠKat": 2477,
      "akte": 2478,
      "Ġsagt": 2479,
      "besch": 2480,
      "gende": 2481,
      "ĠJan": 2482,
      "ĠWind": 2483,
      "ĠAbs": 2484,
      "ĠNamen": 2485,
      "ĠWert": 2486,
      "ters": 2487,
      "Ġtrotz": 2488,
      "ĠProgramm": 2489,
      "pen": 2490,
      "Ġwunder": 2491,
      "Ġbleibt": 2492,
      "Ġwerde": 2493,
      "ĠnÃ¤chsten": 2494,
      "rieden": 2495,
      ".)": 2496,
      "ĠSam": 2497,
      "ĠGarten": 2498,
      "unt": 2499,
      "elfen": 2500,
      "schule": 2501,
      "ikation": 2502,
      "Ġsagte": 2503,
      "ĠEntwicklung": 2504,
      "ĠZum": 2505,
      "fest": 2506,
      "ĠPorn": 2507,
      "Ġsofort": 2508,
      "otor": 2509,
      "ogle": 2510,
      "200": 2511,
      "ĠJul": 2512,
      "ernen": 2513,
      "Ġsonst": 2514,
      "anzen": 2515,
      "ĠOrg": 2516,
      "Ġbisher": 2517,
      "Ġ.:": 2518,
      "tember": 2519,
      "arr": 2520,
      "Ã¤f": 2521,
      "auber": 2522,
      "pfen": 2523,
      "ek": 2524,
      "eignet": 2525,
      "Ġindividu": 2526,
      "Ġeinzel": 2527,
      "ĠVertrag": 2528,
      "ĠâĤ¬": 2529,
      "iegel": 2530,
      "ĠNicht": 2531,
      "aly": 2532,
      "Ã¤dchen": 2533,
      "ĠGel": 2534,
      "ins": 2535,
      "ĠHolz": 2536,
      "rax": 2537,
      "16": 2538,
      "Ġinnerhalb": 2539,
      "ĠPlan": 2540,
      "Ġbed": 2541,
      "iken": 2542,
      "ritten": 2543,
      "ĠKauf": 2544,
      "Ġleider": 2545,
      "sych": 2546,
      "Ġdeutschen": 2547,
      "weisen": 2548,
      "Ġjedem": 2549,
      "Ġdarf": 2550,
      "unkte": 2551,
      "ĠdarÃ¼ber": 2552,
      "wasser": 2553,
      "Ġ40": 2554,
      "ĠBad": 2555,
      "ikan": 2556,
      "met": 2557,
      "ĠProdukte": 2558,
      "tra": 2559,
      "Ġmeisten": 2560,
      "oc": 2561,
      "walt": 2562,
      "Ġwollte": 2563,
      "ĠWoche": 2564,
      "gef": 2565,
      "ĠFamilie": 2566,
      "ĠBÃ¼rger": 2567,
      "ĠAlle": 2568,
      "ĠLuft": 2569,
      "ĠKopf": 2570,
      "Ġdeutlich": 2571,
      "tler": 2572,
      "Ġjem": 2573,
      "Ġbitte": 2574,
      "Ġganze": 2575,
      "ĠÂ«": 2576,
      "ĠKultur": 2577,
      "Ġersch": 2578,
      "tegr": 2579,
      "schuhe": 2580,
      "iter": 2581,
      "ĠOkt": 2582,
      "ĠWebsite": 2583,
      "ĠStart": 2584,
      "ktionen": 2585,
      "ruf": 2586,
      "echsel": 2587,
      "aur": 2588,
      "haft": 2589,
      "ĠLes": 2590,
      "chte": 2591,
      "ĠmÃ¶chten": 2592,
      "Ġreg": 2593,
      "aren": 2594,
      "ots": 2595,
      "geh": 2596,
      "Ãľ": 2597,
      "Ġstellt": 2598,
      "ĠFinanz": 2599,
      "urop": 2600,
      "usst": 2601,
      "Ġnutzen": 2602,
      "Ġfl": 2603,
      "get": 2604,
      "ĠUnivers": 2605,
      "die": 2606,
      "ismus": 2607,
      "umm": 2608,
      "ĠGed": 2609,
      "ĠBand": 2610,
      "ĠTa": 2611,
      "itÃ¤ten": 2612,
      "ĠheiÃŁ": 2613,
      "ight": 2614,
      "Ã¼cken": 2615,
      "ĠGut": 2616,
      "ĠgrÃ¶ÃŁ": 2617,
      "Ã¶hn": 2618,
      "Ġregel": 2619,
      "ĠZwei": 2620,
      "schnitt": 2621,
      "ĠWinter": 2622,
      "Ġmeinem": 2623,
      "Ġfunktion": 2624,
      "Ġbleiben": 2625,
      "ĠFamilien": 2626,
      "Ġschle": 2627,
      "ĠTÃ¼r": 2628,
      "ĠGeschÃ¤fts": 2629,
      "entr": 2630,
      "haupt": 2631,
      "ĠNeben": 2632,
      "vest": 2633,
      "wÃ¼r": 2634,
      "Ġand": 2635,
      "ftware": 2636,
      "system": 2637,
      "ĠGast": 2638,
      "besondere": 2639,
      "Ġverd": 2640,
      "eien": 2641,
      "Am": 2642,
      "cen": 2643,
      "othe": 2644,
      "ieb": 2645,
      "ungsk": 2646,
      "zip": 2647,
      "Ġpriv": 2648,
      "ĠhÃ¶": 2649,
      "ieg": 2650,
      "ise": 2651,
      "meister": 2652,
      "Ã¤chlich": 2653,
      "itter": 2654,
      "ari": 2655,
      "ĠDruck": 2656,
      "ilf": 2657,
      "ĠFreund": 2658,
      "Ġerwar": 2659,
      "ĠSchÃ¼ler": 2660,
      "ĠfÃ¼": 2661,
      "ĠbenÃ¶": 2662,
      "17": 2663,
      "ĠBi": 2664,
      "ĠZukunft": 2665,
      "meld": 2666,
      "ĠAk": 2667,
      "asch": 2668,
      "Ġoben": 2669,
      "ĠFern": 2670,
      "ĠGesundheit": 2671,
      "Ġgesam": 2672,
      "Ġhinaus": 2673,
      "igt": 2674,
      "Aus": 2675,
      "ĠÂ§": 2676,
      "gesamt": 2677,
      "Ġne": 2678,
      "leitung": 2679,
      "gesetz": 2680,
      "ĠEltern": 2681,
      "ĠEle": 2682,
      "ison": 2683,
      "Ġkennen": 2684,
      "dienst": 2685,
      "Ġbringen": 2686,
      "ĠSchutz": 2687,
      "80": 2688,
      "ĠBro": 2689,
      "Ġinform": 2690,
      "Ġjede": 2691,
      "Ġ%": 2692,
      "adurch": 2693,
      "Ġhast": 2694,
      "Ġ+": 2695,
      "Ġzeigen": 2696,
      "ĠHilfe": 2697,
      "eichen": 2698,
      "ĠJuni": 2699,
      "ĠTour": 2700,
      "ĠErfolg": 2701,
      "ĠPriv": 2702,
      "ĠGÃ¤": 2703,
      "Ġaktiv": 2704,
      "Ġ22": 2705,
      "So": 2706,
      "Ġide": 2707,
      "ĠNieder": 2708,
      "ĠPark": 2709,
      "inge": 2710,
      "zeichnet": 2711,
      "ĠKommun": 2712,
      "Ġ2015": 2713,
      "ĠSuche": 2714,
      "Ġeigene": 2715,
      "son": 2716,
      "Ġtechn": 2717,
      "ĠHerz": 2718,
      "ĠMai": 2719,
      "ĠgegenÃ¼ber": 2720,
      "unge": 2721,
      "ĠÃ¶": 2722,
      "Ġkaum": 2723,
      "ĠHÃ¶he": 2724,
      "Ġkomp": 2725,
      "Ġnot": 2726,
      "Ġdein": 2727,
      "Ġprof": 2728,
      "ĠÃ¼b": 2729,
      "ĠAnfang": 2730,
      "ĠSep": 2731,
      "griff": 2732,
      "Ar": 2733,
      "ĠMillionen": 2734,
      "ĠPoliz": 2735,
      "dorf": 2736,
      "Ã¤ufig": 2737,
      "ĀĀ": 2738,
      "own": 2739,
      "zus": 2740,
      "Ġerk": 2741,
      "ĠOktober": 2742,
      "ienten": 2743,
      "Ġsuchen": 2744,
      "gest": 2745,
      "ĠEd": 2746,
      "ĠfÃ¼nf": 2747,
      "ou": 2748,
      "Ġbestimm": 2749,
      "fel": 2750,
      "Ġverschiedene": 2751,
      "ĠNord": 2752,
      "lungs": 2753,
      ".,": 2754,
      "Ġguten": 2755,
      "ĠLiefer": 2756,
      "ehm": 2757,
      "Ġweiteren": 2758,
      "richten": 2759,
      "ĠVideo": 2760,
      "sent": 2761,
      "Ġ21": 2762,
      "ĠBus": 2763,
      "ĠGlÃ¼ck": 2764,
      "ĠGoogle": 2765,
      "stellungen": 2766,
      "enzen": 2767,
      "igin": 2768,
      "ĠEntscheid": 2769,
      "ommun": 2770,
      "Ġhal": 2771,
      "ĠLicht": 2772,
      "tigkeit": 2773,
      "hem": 2774,
      "Ġerw": 2775,
      "anach": 2776,
      "ĠHinter": 2777,
      "ĠgÃ¼nst": 2778,
      "etail": 2779,
      "-,": 2780,
      "____": 2781,
      "klus": 2782,
      "Ġhalten": 2783,
      ";;": 2784,
      "ordnung": 2785,
      "ĠGesellschaft": 2786,
      "stimm": 2787,
      "duz": 2788,
      "frage": 2789,
      "ĠLauf": 2790,
      "Ġverwendet": 2791,
      "zuf": 2792,
      "ĠRes": 2793,
      "Eine": 2794,
      "ĠSol": 2795,
      "tische": 2796,
      "ativen": 2797,
      "ahren": 2798,
      "bert": 2799,
      "ĠHeim": 2800,
      "fre": 2801,
      "ksam": 2802,
      "ĠEinzel": 2803,
      "ĠKÃ¶n": 2804,
      "ziehen": 2805,
      "istor": 2806,
      "ĠfÃ¼hren": 2807,
      "ĠRegion": 2808,
      "atung": 2809,
      "setzen": 2810,
      "radition": 2811,
      "raxis": 2812,
      "ĠBar": 2813,
      "hein": 2814,
      "Ġabsol": 2815,
      "ĠMag": 2816,
      "Ġhelfen": 2817,
      "ĠPolit": 2818,
      "ĠBoden": 2819,
      "yl": 2820,
      "stelle": 2821,
      "ĠNovember": 2822,
      "ĠMaÃŁ": 2823,
      "13": 2824,
      "tert": 2825,
      "ĠMedien": 2826,
      "Ġhervor": 2827,
      "wegen": 2828,
      "ums": 2829,
      "ĠAnd": 2830,
      "Ġwelt": 2831,
      "uck": 2832,
      "ĠSeptember": 2833,
      "ĠNÃ¤": 2834,
      "Ġar": 2835,
      "ĠAug": 2836,
      "ĠKlein": 2837,
      "iell": 2838,
      "osit": 2839,
      "ehler": 2840,
      "ĠInnen": 2841,
      "ĠTem": 2842,
      "Ġsu": 2843,
      "ritte": 2844,
      "ĠAuswahl": 2845,
      "tens": 2846,
      "Ġkonnten": 2847,
      "hab": 2848,
      "kr": 2849,
      "unsch": 2850,
      "orgt": 2851,
      "rich": 2852,
      "techn": 2853,
      "Ġweg": 2854,
      "wirtschaft": 2855,
      "itze": 2856,
      "com": 2857,
      "En": 2858,
      "ande": 2859,
      "andlung": 2860,
      "ĠErn": 2861,
      "sa": 2862,
      "entlichen": 2863,
      "ausch": 2864,
      "ĠGest": 2865,
      "onnen": 2866,
      "Ġbevor": 2867,
      "Ġdessen": 2868,
      "Ġsozial": 2869,
      "mÃ¤ÃŁig": 2870,
      "ĠFÃ¼hr": 2871,
      "2018": 2872,
      "Ġpersonen": 2873,
      "Ġerforder": 2874,
      "ĠInf": 2875,
      "port": 2876,
      "rÃ¤gt": 2877,
      "bieter": 2878,
      "ĠerhÃ¤lt": 2879,
      "lang": 2880,
      "Ġhei": 2881,
      "Ġ2014": 2882,
      "Ġnorm": 2883,
      "ograf": 2884,
      "iver": 2885,
      "Ġru": 2886,
      "Ġumf": 2887,
      "ĠThemen": 2888,
      "utet": 2889,
      "Ã¶sen": 2890,
      "Ġsowohl": 2891,
      "Ġvorh": 2892,
      "24": 2893,
      "ĠJo": 2894,
      "ĠKraft": 2895,
      "ielle": 2896,
      "markt": 2897,
      "organis": 2898,
      "lauf": 2899,
      "ES": 2900,
      "schul": 2901,
      "asen": 2902,
      "eier": 2903,
      "lesen": 2904,
      "ossen": 2905,
      "Ġ'": 2906,
      "pfer": 2907,
      "ublik": 2908,
      "will": 2909,
      "oph": 2910,
      "enten": 2911,
      "ĠChar": 2912,
      "ĠBay": 2913,
      "geschlossen": 2914,
      "ja": 2915,
      "ĠWider": 2916,
      "ĠDatenschutz": 2917,
      "straÃŁe": 2918,
      "fahrt": 2919,
      "Ġarbeiten": 2920,
      "Ã¼ndig": 2921,
      "richtung": 2922,
      "ĠNutzung": 2923,
      "ateg": 2924,
      "flÃ¤che": 2925,
      "Ġpersonenbezogen": 2926,
      "ĠfÃ¼hrt": 2927,
      "wissen": 2928,
      "aub": 2929,
      "Ġmehrere": 2930,
      "ĠTier": 2931,
      "ĠtÃ¤": 2932,
      "ĠTages": 2933,
      "ult": 2934,
      "ĠEis": 2935,
      "Ġliegen": 2936,
      "ĠService": 2937,
      "ue": 2938,
      "Ġunver": 2939,
      "Ġsomit": 2940,
      "ĠHei": 2941,
      "igit": 2942,
      "wehr": 2943,
      "ĠDis": 2944,
      "ieÃŁen": 2945,
      "Ġlin": 2946,
      "Ġ60": 2947,
      "aun": 2948,
      "bahn": 2949,
      "ĠUSA": 2950,
      "Ġ*": 2951,
      "Ġerfahren": 2952,
      "akter": 2953,
      "Ġbereit": 2954,
      "Vor": 2955,
      "Ġbeispiel": 2956,
      "fÃ¼hrer": 2957,
      "Ãĥ": 2958,
      "Ġanders": 2959,
      "ĠWeise": 2960,
      "ĠMÃ¤rz": 2961,
      "Ġpolit": 2962,
      "ĠLage": 2963,
      "ĠZimmer": 2964,
      "Ġdaran": 2965,
      "25": 2966,
      "Ã¶nen": 2967,
      "ĠlÃ¤nger": 2968,
      "spiele": 2969,
      "ĠDach": 2970,
      "Ġhandelt": 2971,
      "ĠSteuer": 2972,
      "ĠPap": 2973,
      "ĠApr": 2974,
      "ĠSpieler": 2975,
      "Ġ23": 2976,
      "Ġzeit": 2977,
      "Ġmag": 2978,
      "hunder": 2979,
      "Ber": 2980,
      "ĠMont": 2981,
      "ĠErw": 2982,
      "Ġglau": 2983,
      "nach": 2984,
      "fÃ¤h": 2985,
      "ĠSing": 2986,
      "ĠVergleich": 2987,
      "ochen": 2988,
      "acken": 2989,
      "Ġdeine": 2990,
      "Ġpass": 2991,
      "immen": 2992,
      "Ġgegeben": 2993,
      "ĠTagen": 2994,
      "atis": 2995,
      "auch": 2996,
      "ĠBeitrag": 2997,
      "Ġrein": 2998,
      "ĠAc": 2999,
      "ĠJuli": 3000,
      "ehl": 3001,
      "klÃ¤rung": 3002,
      "ĠgrÃ¶ÃŁer": 3003,
      "Ġsucht": 3004,
      "ppen": 3005,
      "Wie": 3006,
      "ĠKin": 3007,
      "ĠSitz": 3008,
      "geln": 3009,
      "kreis": 3010,
      "ĠMÃ¤nner": 3011,
      "Ã¤nge": 3012,
      "ĠTra": 3013,
      "60": 3014,
      "ĠMutter": 3015,
      "ĠSm": 3016,
      "kont": 3017,
      "ĠDez": 3018,
      "ĠIst": 3019,
      "Ġdeshalb": 3020,
      "inne": 3021,
      "redit": 3022,
      "Ġgefunden": 3023,
      "Ġerf": 3024,
      "ĠTur": 3025,
      "Ġmm": 3026,
      "ĠSchm": 3027,
      "iellen": 3028,
      "hei": 3029,
      "IT": 3030,
      "ĠheiÃŁt": 3031,
      "alien": 3032,
      "ĠSÃ¼d": 3033,
      "ĠSozial": 3034,
      "onntag": 3035,
      "Ġentscheiden": 3036,
      "ĠAuss": 3037,
      "ĠComp": 3038,
      "ĠGener": 3039,
      "gebung": 3040,
      "fallen": 3041,
      "Und": 3042,
      "Ã¼nstler": 3043,
      "Ġstand": 3044,
      "ĠAugust": 3045,
      "Ġlesen": 3046,
      "itten": 3047,
      "ĠMil": 3048,
      "ĠDamen": 3049,
      "ierungs": 3050,
      "forderungen": 3051,
      "Ġsolche": 3052,
      "Ã¤llt": 3053,
      "ĠDamit": 3054,
      "ĠMÃ¼nchen": 3055,
      "ĠHaut": 3056,
      "Ã¤ufer": 3057,
      "ickt": 3058,
      "Ġmusste": 3059,
      "ĠFeuer": 3060,
      "AR": 3061,
      "altet": 3062,
      "ĠPost": 3063,
      "Ġto": 3064,
      "ĠSil": 3065,
      "mitt": 3066,
      "riter": 3067,
      "schrift": 3068,
      "uar": 3069,
      "Ġjedes": 3070,
      "ima": 3071,
      "schlieÃŁlich": 3072,
      "ĠWein": 3073,
      "igkeiten": 3074,
      "Ġalten": 3075,
      "ka": 3076,
      "ĠhÃ¶her": 3077,
      "angeb": 3078,
      "spe": 3079,
      "reicht": 3080,
      "ĠDieser": 3081,
      "tragen": 3082,
      "ĠArch": 3083,
      "fft": 3084,
      "sph": 3085,
      "ĠFoto": 3086,
      "Ġmeist": 3087,
      "ĠLiebe": 3088,
      "gn": 3089,
      "alle": 3090,
      "ĠSeit": 3091,
      "ĠUnterstÃ¼t": 3092,
      "Ġversch": 3093,
      "irt": 3094,
      "ĠFac": 3095,
      "Ġdam": 3096,
      "abil": 3097,
      "ĠMÃ¤dchen": 3098,
      "ĠSpaÃŁ": 3099,
      "ĠElekt": 3100,
      "ĠKrie": 3101,
      "Ġkm": 3102,
      "hilfe": 3103,
      "wertung": 3104,
      "Was": 3105,
      "wÃ¤r": 3106,
      "ĠZwe": 3107,
      "ĠGebur": 3108,
      "Ġzweiten": 3109,
      "ĠNur": 3110,
      "last": 3111,
      "Ġfreuen": 3112,
      "Ġbegr": 3113,
      "Ġtats": 3114,
      "zig": 3115,
      "Ġwes": 3116,
      "ĠdÃ¼rfen": 3117,
      "ĠGar": 3118,
      "ĠLeute": 3119,
      "peratur": 3120,
      "kor": 3121,
      "ĠWeihn": 3122,
      "dresse": 3123,
      "ĠVerarbeitung": 3124,
      "Ġprakti": 3125,
      "ÃŁerdem": 3126,
      "ĠZur": 3127,
      "ĠWien": 3128,
      "roll": 3129,
      "zeiten": 3130,
      "masch": 3131,
      "ĠKur": 3132,
      "ĠWahr": 3133,
      "Ġmittel": 3134,
      "tigung": 3135,
      "Ġganzen": 3136,
      "plan": 3137,
      "ĠHel": 3138,
      "reibt": 3139,
      "trem": 3140,
      "ĠÃ¤hn": 3141,
      "ĠStre": 3142,
      "racht": 3143,
      "ĠTop": 3144,
      "sei": 3145,
      "ĠBeweg": 3146,
      "wagen": 3147,
      "nete": 3148,
      "ĠErk": 3149,
      "isse": 3150,
      "...]": 3151,
      "Ġinsbesondere": 3152,
      "minister": 3153,
      "ĠInd": 3154,
      "ĠVoll": 3155,
      "furt": 3156,
      "ilden": 3157,
      "ĠMich": 3158,
      "'s": 3159,
      "iven": 3160,
      "Ġerfolgt": 3161,
      "ftung": 3162,
      "Ã¶st": 3163,
      "oment": 3164,
      "Ġ2013": 3165,
      "pe": 3166,
      "ragt": 3167,
      "chten": 3168,
      "ĠmÃ¶": 3169,
      "ĠÃĸsterreich": 3170,
      "nov": 3171,
      "ĠDon": 3172,
      "Ġautomat": 3173,
      "teilung": 3174,
      "ĠprÃ¤sen": 3175,
      "Ġerreichen": 3176,
      "ĠhÃ¶ch": 3177,
      "mobil": 3178,
      "oss": 3179,
      "Ġbetroffen": 3180,
      "eicher": 3181,
      "Ġvergangen": 3182,
      "Ġnotwend": 3183,
      "herapie": 3184,
      "test": 3185,
      "ĠCar": 3186,
      "ĠEuropa": 3187,
      "Ã¼hren": 3188,
      "Ġjemand": 3189,
      "ĠVerkehr": 3190,
      "ĠHause": 3191,
      "Ġaufgrund": 3192,
      "gruppe": 3193,
      "cl": 3194,
      "spann": 3195,
      "wiesen": 3196,
      "orie": 3197,
      "Auch": 3198,
      "teilt": 3199,
      "ebook": 3200,
      "ox": 3201,
      "AT": 3202,
      "reib": 3203,
      "ĠSchlaf": 3204,
      "ĠPort": 3205,
      "22": 3206,
      "ĠPolizei": 3207,
      "Ġhochwer": 3208,
      "Ġbefindet": 3209,
      "ĠApril": 3210,
      "ĠMensch": 3211,
      "ĠSen": 3212,
      "40": 3213,
      "Um": 3214,
      "abe": 3215,
      "ions": 3216,
      "Ġebenso": 3217,
      "bek": 3218,
      "Ġbeispielsweise": 3219,
      "ĠÃ¼berhaupt": 3220,
      "anger": 3221,
      "ĠDort": 3222,
      "ĠUrlaub": 3223,
      "ĠGrÃ¶ÃŁe": 3224,
      "bank": 3225,
      "ĠLei": 3226,
      "uster": 3227,
      "Ġwelches": 3228,
      "Ã¤tzen": 3229,
      "ĠGesetz": 3230,
      "hre": 3231,
      "ĠOrganis": 3232,
      "Ġgewesen": 3233,
      "fekt": 3234,
      "Ġvorhanden": 3235,
      "ĠHeil": 3236,
      "ca": 3237,
      "ĠNot": 3238,
      "jekte": 3239,
      "oo": 3240,
      "Ã¶ffentlicht": 3241,
      "ĠMotor": 3242,
      "lieÃŁlich": 3243,
      "Als": 3244,
      "IS": 3245,
      "liegen": 3246,
      "ĠGesamt": 3247,
      "Ġkur": 3248,
      "Wer": 3249,
      "ĠIns": 3250,
      "ĠPflege": 3251,
      "ĠStelle": 3252,
      "Ġinternation": 3253,
      "verstÃ¤nd": 3254,
      "iew": 3255,
      "ĠHamburg": 3256,
      "tiger": 3257,
      "preis": 3258,
      "Ġverz": 3259,
      "hang": 3260,
      "ĠII": 3261,
      "Ġmodern": 3262,
      "oppel": 3263,
      "ĠDeutschen": 3264,
      "ĠWand": 3265,
      "Ġentfern": 3266,
      "ĠfrÃ¼her": 3267,
      "tete": 3268,
      "ĠTor": 3269,
      "innt": 3270,
      "ĠFotos": 3271,
      "daten": 3272,
      "ĠWett": 3273,
      "ĠRom": 3274,
      "Ġsetzen": 3275,
      "ĠErfahrung": 3276,
      "ungsver": 3277,
      "ĠProbleme": 3278,
      "reten": 3279,
      "hÃ¤ltnis": 3280,
      "Ġfinde": 3281,
      "ĠHerren": 3282,
      "Ġentst": 3283,
      "Ġerfolgreich": 3284,
      "ament": 3285,
      "abhÃ¤ng": 3286,
      "ĠRolle": 3287,
      "ĠCook": 3288,
      "usch": 3289,
      "ktive": 3290,
      "di": 3291,
      "behÃ¶r": 3292,
      "Ġanderem": 3293,
      "drÃ¼ck": 3294,
      "Ġjeweils": 3295,
      "ĠTitel": 3296,
      "indestens": 3297,
      "ĠText": 3298,
      "gien": 3299,
      "rÃ¼ck": 3300,
      "ĠKomment": 3301,
      "EL": 3302,
      "ĠAlt": 3303,
      "ĠPo": 3304,
      "ED": 3305,
      "ĠRat": 3306,
      "mlich": 3307,
      "AS": 3308,
      "lassen": 3309,
      "ĠJahrhunder": 3310,
      "Ġged": 3311,
      "frist": 3312,
      "mehr": 3313,
      "deck": 3314,
      "Ġ27": 3315,
      "ĠWel": 3316,
      "ĠSan": 3317,
      "ĠAuftrag": 3318,
      "zte": 3319,
      "rÃ¤um": 3320,
      "ĠPau": 3321,
      "Ġgeworden": 3322,
      "ON": 3323,
      "ĠCon": 3324,
      "Da": 3325,
      "ĠGruppe": 3326,
      "ĠSchule": 3327,
      "Ã¤uft": 3328,
      "mod": 3329,
      "ĠErst": 3330,
      "ĠOl": 3331,
      "ĠVerantwort": 3332,
      "Ġrau": 3333,
      "Ġmed": 3334,
      "ĠGÃ¤ste": 3335,
      "ĠEmpf": 3336,
      "rÃ¼fung": 3337,
      "sichtlich": 3338,
      "Ġvorher": 3339,
      "Ġentwickelt": 3340,
      "Ã¤ude": 3341,
      "bed": 3342,
      "ĠJanuar": 3343,
      "ehe": 3344,
      "ĠWald": 3345,
      "ĠAG": 3346,
      "Ġaktuellen": 3347,
      "barkeit": 3348,
      "gliche": 3349,
      "Ġwww": 3350,
      "ĠSc": 3351,
      "wegs": 3352,
      "ĠExper": 3353,
      "lingen": 3354,
      "ĠRichtung": 3355,
      "produ": 3356,
      "istr": 3357,
      "ĠMitglied": 3358,
      "yr": 3359,
      "ituation": 3360,
      "ĠDieses": 3361,
      "ĠerhÃ¶": 3362,
      "Ġgesetz": 3363,
      "kosten": 3364,
      "iziert": 3365,
      "zeigt": 3366,
      "ĠBlog": 3367,
      "med": 3368,
      "sie": 3369,
      "ĠBlut": 3370,
      "ĠFrÃ¼h": 3371,
      "Ġdank": 3372,
      "emin": 3373,
      "air": 3374,
      "Ġ2012": 3375,
      "ĠSonntag": 3376,
      "ĠFe": 3377,
      "ĠSonnen": 3378,
      "ĠÃĸff": 3379,
      "ĠSoftware": 3380,
      "ĠKil": 3381,
      "ĠBahn": 3382,
      "sta": 3383,
      "Ġ28": 3384,
      "ument": 3385,
      "aurant": 3386,
      "ĠMitglieder": 3387,
      "Ġeinigen": 3388,
      "ĠMÃ¶glichkeiten": 3389,
      "err": 3390,
      "sver": 3391,
      "ĠSor": 3392,
      "schau": 3393,
      "Ã¤ndert": 3394,
      "zeugen": 3395,
      "ĠDezember": 3396,
      "Ġgrund": 3397,
      "ĠwÃ¼rden": 3398,
      "Ab": 3399,
      "ĠKolle": 3400,
      "ĠTipp": 3401,
      "reiten": 3402,
      "send": 3403,
      "reibung": 3404,
      "ĠSpez": 3405,
      "ĠBaum": 3406,
      "Ġgelten": 3407,
      "riften": 3408,
      "ĠGesprÃ¤": 3409,
      "Ġelekt": 3410,
      "Ġdeutsche": 3411,
      "ĠBerg": 3412,
      "kennen": 3413,
      "Ġsuper": 3414,
      "ĠErgebnis": 3415,
      "reiber": 3416,
      "Ġbringt": 3417,
      "ĠWort": 3418,
      "rop": 3419,
      "ĠIdeen": 3420,
      "volle": 3421,
      "eitag": 3422,
      "Ġ80": 3423,
      "eiger": 3424,
      "mitteln": 3425,
      "kungen": 3426,
      "ichter": 3427,
      "ĠHaar": 3428,
      "ĠSchÃ¶n": 3429,
      "ĠTo": 3430,
      "meldung": 3431,
      "Ġur": 3432,
      "ziehung": 3433,
      "ðŁ": 3434,
      "ĠhÃ¤ufig": 3435,
      "cks": 3436,
      "Ġbeste": 3437,
      "pel": 3438,
      "ĠkÃ¼": 3439,
      "Re": 3440,
      "Ġetc": 3441,
      "Ġallein": 3442,
      "ĠEben": 3443,
      "ve": 3444,
      "ĠBank": 3445,
      "dust": 3446,
      "ĠPass": 3447,
      "ĠBur": 3448,
      "Ġbestehen": 3449,
      "ĠSpiele": 3450,
      "stat": 3451,
      "such": 3452,
      "rÃ¤ger": 3453,
      "Ġ26": 3454,
      "allo": 3455,
      "arch": 3456,
      "kur": 3457,
      "Ġbelieb": 3458,
      "Ġbedeutet": 3459,
      "Ġgesehen": 3460,
      "ĠEing": 3461,
      "Ġverwenden": 3462,
      "ĠBal": 3463,
      "ĠNÃ¤he": 3464,
      "Ġanges": 3465,
      "ĠEssen": 3466,
      "Ġposit": 3467,
      "ĠFarbe": 3468,
      "ĠTre": 3469,
      "ĠDisk": 3470,
      "Ġak": 3471,
      "ĠUmwelt": 3472,
      "ĠwÃ¼n": 3473,
      "fter": 3474,
      "bew": 3475,
      "reisen": 3476,
      "vol": 3477,
      "ĠStrom": 3478,
      "ĠFeb": 3479,
      "iti": 3480,
      "Ġrel": 3481,
      "ĠFlÃ¼": 3482,
      "ĠFÃ¶rder": 3483,
      "Ġmittler": 3484,
      "ĠzunÃ¤chst": 3485,
      "ĠModell": 3486,
      "haltung": 3487,
      "Ġwarum": 3488,
      "ĠGleich": 3489,
      "Be": 3490,
      "zentr": 3491,
      "ĠGemeinde": 3492,
      "Ġgeeignet": 3493,
      "Ġus": 3494,
      "losen": 3495,
      "Ġzw": 3496,
      "ĠKreis": 3497,
      "ĠFarben": 3498,
      "ĠKÃ¶l": 3499,
      "ohnt": 3500,
      "nungs": 3501,
      "ling": 3502,
      "ĠBestell": 3503,
      "Ġanzu": 3504,
      "samm": 3505,
      "Ġselber": 3506,
      "Ġfand": 3507,
      "obei": 3508,
      "ĠStraÃŁe": 3509,
      "Ġklass": 3510,
      "Ġbem": 3511,
      "ĠFerien": 3512,
      "see": 3513,
      "sor": 3514,
      "ĠSP": 3515,
      "prÃ¼": 3516,
      "Ġbraucht": 3517,
      "Ġhohen": 3518,
      "how": 3519,
      "mack": 3520,
      "ĠPfl": 3521,
      "Ġhohe": 3522,
      "Ġneues": 3523,
      "Ġporn": 3524,
      "Ġlos": 3525,
      "ĠschÃ¶ne": 3526,
      "schlÃ¤": 3527,
      "weile": 3528,
      "Ġrie": 3529,
      "folge": 3530,
      "Ġverbesser": 3531,
      "ĠgehÃ¶ren": 3532,
      "hlt": 3533,
      "Ġfort": 3534,
      "ĠSym": 3535,
      "Ġmindestens": 3536,
      "ĠLog": 3537,
      "iko": 3538,
      "Ã¼tzen": 3539,
      "ĠNr": 3540,
      "sichtig": 3541,
      "ĠFÃ¤l": 3542,
      "ĠJetzt": 3543,
      "ĠInteresse": 3544,
      "hausen": 3545,
      "por": 3546,
      "ĠWieder": 3547,
      "ĠInhalte": 3548,
      "Ġalt": 3549,
      "ement": 3550,
      "Ã¤lter": 3551,
      "anlage": 3552,
      "Ġoptimal": 3553,
      "Ġor": 3554,
      "Ã¤ischen": 3555,
      "ĠKurz": 3556,
      "ĠSmart": 3557,
      "OR": 3558,
      "ĠMer": 3559,
      "Ã¶sungen": 3560,
      "illen": 3561,
      "ĠRis": 3562,
      "ith": 3563,
      "ĠSamstag": 3564,
      "ĠUnterstÃ¼tzung": 3565,
      "ĠFort": 3566,
      "ĠBehandlung": 3567,
      "Ġinsgesamt": 3568,
      "ĠBis": 3569,
      "Ġgenug": 3570,
      "ĠPrin": 3571,
      "ĠvÃ¶l": 3572,
      "urf": 3573,
      "igar": 3574,
      "chmal": 3575,
      "ried": 3576,
      "lass": 3577,
      "sb": 3578,
      "ĠSchweiz": 3579,
      "Ġ198": 3580,
      "ĠAuÃŁerdem": 3581,
      "ĠAller": 3582,
      "Ġenthalten": 3583,
      "achtet": 3584,
      "Ġempfehlen": 3585,
      "ĠStandard": 3586,
      "Ġfer": 3587,
      "sh": 3588,
      "pflich": 3589,
      "Ã¼rf": 3590,
      "ull": 3591,
      "Unser": 3592,
      "ĠSuper": 3593,
      "Ġalte": 3594,
      "oper": 3595,
      "ĠDazu": 3596,
      "rate": 3597,
      "Ã¼ssel": 3598,
      "Ã¤mlich": 3599,
      "Ġverein": 3600,
      "ĠCasino": 3601,
      "ĠUnsere": 3602,
      "zeuge": 3603,
      "ĠWohnung": 3604,
      "Diese": 3605,
      "serv": 3606,
      "Ġ[...]": 3607,
      "Ġtreffen": 3608,
      "worten": 3609,
      "esser": 3610,
      "Ġlernen": 3611,
      "Ġnimmt": 3612,
      "gern": 3613,
      "uell": 3614,
      "halts": 3615,
      "eting": 3616,
      "ĠEnd": 3617,
      "45": 3618,
      "âĤ¬": 3619,
      "Ġ>": 3620,
      "kom": 3621,
      "99": 3622,
      "ĠVerbindung": 3623,
      "ĠBru": 3624,
      "Ã¼nde": 3625,
      "ĠTelefon": 3626,
      "Ġentfernt": 3627,
      "ĠKor": 3628,
      "ĠKindern": 3629,
      "ruar": 3630,
      "gebiet": 3631,
      "ĠPrivat": 3632,
      "zwischen": 3633,
      "pack": 3634,
      "aktion": 3635,
      "ĠStein": 3636,
      "erin": 3637,
      "ĠTod": 3638,
      "Ġeinzelnen": 3639,
      "sto": 3640,
      "ĠAutor": 3641,
      "neten": 3642,
      "Ġendlich": 3643,
      "ĠWetter": 3644,
      "Ã¤ndig": 3645,
      "ĠFen": 3646,
      "ĠTri": 3647,
      "Ġdadurch": 3648,
      "ownlo": 3649,
      "ĠStraÃŁen": 3650,
      "Ġeurop": 3651,
      "ĠAktiv": 3652,
      "stru": 3653,
      "Man": 3654,
      "Ã¼sse": 3655,
      "ĠKÃ¼che": 3656,
      "by": 3657,
      "ĠUniversitÃ¤t": 3658,
      "ry": 3659,
      "geld": 3660,
      "ĠRein": 3661,
      "ille": 3662,
      "ĠDetail": 3663,
      "ĠFacebook": 3664,
      "ĠStu": 3665,
      "OS": 3666,
      "ĠEro": 3667,
      "Ġzudem": 3668,
      "Ġwider": 3669,
      "weiter": 3670,
      "Ġis": 3671,
      "reude": 3672,
      "sident": 3673,
      "Ġse": 3674,
      "ular": 3675,
      "ĠHeraus": 3676,
      "tliche": 3677,
      "bracht": 3678,
      "ĠLeistung": 3679,
      "ses": 3680,
      "Ġselten": 3681,
      "ĠAnge": 3682,
      "ane": 3683,
      "Ġgesagt": 3684,
      "ĠStudien": 3685,
      "upp": 3686,
      "ĠBran": 3687,
      "bÃ¼r": 3688,
      "oder": 3689,
      "Ã¶lker": 3690,
      "ĠerfÃ¼l": 3691,
      "Ġvergangenen": 3692,
      "Ġ2011": 3693,
      "ĠProduktion": 3694,
      "US": 3695,
      "ĠSicht": 3696,
      "ĠÃĦn": 3697,
      "ĠBasis": 3698,
      "ĠPatienten": 3699,
      "ĠAma": 3700,
      "ĠPeter": 3701,
      "ĠGeburt": 3702,
      "ĠRegen": 3703,
      "alk": 3704,
      "stre": 3705,
      "bedingungen": 3706,
      "Ġjunge": 3707,
      "Ġscheint": 3708,
      "ammer": 3709,
      "ĠSaison": 3710,
      "bol": 3711,
      "Ġbeide": 3712,
      "ĠGlas": 3713,
      "ĠPraxis": 3714,
      "itzt": 3715,
      "ness": 3716,
      "ĠTeilnehmer": 3717,
      "Ġkomplett": 3718,
      "Ġvorbei": 3719,
      "ĠOder": 3720,
      "UN": 3721,
      "ĠAlter": 3722,
      "ĠBon": 3723,
      "Ġlaufen": 3724,
      "ĠVerkauf": 3725,
      "ĠFebruar": 3726,
      "ĠRot": 3727,
      "prochen": 3728,
      "wesen": 3729,
      "ĠPolitik": 3730,
      "rifft": 3731,
      "rolle": 3732,
      "ĠtatsÃ¤chlich": 3733,
      "Ġzehn": 3734,
      "ĠOst": 3735,
      "Ã¼gen": 3736,
      "Ġ29": 3737,
      "ĠStaats": 3738,
      "ĠSchritt": 3739,
      "ĠKre": 3740,
      "isiert": 3741,
      "Ã¼ch": 3742,
      "ĠstÃ¤r": 3743,
      "ael": 3744,
      "Ġbekommt": 3745,
      "spar": 3746,
      "ĠVerk": 3747,
      "far": 3748,
      "bringen": 3749,
      "ĠEngl": 3750,
      "Ġspann": 3751,
      "ĠnÃ¤mlich": 3752,
      "Ġfolgenden": 3753,
      "til": 3754,
      "Ġindem": 3755,
      "ĠStil": 3756,
      "ĠSchuhe": 3757,
      "schlieÃŁend": 3758,
      "atik": 3759,
      "Ġ01": 3760,
      "ĠDinge": 3761,
      "leistungen": 3762,
      "dustrie": 3763,
      "Ã¤hrt": 3764,
      "ĠTisch": 3765,
      "recher": 3766,
      "ĠErfahrungen": 3767,
      "burger": 3768,
      "Ġnahe": 3769,
      "use": 3770,
      "ĠPhil": 3771,
      "ierter": 3772,
      "ĠAuÃŁen": 3773,
      "ĠLa": 3774,
      "ĠRa": 3775,
      "gessen": 3776,
      "ĠMÃ¶": 3777,
      "Ġsetzt": 3778,
      "zahlen": 3779,
      "decken": 3780,
      "ĠÃĦr": 3781,
      "ĠReich": 3782,
      "GB": 3783,
      "ĠHig": 3784,
      "vert": 3785,
      "ama": 3786,
      "ĠFolge": 3787,
      "ĠWest": 3788,
      "Ġbist": 3789,
      "Ġmin": 3790,
      "altungen": 3791,
      "aktiv": 3792,
      "Ġfahren": 3793,
      "ĠermÃ¶glich": 3794,
      "Ġverbunden": 3795,
      "Ġfal": 3796,
      "Ġ2010": 3797,
      "uchs": 3798,
      "istischen": 3799,
      "ĠerklÃ¤rt": 3800,
      "ĠMeer": 3801,
      "ink": 3802,
      "ike": 3803,
      "Ġsogen": 3804,
      "elte": 3805,
      "eucht": 3806,
      "AL": 3807,
      "Ġjeweiligen": 3808,
      "arian": 3809,
      "ĠKateg": 3810,
      "ogra": 3811,
      ".:.:": 3812,
      "zentrum": 3813,
      "ĠKirche": 3814,
      "reuz": 3815,
      "ĠPorno": 3816,
      "Ġy": 3817,
      "alyse": 3818,
      "Ġberech": 3819,
      "park": 3820,
      "Ġjederzeit": 3821,
      "ĠhÃ¤lt": 3822,
      "ĠAlso": 3823,
      "Ġbeein": 3824,
      "Ġerreicht": 3825,
      "band": 3826,
      "fluss": 3827,
      "ĠBesonder": 3828,
      "itt": 3829,
      "ĠunterstÃ¼tzen": 3830,
      "Ġzul": 3831,
      "ĠAufgaben": 3832,
      "ĠRestaurant": 3833,
      "sein": 3834,
      "Ġ197": 3835,
      "gte": 3836,
      "anzÃ¶s": 3837,
      "Ġauszu": 3838,
      "stall": 3839,
      "Ġmax": 3840,
      "hel": 3841,
      "verein": 3842,
      "ĠKranken": 3843,
      "Ge": 3844,
      "ĠBitte": 3845,
      "Ġtragen": 3846,
      "Ġbald": 3847,
      "Ġdrau": 3848,
      "nern": 3849,
      "eisen": 3850,
      "itut": 3851,
      "do": 3852,
      "ĠIdee": 3853,
      "DF": 3854,
      "ĠFirmen": 3855,
      "ĠBesucher": 3856,
      "Ġ?": 3857,
      ".-": 3858,
      "ĠVoraus": 3859,
      "ĠImmobil": 3860,
      "Ġdamals": 3861,
      "ĠEt": 3862,
      "ĠBedeut": 3863,
      "ĠEntwick": 3864,
      "Ġspiel": 3865,
      "ĠNutzer": 3866,
      "stieg": 3867,
      "gefÃ¼hrt": 3868,
      "Ġfinanz": 3869,
      "ĠGewinn": 3870,
      "Ġliebe": 3871,
      "ĠTerr": 3872,
      "Ã¤den": 3873,
      "Ġ90": 3874,
      "ĠunterstÃ¼tzt": 3875,
      "schn": 3876,
      "ĠDok": 3877,
      "wser": 3878,
      "ĠAusbildung": 3879,
      "Ġ=": 3880,
      "ĠGanz": 3881,
      "mÃ¶glichkeiten": 3882,
      "ĠBab": 3883,
      "Ġtoll": 3884,
      "ĠKan": 3885,
      "ĠSchwer": 3886,
      "23": 3887,
      "ĠâĢ¢": 3888,
      "sprÃ¼": 3889,
      "Pl": 3890,
      "bedingt": 3891,
      "Ġlaut": 3892,
      "ission": 3893,
      "Ġangeboten": 3894,
      "ĠEntscheidung": 3895,
      "Ġmon": 3896,
      "ĠvÃ¶llig": 3897,
      "sitzen": 3898,
      "ĠMonate": 3899,
      "Ġdanach": 3900,
      "ĠWunsch": 3901,
      "ĠIt": 3902,
      "ĠWissenschaft": 3903,
      "09": 3904,
      "ution": 3905,
      "zeigen": 3906,
      "ĠRed": 3907,
      "ĠCD": 3908,
      "ĠLiter": 3909,
      "reite": 3910,
      "ĠStellen": 3911,
      "ube": 3912,
      "denten": 3913,
      "Ġbestimmt": 3914,
      "zul": 3915,
      "alisierung": 3916,
      "Ġkeiner": 3917,
      "zep": 3918,
      "roh": 3919,
      "ĠGet": 3920,
      "Ġknapp": 3921,
      "ĠFreitag": 3922,
      "woch": 3923,
      "ĠChe": 3924,
      "Ġsorgen": 3925,
      "Ġgleichzeitig": 3926,
      "alif": 3927,
      "âĢĵ": 3928,
      "ĠUnternehmens": 3929,
      "Ġsechs": 3930,
      "ieten": 3931,
      "wind": 3932,
      "eichert": 3933,
      "ĠMenge": 3934,
      "maÃŁ": 3935,
      "Ġintegr": 3936,
      "ĠVersand": 3937,
      "andelt": 3938,
      "jÃ¤hrige": 3939,
      "Ġehem": 3940,
      "ĠDre": 3941,
      "seh": 3942,
      "ĠBrem": 3943,
      "ownload": 3944,
      "rÃ¤fte": 3945,
      "Ġwert": 3946,
      "ĠTro": 3947,
      "Ġseines": 3948,
      "wig": 3949,
      "Ġunten": 3950,
      "ĠGold": 3951,
      "ĠSl": 3952,
      "tischen": 3953,
      "uhr": 3954,
      "Ġspielt": 3955,
      "sex": 3956,
      "ĠFirma": 3957,
      "lock": 3958,
      "ollten": 3959,
      "ĠJob": 3960,
      "Ã¼ndet": 3961,
      "Ġgestellt": 3962,
      "hard": 3963,
      "ĠFahrzeug": 3964,
      "schriften": 3965,
      "host": 3966,
      "quem": 3967,
      "ĠWÃ¼r": 3968,
      "vis": 3969,
      "gericht": 3970,
      "ĠÃ¤u": 3971,
      "Ġpersonenbezogenen": 3972,
      "ĠSand": 3973,
      "raun": 3974,
      "ĠAngebote": 3975,
      "Ã¼ndung": 3976,
      "ĠFuÃŁball": 3977,
      "orgung": 3978,
      "ĠKÃ¶nig": 3979,
      "ls": 3980,
      "ĠStaat": 3981,
      "ĠDeutsch": 3982,
      "sm": 3983,
      "ĠInvest": 3984,
      "Ġech": 3985,
      "ĠBek": 3986,
      "nungen": 3987,
      "Ġmen": 3988,
      "Ġperfekt": 3989,
      "scheinlich": 3990,
      "Ã¼tzt": 3991,
      "Ã¼ÃŁ": 3992,
      "Ã¤s": 3993,
      "Ġhil": 3994,
      "ĠAnbieter": 3995,
      "ake": 3996,
      "stÃ¤nde": 3997,
      "hann": 3998,
      "ĠermÃ¶glicht": 3999,
      "Ġtrotzdem": 4000,
      "ltag": 4001,
      "steuer": 4002,
      "ĠWebseite": 4003,
      "zustellen": 4004,
      "view": 4005,
      "ĠCookies": 4006,
      "ĠUmgebung": 4007,
      "ĠRel": 4008,
      "iginal": 4009,
      "ometer": 4010,
      "):": 4011,
      "ĠNun": 4012,
      "ĠPersonal": 4013,
      "ĠSchwarz": 4014,
      "ĠGruppen": 4015,
      "ĠTab": 4016,
      "Ġletzte": 4017,
      "Ġweiterhin": 4018,
      "Ġperfe": 4019,
      "ash": 4020,
      "out": 4021,
      "ars": 4022,
      "ĠFehler": 4023,
      "ĠDeutsche": 4024,
      "okrat": 4025,
      "ĠBett": 4026,
      "ux": 4027,
      "Ã¶pf": 4028,
      "raut": 4029,
      "ows": 4030,
      "ĠErd": 4031,
      "res": 4032,
      "Ġeng": 4033,
      "lack": 4034,
      "Ġbegl": 4035,
      "richtungen": 4036,
      "iefer": 4037,
      "ĠStim": 4038,
      "ĠKamer": 4039,
      "ĠDom": 4040,
      "verband": 4041,
      "ĠbeschÃ¤f": 4042,
      "Ġmoder": 4043,
      "ĠLÃ¶sung": 4044,
      "Ġziemlich": 4045,
      "ĠVerfahren": 4046,
      "leisch": 4047,
      "zon": 4048,
      "ĠRhein": 4049,
      "garten": 4050,
      "ĠBeginn": 4051,
      "Ġwobei": 4052,
      "Ġ70": 4053,
      "afft": 4054,
      "ĠnÃ¤": 4055,
      "Ġgern": 4056,
      "tell": 4057,
      "Ġheu": 4058,
      "hoben": 4059,
      "Ġwelcher": 4060,
      "ĠzusÃ¤tzlich": 4061,
      "Zu": 4062,
      "ĠverfÃ¼g": 4063,
      "ĠÃ¼bern": 4064,
      "ĠMasch": 4065,
      "ĠBedeutung": 4066,
      "ĠSatz": 4067,
      "Ġjen": 4068,
      "ĠSchau": 4069,
      "Ġsah": 4070,
      "waltung": 4071,
      "ĠTV": 4072,
      "ĠAngaben": 4073,
      "leistung": 4074,
      "Ġderzeit": 4075,
      "kunden": 4076,
      "int": 4077,
      "omaten": 4078,
      "SG": 4079,
      "ĠMonat": 4080,
      "ĠRund": 4081,
      "ĠHome": 4082,
      "ĠVater": 4083,
      "ara": 4084,
      "immel": 4085,
      "ĠMitte": 4086,
      "omas": 4087,
      "uft": 4088,
      "ĠAlltag": 4089,
      "igur": 4090,
      "itzer": 4091,
      "Innen": 4092,
      "ĠBenutz": 4093,
      "zeugt": 4094,
      "ĠComputer": 4095,
      "Ã¤user": 4096,
      "ĠIs": 4097,
      "ĠGef": 4098,
      "ĠGefÃ¼hl": 4099,
      "ĠStrand": 4100,
      "nehm": 4101,
      "ĠGedanken": 4102,
      "zeichen": 4103,
      "Ġfreund": 4104,
      "ffer": 4105,
      "ĠSache": 4106,
      "Ġhistor": 4107,
      "istische": 4108,
      "Ġgenommen": 4109,
      "Ġzumindest": 4110,
      "geschichte": 4111,
      "ĠWeihnacht": 4112,
      "wen": 4113,
      "ĠPal": 4114,
      "ĠKonz": 4115,
      "stoffe": 4116,
      "Gr": 4117,
      "gut": 4118,
      "seiten": 4119,
      "ĠBern": 4120,
      "Ġgeschrieben": 4121,
      "leidung": 4122,
      "stimmung": 4123,
      "Ġweltweit": 4124,
      "Ġorganis": 4125,
      "Ġrechts": 4126,
      "ĠSw": 4127,
      "ĠKampf": 4128,
      "Ġsinn": 4129,
      "ĠHersteller": 4130,
      "ĠTechnik": 4131,
      "schlieÃŁen": 4132,
      "Ġvergleich": 4133,
      "ĠAnder": 4134,
      "Ġecht": 4135,
      "Ġerforderlich": 4136,
      "amin": 4137,
      "ĠAp": 4138,
      "mark": 4139,
      "ĠLink": 4140,
      "ĠMeter": 4141,
      "ĠPreise": 4142,
      "ĠMart": 4143,
      "ĠPunkt": 4144,
      "Ġober": 4145,
      "Ġherr": 4146,
      "ias": 4147,
      "offe": 4148,
      "ĠStÃ¤d": 4149,
      "Ġerkennen": 4150,
      "ierungen": 4151,
      "lapp": 4152,
      "ĠBeratung": 4153,
      "Ġrichtige": 4154,
      "90": 4155,
      "ĠBall": 4156,
      "ĠMeinung": 4157,
      "uchte": 4158,
      "Ġph": 4159,
      "achst": 4160,
      "-)": 4161,
      "Ġtran": 4162,
      "werte": 4163,
      "Ġfunktioniert": 4164,
      "enntnis": 4165,
      "van": 4166,
      "ĠWill": 4167,
      "ĠschlieÃŁlich": 4168,
      "Ġhol": 4169,
      "bewerb": 4170,
      "ĠFenster": 4171,
      "eidig": 4172,
      "denken": 4173,
      "kir": 4174,
      "ulti": 4175,
      "Ġanderes": 4176,
      "Ġruh": 4177,
      "det": 4178,
      "ĠBeim": 4179,
      "anen": 4180,
      "ĠLÃ¶": 4181,
      "jÃ¤hrigen": 4182,
      "ennung": 4183,
      "ĠWander": 4184,
      "Ġbeginnt": 4185,
      "ĠWÃ¤hrend": 4186,
      "Ġ;": 4187,
      "rief": 4188,
      "ĠKÃ¼nstler": 4189,
      "over": 4190,
      "ĠWolf": 4191,
      "fragen": 4192,
      "Ġprofession": 4193,
      "ĠIndustrie": 4194,
      "ĠReihe": 4195,
      "Ġgepl": 4196,
      "ĠNational": 4197,
      "leiter": 4198,
      "lebnis": 4199,
      "ĠSituation": 4200,
      "etzung": 4201,
      "na": 4202,
      "Ġstets": 4203,
      "Ġspr": 4204,
      "irm": 4205,
      "Ã¼tz": 4206,
      "apan": 4207,
      "raucher": 4208,
      "dat": 4209,
      "ĠkÃ¶nnten": 4210,
      "27": 4211,
      "zahlung": 4212,
      "gegeben": 4213,
      "aff": 4214,
      "Ġ31": 4215,
      "ĠMass": 4216,
      "ese": 4217,
      "ĠViele": 4218,
      "linge": 4219,
      "ĠZusammenarbeit": 4220,
      "ĠÃĦnder": 4221,
      "ĠSinne": 4222,
      "ĠKu": 4223,
      "ĠZustand": 4224,
      "Ġzahlreiche": 4225,
      "ĠVerwendung": 4226,
      "unternehmen": 4227,
      "Ġdigit": 4228,
      "**": 4229,
      "ĠgroÃŁer": 4230,
      "ĠKÃ¶ln": 4231,
      "Ġschaffen": 4232,
      "Ġunseres": 4233,
      "eum": 4234,
      "aup": 4235,
      "xt": 4236,
      "rast": 4237,
      "zin": 4238,
      "stattung": 4239,
      "ĠðŁ": 4240,
      "lieb": 4241,
      "tiges": 4242,
      "ire": 4243,
      "ĠInteressen": 4244,
      "ĠGebÃ¤ude": 4245,
      "elegen": 4246,
      "Ã¤ngt": 4247,
      "Ãĸ": 4248,
      "26": 4249,
      "ames": 4250,
      "ĠVersicher": 4251,
      "spricht": 4252,
      "ĠschÃ¶nen": 4253,
      "ĠSprache": 4254,
      "07": 4255,
      "Ġzweite": 4256,
      "hafen": 4257,
      "gebaut": 4258,
      "Ġverstehen": 4259,
      "Ġerle": 4260,
      "Ġ35": 4261,
      "istik": 4262,
      "karte": 4263,
      "holz": 4264,
      "acher": 4265,
      "Ġextrem": 4266,
      "Ġtot": 4267,
      "ĠMonaten": 4268,
      "uchten": 4269,
      "ĠDich": 4270,
      "anne": 4271,
      "ilde": 4272,
      "Ġehemal": 4273,
      "ĠAbschluss": 4274,
      "Ġlo": 4275,
      "mÃ¶glichen": 4276,
      "kraft": 4277,
      "Ġfrauen": 4278,
      "ĠpersÃ¶nlichen": 4279,
      "ta": 4280,
      "ĠLeistungen": 4281,
      "ĠVideos": 4282,
      "press": 4283,
      "Ġsorgt": 4284,
      "anlagen": 4285,
      "ĠKaffe": 4286,
      "ĠÂ·": 4287,
      "ĠTyp": 4288,
      "ĠVolks": 4289,
      "Ġseien": 4290,
      "atter": 4291,
      "ĠLo": 4292,
      "ĠSalz": 4293,
      "ĠLust": 4294,
      "arbeite": 4295,
      "Ġaktuell": 4296,
      "Kl": 4297,
      "attform": 4298,
      "Ġschwarz": 4299,
      "Ġehr": 4300,
      "Ġneuer": 4301,
      "Ġbeant": 4302,
      "zehn": 4303,
      "05": 4304,
      "ĠSinn": 4305,
      "ĠSpezial": 4306,
      "ierenden": 4307,
      "ĠDrei": 4308,
      "ĠInhalt": 4309,
      "06": 4310,
      "ĠSonder": 4311,
      "ĠausschlieÃŁlich": 4312,
      "Ġangen": 4313,
      "ĠWaren": 4314,
      "Ã¤ssig": 4315,
      "lad": 4316,
      "versicherung": 4317,
      "08": 4318,
      "zir": 4319,
      "ĠIT": 4320,
      "ĠAnspruch": 4321,
      "spir": 4322,
      "33": 4323,
      "ĠFarb": 4324,
      "ĠLang": 4325,
      "Ġlangsam": 4326,
      "schrank": 4327,
      "ĠMeister": 4328,
      "ĠSamm": 4329,
      "ĠBerufs": 4330,
      "ĠBegriff": 4331,
      "Ġth": 4332,
      "Ġausgew": 4333,
      "ĠlÃ¤uft": 4334,
      "Ã¤hrung": 4335,
      "dass": 4336,
      "merzen": 4337,
      "Ġeinzu": 4338,
      "gewÃ¶hn": 4339,
      "Ġgleichen": 4340,
      "Â®": 4341,
      "mittlung": 4342,
      "Ġunbedingt": 4343,
      "schafts": 4344,
      "Ġzentr": 4345,
      "Ã¤tigkeit": 4346,
      "iten": 4347,
      "ĠAnti": 4348,
      "mand": 4349,
      "ochter": 4350,
      "Ġ2009": 4351,
      "ime": 4352,
      "technik": 4353,
      "flug": 4354,
      "entrum": 4355,
      "durch": 4356,
      "ĠnatÃ¼r": 4357,
      "Ġwichtige": 4358,
      "Ġentstehen": 4359,
      "egal": 4360,
      "sÃ¤tzlich": 4361,
      "ĠTon": 4362,
      "mut": 4363,
      "da": 4364,
      "gesehen": 4365,
      "Ġpreis": 4366,
      "Ġaktuelle": 4367,
      "frieden": 4368,
      "ĠPosition": 4369,
      "gehend": 4370,
      "Ġdr": 4371,
      "ĠBÃ¼cher": 4372,
      "olitik": 4373,
      "28": 4374,
      "ĠÐ": 4375,
      "ĠÌ": 4376,
      "Ġerh": 4377,
      "gelt": 4378,
      "ĠOrd": 4379,
      "ĠFin": 4380,
      "21": 4381,
      "ĠPunkte": 4382,
      "Ġerhe": 4383,
      "ĠTermin": 4384,
      "ĠMax": 4385,
      "Ġad": 4386,
      "zÃ¼glich": 4387,
      "ĠVis": 4388,
      "ĠÃ¼brigen": 4389,
      "ĠDo": 4390,
      "Ġste": 4391,
      "ĠMichael": 4392,
      "Ġumfassen": 4393,
      "ferenz": 4394,
      "ĠGra": 4395,
      "cm": 4396,
      "ancen": 4397,
      "ierende": 4398,
      "ĠAngst": 4399,
      "ĠMetho": 4400,
      "ĠOut": 4401,
      "rÃ¤f": 4402,
      "ĠFreunde": 4403,
      "Ġzer": 4404,
      "yer": 4405,
      "Ġzuvor": 4406,
      "zut": 4407,
      "Ġrichtigen": 4408,
      "gerech": 4409,
      "ĠFrankfurt": 4410,
      "Ġeinzigar": 4411,
      "ĠZahn": 4412,
      "merksam": 4413,
      "ĠAltern": 4414,
      "ĠFreude": 4415,
      "ĠZeitpunkt": 4416,
      "ĠIhres": 4417,
      "ĠgrÃ¶ÃŁten": 4418,
      "ĠBayern": 4419,
      "akti": 4420,
      "ĠShop": 4421,
      "tau": 4422,
      "ĠTemperatur": 4423,
      "Ġtro": 4424,
      "bauen": 4425,
      "Ġtolle": 4426,
      "ĠProzess": 4427,
      "eicht": 4428,
      "Ġlau": 4429,
      "Ġgesamten": 4430,
      "schuss": 4431,
      "Ġgaran": 4432,
      "VO": 4433,
      "Ġsprechen": 4434,
      "Ġpasst": 4435,
      "ĠGerÃ¤t": 4436,
      "ĠZudem": 4437,
      "ienste": 4438,
      "Ġihres": 4439,
      "verkehr": 4440,
      "Ġwohn": 4441,
      "ĠForum": 4442,
      "stellten": 4443,
      "adem": 4444,
      "ĠVersion": 4445,
      "ĠPsych": 4446,
      "Ġhilft": 4447,
      "ĠBack": 4448,
      "Ġmass": 4449,
      "Ãľber": 4450,
      "viel": 4451,
      "Ġgenutzt": 4452,
      "ĠKredit": 4453,
      "ĠKarten": 4454,
      "Hier": 4455,
      "ĠIS": 4456,
      "Ġjungen": 4457,
      "Aber": 4458,
      "Ġbrauchen": 4459,
      "Ġgener": 4460,
      "freund": 4461,
      "cial": 4462,
      "Ġanderer": 4463,
      "Ã¶ffnet": 4464,
      "gart": 4465,
      "Ġschwier": 4466,
      "hostw": 4467,
      "Ġbesondere": 4468,
      "ĠAnzahl": 4469,
      "ĠgenieÃŁen": 4470,
      "ĠIr": 4471,
      "Ġsoweit": 4472,
      "04": 4473,
      "ai": 4474,
      "ĠName": 4475,
      "vÃ¶lker": 4476,
      "Ġteilweise": 4477,
      "eiben": 4478,
      "03": 4479,
      "ĠSach": 4480,
      "Ġerl": 4481,
      "Ġgesamte": 4482,
      "ĠnÃ¤chste": 4483,
      "Ġabzu": 4484,
      "Ġledig": 4485,
      "ĠPC": 4486,
      "ourn": 4487,
      "Â°": 4488,
      "riffen": 4489,
      "ĠBade": 4490,
      "loss": 4491,
      "Adresse": 4492,
      "ĠArbeiten": 4493,
      "ĠverÃ¶ffentlicht": 4494,
      "Ġdurchaus": 4495,
      "Ġdeutsch": 4496,
      "ams": 4497,
      "ĠenthÃ¤lt": 4498,
      "schÃ¶n": 4499,
      "wohner": 4500,
      "ĠVier": 4501,
      "wechsel": 4502,
      "ĠverfÃ¼gt": 4503,
      "ĠRegierung": 4504,
      "gruppen": 4505,
      "Ġunterwegs": 4506,
      "ĠfÃ¤llt": 4507,
      "ĠMoment": 4508,
      "ĠErgebnisse": 4509,
      "ĠEind": 4510,
      "Ġres": 4511,
      "ssen": 4512,
      "ĠgemÃ¤ÃŁ": 4513,
      "ĠPaar": 4514,
      "ĠGesprÃ¤ch": 4515,
      "Ġ)": 4516,
      "ehmer": 4517,
      "entliche": 4518,
      "ĠEuch": 4519,
      "hy": 4520,
      "ufe": 4521,
      "ET": 4522,
      "ĠAktion": 4523,
      "ĠGraf": 4524,
      "ĠkÃ¶nnt": 4525,
      "raucht": 4526,
      "spieler": 4527,
      "pft": 4528,
      "endes": 4529,
      "29": 4530,
      "ĠHerbst": 4531,
      "ĠImmobilien": 4532,
      "fÃ¼hren": 4533,
      "Ġerg": 4534,
      "weder": 4535,
      "Ġdefin": 4536,
      "tionen": 4537,
      "ĠTipps": 4538,
      "klusive": 4539,
      "ĠBef": 4540,
      "vollen": 4541,
      "Ġziehen": 4542,
      "Ġlediglich": 4543,
      "mittelt": 4544,
      "auso": 4545,
      "programm": 4546,
      "ĠSchaden": 4547,
      "ĠTraum": 4548,
      "Ġgekommen": 4549,
      "alls": 4550,
      "Ġzufrieden": 4551,
      "ĠHeute": 4552,
      "ĠhÃ¤tten": 4553,
      "kÃ¼": 4554,
      "ĠAlb": 4555,
      "setzt": 4556,
      "ĠAufgabe": 4557,
      "elten": 4558,
      "ĠHann": 4559,
      "ĠVeranstaltung": 4560,
      "ĠDoppel": 4561,
      "nitt": 4562,
      "vel": 4563,
      "ĠArzt": 4564,
      "Ġtau": 4565,
      "ĠnÃ¶": 4566,
      "ĠZwischen": 4567,
      "Ã¶se": 4568,
      "ĀĀĀĀ": 4569,
      "merz": 4570,
      "Ġschlecht": 4571,
      "geg": 4572,
      "ĠgewÃ¤hr": 4573,
      "Ġdarin": 4574,
      "ĠÃ¤uÃŁer": 4575,
      "ĠAnwendung": 4576,
      "ikal": 4577,
      "sphÃ¤re": 4578,
      "Ġusw": 4579,
      "ĠEUR": 4580,
      "isierung": 4581,
      "ieÃŁ": 4582,
      "Ġ500": 4583,
      "Ġsolchen": 4584,
      "Ġeinger": 4585,
      "ĠLager": 4586,
      "ĠLeistungs": 4587,
      "ĠStat": 4588,
      "Ġversucht": 4589,
      "ĠÃ¶ffentlichen": 4590,
      "ong": 4591,
      "Ġgebracht": 4592,
      "deckt": 4593,
      "ef": 4594,
      "Ġgewinnen": 4595,
      "Ġlieber": 4596,
      "kn": 4597,
      "Ġautomatisch": 4598,
      "ĠBrowser": 4599,
      "ĠSohn": 4600,
      "Ġ2008": 4601,
      "Ġentgegen": 4602,
      "ĠAntwort": 4603,
      "ĠJohann": 4604,
      "ĠregelmÃ¤ÃŁig": 4605,
      "ĠmÃ¶glichst": 4606,
      "Ġerlau": 4607,
      "ĠKommunikation": 4608,
      "iete": 4609,
      "bruch": 4610,
      "zeichnung": 4611,
      "werke": 4612,
      "ĠAust": 4613,
      "raten": 4614,
      "Ġmanchmal": 4615,
      "ĠKombin": 4616,
      "Ġbequem": 4617,
      "Ġentsprechend": 4618,
      "formen": 4619,
      "Ġverloren": 4620,
      "Ġmittlerweile": 4621,
      "ana": 4622,
      "ĠZusammenhang": 4623,
      "ikt": 4624,
      "Ġwirtschaft": 4625,
      "management": 4626,
      "setzungen": 4627,
      "âĢĺ": 4628,
      "Ã¤nden": 4629,
      "Ġverantwort": 4630,
      "ĠSmartph": 4631,
      "ĠMess": 4632,
      "ĠKurs": 4633,
      "ernt": 4634,
      "ĠWeitere": 4635,
      "etzte": 4636,
      "pa": 4637,
      "ĠRuss": 4638,
      "Ġkor": 4639,
      "abend": 4640,
      "sammlung": 4641,
      "ĠAllerdings": 4642,
      "Ġdre": 4643,
      "Ġoffiz": 4644,
      "finden": 4645,
      "ĠHund": 4646,
      "ĠHy": 4647,
      "Ã¤lte": 4648,
      "ģĦ": 4649,
      "Ġtradition": 4650,
      "tigten": 4651,
      "ĠmuÃŁ": 4652,
      "Ġdennoch": 4653,
      "ps": 4654,
      "35": 4655,
      "aket": 4656,
      "rid": 4657,
      "ĠauÃŁerdem": 4658,
      "auern": 4659,
      "ret": 4660,
      "ĠtÃ¤glich": 4661,
      "Ġobwohl": 4662,
      "ĠStutt": 4663,
      "swert": 4664,
      "Ã¤ume": 4665,
      "ĠKlima": 4666,
      "Ġdah": 4667,
      "fert": 4668,
      "ĠfrÃ¼h": 4669,
      "spielen": 4670,
      "Ġunterschiedlichen": 4671,
      "ĠDeshalb": 4672,
      "ĠVo": 4673,
      "ĠSuch": 4674,
      "IE": 4675,
      "Ã¤ger": 4676,
      "Ġeingesetzt": 4677,
      "ĠwÃ¤hlen": 4678,
      "igten": 4679,
      "stud": 4680,
      "ĠÃ¤lter": 4681,
      "wald": 4682,
      "Ġengl": 4683,
      "of": 4684,
      "Ġnachdem": 4685,
      "ĠHintergrund": 4686,
      "pfel": 4687,
      "pflicht": 4688,
      "zun": 4689,
      "ĠSchne": 4690,
      "AM": 4691,
      "ograph": 4692,
      "ĠGesicht": 4693,
      "mÃ¶gen": 4694,
      "ĠMacht": 4695,
      "itÃ¤r": 4696,
      "ĠAbl": 4697,
      "Ġerwartet": 4698,
      "Ġraus": 4699,
      "ĠStunde": 4700,
      "Ġhinzu": 4701,
      "ĠSchrift": 4702,
      "Ġausreichen": 4703,
      "Ġdrin": 4704,
      "flÃ¤chen": 4705,
      "imal": 4706,
      "tierte": 4707,
      "ĠMontag": 4708,
      "??": 4709,
      "ĠBezug": 4710,
      "ĠpersÃ¶nlich": 4711,
      "ĠFeld": 4712,
      "ĠMain": 4713,
      "ĠKlasse": 4714,
      "othek": 4715,
      "ĠPublik": 4716,
      "ĠMÃ¼l": 4717,
      "ĠOpti": 4718,
      "ĠHalb": 4719,
      "Ġdisk": 4720,
      "iness": 4721,
      "amme": 4722,
      "Ġkleiner": 4723,
      "icke": 4724,
      "gangs": 4725,
      "sprache": 4726,
      "ĠSachen": 4727,
      "Ġatt": 4728,
      "unkel": 4729,
      "Ph": 4730,
      "fle": 4731,
      "Ã¤ng": 4732,
      "to": 4733,
      "Ġdarum": 4734,
      "Ġallgem": 4735,
      "Kon": 4736,
      "Ġuner": 4737,
      "Ġentwickeln": 4738,
      "rink": 4739,
      "stechn": 4740,
      "ĠMaÃŁnahmen": 4741,
      "ĠGeschmack": 4742,
      "ĠWirtschafts": 4743,
      "Ã¤dig": 4744,
      "ĠÃ¼berra": 4745,
      "Ġmachte": 4746,
      "iegen": 4747,
      "ĠCom": 4748,
      ";;;;": 4749,
      "rt": 4750,
      "Ġgelegen": 4751,
      "ĠSee": 4752,
      "ĠZeiten": 4753,
      "ĠAlles": 4754,
      "krie": 4755,
      "Ġerneut": 4756,
      "ĠMorgen": 4757,
      "Ġbisschen": 4758,
      "TE": 4759,
      "ĠHerzen": 4760,
      "Ġfolgen": 4761,
      "Ġbetr": 4762,
      "stÃ¤t": 4763,
      "ĠFel": 4764,
      "ĠTurn": 4765,
      "aser": 4766,
      "artet": 4767,
      "ĠBeding": 4768,
      "Ġerleben": 4769,
      "ĠEvent": 4770,
      "ĠÌģ": 4771,
      "ĠDiskuss": 4772,
      "hafte": 4773,
      "gesellschaft": 4774,
      "icro": 4775,
      "Ġhalt": 4776,
      "ĠMotiv": 4777,
      "jen": 4778,
      "ĠPfer": 4779,
      "Ġkrit": 4780,
      "ĠBil": 4781,
      "ĠMobil": 4782,
      "alte": 4783,
      "Ġwenige": 4784,
      "Ġreich": 4785,
      "ĠErsatz": 4786,
      "ĠEng": 4787,
      "ĠAnforderungen": 4788,
      "ĠTraining": 4789,
      "ĠGottes": 4790,
      "Ġunbe": 4791,
      "ĠMat": 4792,
      "âģĦ": 4793,
      "ĠHol": 4794,
      "ID": 4795,
      "partner": 4796,
      "Ġversuchen": 4797,
      "ĠErwachsen": 4798,
      "imin": 4799,
      "tes": 4800,
      "ĠWÃ¤r": 4801,
      "fa": 4802,
      "unkten": 4803,
      "Ġschwar": 4804,
      "itektur": 4805,
      "ymp": 4806,
      "sprÃ¼n": 4807,
      "Ġbefinden": 4808,
      "ĠÃ¼": 4809,
      "ĠThomas": 4810,
      "verstÃ¤ndlich": 4811,
      "werten": 4812,
      "ĠAir": 4813,
      "ikro": 4814,
      "Ġmorgen": 4815,
      "alz": 4816,
      "ĠOption": 4817,
      "baum": 4818,
      "bereitung": 4819,
      "ĠWochenende": 4820,
      "ĠAss": 4821,
      "AG": 4822,
      "Ġberuf": 4823,
      "ĠItalien": 4824,
      "Ġform": 4825,
      "Ã¤mpf": 4826,
      "ĠFreizeit": 4827,
      "ĠKrit": 4828,
      "ĠHunde": 4829,
      "ĠChance": 4830,
      "Unter": 4831,
      "ĠUntersuch": 4832,
      "ĠMedizin": 4833,
      "ĠHeimat": 4834,
      "Ġbestimmten": 4835,
      "ĠClub": 4836,
      "its": 4837,
      "ĠSicherheits": 4838,
      "ĠÃľb": 4839,
      "inst": 4840,
      "hung": 4841,
      "Ġ45": 4842,
      "ĠMail": 4843,
      "Ġbein": 4844,
      "nerstag": 4845,
      "Ġdenke": 4846,
      "eiert": 4847,
      "ĠunabhÃ¤ng": 4848,
      "Ġerster": 4849,
      "iar": 4850,
      "DR": 4851,
      "ĠnÃ¤her": 4852,
      "ĠKlin": 4853,
      "agn": 4854,
      "Ġbegann": 4855,
      "Ġgespeichert": 4856,
      "ĠInsel": 4857,
      "Ġfolgende": 4858,
      "Ġgenannt": 4859,
      "ĠKer": 4860,
      "hause": 4861,
      "ĠAndre": 4862,
      "Ġra": 4863,
      "barer": 4864,
      "ĠStruktur": 4865,
      "betrieb": 4866,
      "Ġabsolut": 4867,
      "abet": 4868,
      "Ġbesonderen": 4869,
      "ĠSzen": 4870,
      "Ã¼nden": 4871,
      "Ġwenigen": 4872,
      "ĠDauer": 4873,
      "ĠBrand": 4874,
      "ĠMarken": 4875,
      "Ġwissenschaft": 4876,
      "urm": 4877,
      "ĠRÃ¼cken": 4878,
      "Ġtyp": 4879,
      "ĠLeder": 4880,
      "fassung": 4881,
      "Ġ!": 4882,
      "Ġlinks": 4883,
      "ĠâĨ": 4884,
      "ĠAnschluss": 4885,
      "Ã¤st": 4886,
      "stÃ¤r": 4887,
      "Ġbestellen": 4888,
      "obile": 4889,
      "funktion": 4890,
      "ĠKirchen": 4891,
      "iat": 4892,
      "Ġgestalten": 4893,
      "ish": 4894,
      "Ġtief": 4895,
      "duziert": 4896,
      "ĠWindows": 4897,
      "omme": 4898,
      "ĠMel": 4899,
      "ales": 4900,
      "ĠUp": 4901,
      "bÃ¼": 4902,
      "ĠDan": 4903,
      "berger": 4904,
      "02": 4905,
      "bieren": 4906,
      "ĠPflanzen": 4907,
      "ĠAbt": 4908,
      "Ġmel": 4909,
      "iefel": 4910,
      "ĠBestand": 4911,
      "ĠermÃ¶glichen": 4912,
      "ory": 4913,
      "anzeigen": 4914,
      "fo": 4915,
      "ĠÃ¤ndern": 4916,
      "ĠAusland": 4917,
      "Ġnotwendig": 4918,
      "uff": 4919,
      "Ġgez": 4920,
      "Ġzeig": 4921,
      "twoch": 4922,
      "Ġvergessen": 4923,
      "onen": 4924,
      "lag": 4925,
      "omen": 4926,
      "bli": 4927,
      "ĠRuhe": 4928,
      "wendungen": 4929,
      "ĠKunde": 4930,
      "Ġegal": 4931,
      "ffizien": 4932,
      "vier": 4933,
      "Ġinformieren": 4934,
      "Du": 4935,
      "ĠAktu": 4936,
      "Ġverpflich": 4937,
      "sprech": 4938,
      "Ġfertig": 4939,
      "Ã¼cke": 4940,
      "ĠjÃ¤hr": 4941,
      "ĠStern": 4942,
      "ĠSchweizer": 4943,
      "ĠBrÃ¼": 4944,
      "ektor": 4945,
      "ĠMeine": 4946,
      "anwalt": 4947,
      "endet": 4948,
      "Ã¤ngen": 4949,
      "leider": 4950,
      "lÃ¶sung": 4951,
      "Ġ196": 4952,
      "po": 4953,
      "hostwriter": 4954,
      "ĠVerhalten": 4955,
      "ll": 4956,
      "lieÃŁen": 4957,
      "ĠMetall": 4958,
      "ĠVerlag": 4959,
      "liga": 4960,
      "ĠSchiff": 4961,
      "Durch": 4962,
      "Ġdagegen": 4963,
      "Ġverlassen": 4964,
      "ĠGu": 4965,
      "Ġkamen": 4966,
      "ĠIP": 4967,
      "bieten": 4968,
      "box": 4969,
      "ĠBedÃ¼rf": 4970,
      "49": 4971,
      "Ġmehreren": 4972,
      "ĠTochter": 4973,
      "ĠLinks": 4974,
      "play": 4975,
      "Ġbild": 4976,
      "Ger": 4977,
      "Ġwichtigsten": 4978,
      "achel": 4979,
      "ĠgewÃ¼n": 4980,
      "Ġvoraus": 4981,
      "ĠFÃ¤llen": 4982,
      "ĠWohl": 4983,
      "ĠInformation": 4984,
      "Ġguter": 4985,
      "ĠFlÃ¼cht": 4986,
      "Ġhaus": 4987,
      "bi": 4988,
      "ĠHor": 4989,
      "ĠgefÃ¤hr": 4990,
      "schungs": 4991,
      "Ġacht": 4992,
      "sÃ¤tze": 4993,
      "ĠMannschaft": 4994,
      "ĠbenÃ¶tigt": 4995,
      "ĠWirkung": 4996,
      "ĠbestÃ¤": 4997,
      "ĠHotels": 4998,
      "cri": 4999,
      "Ġeinzige": 5000,
      "ĠEigent": 5001,
      "ĠSerie": 5002,
      "UR": 5003,
      "ĠHar": 5004,
      "System": 5005,
      "Ġero": 5006,
      "zi": 5007,
      "enntnisse": 5008,
      "ĠAntrag": 5009,
      "ĠSonne": 5010,
      "anke": 5011,
      "ĠTeile": 5012,
      "ĠKe": 5013,
      "Ã¼ren": 5014,
      "ĠCharakter": 5015,
      "ĠglÃ¼ck": 5016,
      "ĠTel": 5017,
      "Ġweder": 5018,
      "ĠDein": 5019,
      "SV": 5020,
      "ĠVerÃ¤nder": 5021,
      "rein": 5022,
      "klasse": 5023,
      "sprach": 5024,
      "ĠHandel": 5025,
      "tifiz": 5026,
      "ĠWÃ¼n": 5027,
      "sprung": 5028,
      "ĠGerÃ¤te": 5029,
      "ĠWild": 5030,
      "linie": 5031,
      "wissenschaft": 5032,
      "falt": 5033,
      "Ġwirkt": 5034,
      "ĠStimm": 5035,
      "ischem": 5036,
      "ĠLeit": 5037,
      "Ġsodass": 5038,
      "wÃ¼rdig": 5039,
      "stÃ¤nden": 5040,
      "karten": 5041,
      "ĠGeist": 5042,
      "wirkungen": 5043,
      "ĠSchlag": 5044,
      "ĠFunktionen": 5045,
      "Ġlangen": 5046,
      "Ġwarten": 5047,
      "ĠBetriebs": 5048,
      "teuer": 5049,
      "haben": 5050,
      "oth": 5051,
      "rucken": 5052,
      "________": 5053,
      "ĠGeburtstag": 5054,
      "ĠStoff": 5055,
      "IL": 5056,
      "qualitÃ¤t": 5057,
      "ĠÃĸl": 5058,
      "ĠNatÃ¼rlich": 5059,
      "ku": 5060,
      "ostet": 5061,
      "Ġgegr": 5062,
      "Ġirgendwie": 5063,
      "ĠVerd": 5064,
      "ĠhÃ¶ren": 5065,
      "Ã¼ÃŁe": 5066,
      "ĠListe": 5067,
      "iser": 5068,
      "ieben": 5069,
      "Ġzuletzt": 5070,
      "ĠJung": 5071,
      "bs": 5072,
      "ĠHoff": 5073,
      "Ġlegen": 5074,
      "ode": 5075,
      "Ã¤lfte": 5076,
      "ĠGrundlage": 5077,
      "Ġgenauso": 5078,
      "lern": 5079,
      "Ġbegeister": 5080,
      "ĠNachbar": 5081,
      "vention": 5082,
      "reuung": 5083,
      "mittag": 5084,
      "Ġpar": 5085,
      "iums": 5086,
      "ynam": 5087,
      "ĠSchluss": 5088,
      "ĠVi": 5089,
      "Ġdenken": 5090,
      "ĠVorstand": 5091,
      "ĠMarketing": 5092,
      "heits": 5093,
      "Ã¶tzlich": 5094,
      "ĠEinsch": 5095,
      "Ġentsprechenden": 5096,
      "chter": 5097,
      "schauen": 5098,
      "Ġumfang": 5099,
      "2017": 5100,
      "rik": 5101,
      "das": 5102,
      "zÃ¤hl": 5103,
      "Ġpassiert": 5104,
      "&#": 5105,
      "Ã¶ÃŁen": 5106,
      "eck": 5107,
      "rÃ¤ume": 5108,
      "haber": 5109,
      "Ġinternationalen": 5110,
      "ĠLive": 5111,
      "Ġerwarten": 5112,
      "ĠSchnitt": 5113,
      "Ġbeachten": 5114,
      "Ġdeinen": 5115,
      "ĠTat": 5116,
      "ork": 5117,
      "ĠJa": 5118,
      "Ġerreich": 5119,
      "tent": 5120,
      "ĠVerkehrs": 5121,
      "ĠWege": 5122,
      "Ġlag": 5123,
      "zunehmen": 5124,
      "hÃ¶r": 5125,
      "ĠUN": 5126,
      "Ġintens": 5127,
      "ĠFrie": 5128,
      "ĠOriginal": 5129,
      "ĠgÃ¼nstig": 5130,
      "tic": 5131,
      "Ent": 5132,
      "ĠTheater": 5133,
      "ĠMartin": 5134,
      "ĠSieg": 5135,
      "ĠKilometer": 5136,
      "ĠNachrichten": 5137,
      "ĠKreuz": 5138,
      "zepte": 5139,
      "Ġherunter": 5140,
      "Ġherum": 5141,
      "gerÃ¤t": 5142,
      "ĠdurchgefÃ¼hrt": 5143,
      "ktiven": 5144,
      "ĠBildung": 5145,
      "rig": 5146,
      "ader": 5147,
      "ĠKatzen": 5148,
      "Ġfehlen": 5149,
      "Ġat": 5150,
      "ĠEdel": 5151,
      "alender": 5152,
      "ines": 5153,
      "ĠTrend": 5154,
      "ĠLÃ¤ndern": 5155,
      "Ġdi": 5156,
      "suche": 5157,
      "Ġpr": 5158,
      "ackt": 5159,
      "ĠAnmeldung": 5160,
      "ĠExperten": 5161,
      "wart": 5162,
      "Ġinzwischen": 5163,
      "ĠSemin": 5164,
      "Ġaufzu": 5165,
      "ĠbetrÃ¤gt": 5166,
      "ĠMÃ¼": 5167,
      "Ġgeschlossen": 5168,
      "ĠAnlage": 5169,
      "Ġindividuell": 5170,
      "flÃ¼": 5171,
      "Ã¼hm": 5172,
      "rige": 5173,
      "ĠAmer": 5174,
      "ĠDownload": 5175,
      "ĠFrankreich": 5176,
      "Ġbestimmte": 5177,
      "Ġland": 5178,
      "ĠZentrum": 5179,
      "ĠCamp": 5180,
      "ĠKlass": 5181,
      "Ġstud": 5182,
      "arkt": 5183,
      "mitgl": 5184,
      "Ġsicht": 5185,
      "ĠServer": 5186,
      "Ġsieben": 5187,
      "Ġirgendw": 5188,
      "Ġfach": 5189,
      "ule": 5190,
      "ĠverfÃ¼gbar": 5191,
      "Ġ300": 5192,
      "leit": 5193,
      "eise": 5194,
      "riebe": 5195,
      "fahrer": 5196,
      "Hallo": 5197,
      "ĠRechte": 5198,
      "fangen": 5199,
      "Alle": 5200,
      "ĠBewegung": 5201,
      "ĠTiere": 5202,
      "ĠBevÃ¶lker": 5203,
      "ehlt": 5204,
      "ĠvielfÃ¤l": 5205,
      "ĠSpann": 5206,
      "!!!": 5207,
      "ĠlieÃŁ": 5208,
      "Ġgenannten": 5209,
      "angebot": 5210,
      "Seit": 5211,
      "Ġverh": 5212,
      "Ġgefallen": 5213,
      "Ġrelativ": 5214,
      "ĠLeip": 5215,
      "ĠPartei": 5216,
      "ĠSprach": 5217,
      "ĠStuttgart": 5218,
      "Ġfallen": 5219,
      "Ġbeteil": 5220,
      "ĠjÃ¼n": 5221,
      "Ch": 5222,
      "Ex": 5223,
      "ĠZahlungs": 5224,
      "ĠZweck": 5225,
      "ĠEhe": 5226,
      "passen": 5227,
      "ĠVerm": 5228,
      "uk": 5229,
      "part": 5230,
      "ĠAlex": 5231,
      "ssystem": 5232,
      "ÃĦ": 5233,
      "ĠSpielen": 5234,
      "ĠstÃ¤ndig": 5235,
      "edes": 5236,
      "ĠKern": 5237,
      "Ġdiver": 5238,
      "Ġzahlreichen": 5239,
      "Ġ2007": 5240,
      "Ġnachhal": 5241,
      "anien": 5242,
      "Ġ36": 5243,
      "Ġreicht": 5244,
      "Ġfot": 5245,
      "Ġgutes": 5246,
      "ĠAmazon": 5247,
      "wurf": 5248,
      "uelle": 5249,
      "ĠDorf": 5250,
      "36": 5251,
      "Ġsport": 5252,
      "okal": 5253,
      "ĠVarian": 5254,
      "geord": 5255,
      "Ã¤dag": 5256,
      "ĠÃ¼berall": 5257,
      "ĠVeranstaltungen": 5258,
      "Ġbeob": 5259,
      "Ġerwei": 5260,
      "Ġlieben": 5261,
      "Ġbesuchen": 5262,
      "ble": 5263,
      "bus": 5264,
      "stattet": 5265,
      "tierung": 5266,
      "schte": 5267,
      "ĠUrs": 5268,
      "ĠDaher": 5269,
      "ĠNa": 5270,
      "ĠPrem": 5271,
      "ĠForschung": 5272,
      "ĠĠ": 5273,
      "ole": 5274,
      "ĠLÃ¤nder": 5275,
      "AP": 5276,
      "ĠGelegen": 5277,
      "ĠBÃ¼ro": 5278,
      "ĠDonnerstag": 5279,
      "Her": 5280,
      "treter": 5281,
      "Ã¼sseld": 5282,
      "ĠEint": 5283,
      "78": 5284,
      "rechts": 5285,
      "verfahren": 5286,
      "Ġanal": 5287,
      "Ġwahrscheinlich": 5288,
      "irn": 5289,
      "ĠâĢĶ": 5290,
      "volution": 5291,
      "ĠHandy": 5292,
      "lichkeiten": 5293,
      "ĠVen": 5294,
      "ournal": 5295,
      "ĠMittwoch": 5296,
      "greifen": 5297,
      "Ġkostenlose": 5298,
      "ĠLaut": 5299,
      "Ġinstall": 5300,
      "Ġabw": 5301,
      "ĠTradition": 5302,
      "holen": 5303,
      "ios": 5304,
      "gefÃ¤hr": 5305,
      "ĠDetails": 5306,
      "ĠTrotz": 5307,
      "Ġsauber": 5308,
      "ĠElektro": 5309,
      "legung": 5310,
      "iveau": 5311,
      "ĠBereichen": 5312,
      "ĠAufent": 5313,
      "emente": 5314,
      "ĠDass": 5315,
      "ĠFC": 5316,
      "inkel": 5317,
      "RE": 5318,
      "ĠSter": 5319,
      "ĠLiebl": 5320,
      "ternehmer": 5321,
      "ĠPil": 5322,
      "ĠReisen": 5323,
      "ĠPan": 5324,
      "ĠVertrags": 5325,
      "Ġag": 5326,
      "Ġspricht": 5327,
      "ĠManagement": 5328,
      "âĢ¢": 5329,
      "ĠNetzwerk": 5330,
      "Ġkennt": 5331,
      "ĠGrad": 5332,
      "Ġausgestattet": 5333,
      "bereit": 5334,
      "Ġblau": 5335,
      "Ġpsych": 5336,
      "ĠHÃ¶r": 5337,
      "able": 5338,
      "sse": 5339,
      "mt": 5340,
      "Ġentschieden": 5341,
      "ĠOhne": 5342,
      "material": 5343,
      "Ġunmittel": 5344,
      "ĠErde": 5345,
      "windigkeit": 5346,
      "Bl": 5347,
      "ideo": 5348,
      "ĠausdrÃ¼ck": 5349,
      "Ġinnov": 5350,
      "ĠPoten": 5351,
      "ĠDeine": 5352,
      "auert": 5353,
      "ĠGlau": 5354,
      "38": 5355,
      "ĠBedingungen": 5356,
      "fass": 5357,
      "ĠTrans": 5358,
      "obby": 5359,
      "gress": 5360,
      "ĠErinner": 5361,
      "ĠVereins": 5362,
      "ĠFÃ¼hrung": 5363,
      "ĠâĨĴ": 5364,
      "ĠGeg": 5365,
      "ĠbenÃ¶tigen": 5366,
      "elev": 5367,
      "ĠOffen": 5368,
      "empf": 5369,
      "ĠWeiÃŁ": 5370,
      "Ġkombin": 5371,
      "publik": 5372,
      "ĠChem": 5373,
      "Ġarbeitet": 5374,
      "wach": 5375,
      "osoph": 5376,
      "punkte": 5377,
      "ĠRoman": 5378,
      "ĠZeichen": 5379,
      "zur": 5380,
      "Ġ2000": 5381,
      "ologischen": 5382,
      "Zum": 5383,
      "Ġentstanden": 5384,
      "wortet": 5385,
      "low": 5386,
      "ĠDel": 5387,
      "maschine": 5388,
      "ĠVerbraucher": 5389,
      "ĠGefahr": 5390,
      "dauer": 5391,
      "ĠLÃ¶sungen": 5392,
      "70": 5393,
      "ĠVielleicht": 5394,
      "rick": 5395,
      "iste": 5396,
      "pol": 5397,
      "echseln": 5398,
      "ĠFlÃ¤": 5399,
      "Ġkommenden": 5400,
      "arzt": 5401,
      "dlich": 5402,
      "ĠWohnzimmer": 5403,
      "sion": 5404,
      "lernen": 5405,
      "ause": 5406,
      "ĠGewalt": 5407,
      "unn": 5408,
      "Ġentweder": 5409,
      "ĠKostenlos": 5410,
      "Ġgestern": 5411,
      "stellte": 5412,
      "adern": 5413,
      "ĠFranz": 5414,
      "ĠHans": 5415,
      "ĠOrganisation": 5416,
      "ĠLinie": 5417,
      "95": 5418,
      "ffekt": 5419,
      "ĠWarum": 5420,
      "lÃ¤ss": 5421,
      "ĠPapier": 5422,
      "ĠMarke": 5423,
      "scheint": 5424,
      "vin": 5425,
      "ĠergÃ¤n": 5426,
      "passt": 5427,
      "48": 5428,
      "ĠUl": 5429,
      "mon": 5430,
      "gal": 5431,
      "Ġerinner": 5432,
      "ĠBestimm": 5433,
      "Ġnieder": 5434,
      "ĠSPD": 5435,
      "sburg": 5436,
      "gelegt": 5437,
      "Ġtut": 5438,
      "Ġans": 5439,
      "ones": 5440,
      "Ġangegeben": 5441,
      "Ġbas": 5442,
      "ĠLeser": 5443,
      "ĠCont": 5444,
      "ĠVolk": 5445,
      "linien": 5446,
      "ift": 5447,
      "Ġschrift": 5448,
      "Le": 5449,
      "ĠStar": 5450,
      "Ã¶ÃŁ": 5451,
      "ics": 5452,
      "Ġeingesch": 5453,
      "kret": 5454,
      "ĠFein": 5455,
      "Ġvern": 5456,
      "ĠZug": 5457,
      "ahnen": 5458,
      "ĠPlay": 5459,
      "euten": 5460,
      "ĠBew": 5461,
      "ĠgrÃ¶ÃŁte": 5462,
      "ĠSeine": 5463,
      "Ġkre": 5464,
      "ĠLiteratur": 5465,
      "ĠWh": 5466,
      "Ã¼nftig": 5467,
      "Ġporno": 5468,
      "ĠHof": 5469,
      "ĠGeschichten": 5470,
      "ĠFÃ¤h": 5471,
      "Ġdire": 5472,
      "ĠSchon": 5473,
      "Ġschneller": 5474,
      "itieren": 5475,
      "Ġmensch": 5476,
      "ĠKooper": 5477,
      "Ġerstellen": 5478,
      "Ġbeginnen": 5479,
      "ĠJahrhundert": 5480,
      "ĠUmgang": 5481,
      "fÃ¤lle": 5482,
      "ologische": 5483,
      "ica": 5484,
      "ĠkÃ¼r": 5485,
      "rÃ¤gen": 5486,
      "ĠBestellung": 5487,
      "75": 5488,
      "ĠprÃ¤sentiert": 5489,
      "ĠGewicht": 5490,
      "OL": 5491,
      "ĠLux": 5492,
      "ĠBaby": 5493,
      "otto": 5494,
      "Ġniemand": 5495,
      "ĠZer": 5496,
      "Ã¼ten": 5497,
      "sinn": 5498,
      "MS": 5499,
      "Ð¾": 5500,
      "Ġgesucht": 5501,
      "halle": 5502,
      "werden": 5503,
      "rufen": 5504,
      "ĠProjekte": 5505,
      "aat": 5506,
      "Ġmittels": 5507,
      "IC": 5508,
      "Ġant": 5509,
      "ĠWechsel": 5510,
      "han": 5511,
      "ĠerhÃ¤ltlich": 5512,
      "ĠFahrrad": 5513,
      "Ġbi": 5514,
      "Ġungl": 5515,
      "Ġgeboren": 5516,
      "ĠRen": 5517,
      "ĠBeste": 5518,
      "urg": 5519,
      "ĠKal": 5520,
      "gÃ¤nge": 5521,
      "ĠMicro": 5522,
      "lecht": 5523,
      "ors": 5524,
      "ction": 5525,
      "eige": 5526,
      "ĠNo": 5527,
      "eitern": 5528,
      "aust": 5529,
      "maschinen": 5530,
      "ĠZugang": 5531,
      "ĠtrÃ¤gt": 5532,
      ";&#": 5533,
      "Te": 5534,
      "Ġsorg": 5535,
      "reut": 5536,
      "ĠVorteil": 5537,
      "ĠsÃ¤m": 5538,
      "service": 5539,
      "Ġentsprechende": 5540,
      "igital": 5541,
      "Ġglaube": 5542,
      "Ġries": 5543,
      "ĠPresse": 5544,
      "OM": 5545,
      "ĠFit": 5546,
      "ĠFeuerwehr": 5547,
      "kshop": 5548,
      "erseits": 5549,
      "Ã¤ngst": 5550,
      "acke": 5551,
      "sg": 5552,
      "ĠSim": 5553,
      "ĠNor": 5554,
      "ĠKombination": 5555,
      "omin": 5556,
      "Ġgesetzt": 5557,
      "Ġdauer": 5558,
      "bad": 5559,
      "Ġheutigen": 5560,
      "ĠTats": 5561,
      "ĠGrÃ¼nden": 5562,
      "The": 5563,
      "fÃ¤higkeit": 5564,
      "ĠBerliner": 5565,
      "auftrag": 5566,
      "film": 5567,
      "gerÃ¤te": 5568,
      "ĠIntegr": 5569,
      "ĠMÃ¶bel": 5570,
      "Ġbezeichnet": 5571,
      "ĠRisiko": 5572,
      "ST": 5573,
      "ĠFrem": 5574,
      "schm": 5575,
      "chem": 5576,
      "ĠGesundheits": 5577,
      "enze": 5578,
      "mosphÃ¤re": 5579,
      "iden": 5580,
      "messen": 5581,
      "Ġsing": 5582,
      "AD": 5583,
      "Ġwith": 5584,
      "ppe": 5585,
      "ĠTreffen": 5586,
      "ĠwÃ¼nschen": 5587,
      "ĠWerbe": 5588,
      "Mod": 5589,
      "ĠTrainer": 5590,
      "enne": 5591,
      "inos": 5592,
      "tr": 5593,
      "zum": 5594,
      "ĠSehr": 5595,
      "ikanischen": 5596,
      "Ġproblem": 5597,
      "schlÃ¤ge": 5598,
      "ĠBedarf": 5599,
      "Ġerscheint": 5600,
      "ĠSpeicher": 5601,
      "oppen": 5602,
      "Ġkleines": 5603,
      "stÃ¤ndige": 5604,
      "ĠOper": 5605,
      "Ob": 5606,
      "filter": 5607,
      "atze": 5608,
      "Von": 5609,
      "ĠStÃ¤r": 5610,
      "ĠSein": 5611,
      "alisiert": 5612,
      "ĠKrieg": 5613,
      "nitten": 5614,
      "ĠKarte": 5615,
      "ĠKaffee": 5616,
      "ĠgemÃ¼t": 5617,
      "ĠFahrt": 5618,
      "bilder": 5619,
      "ĠGas": 5620,
      "ĠBeitrÃ¤ge": 5621,
      "Ã¼cksichtig": 5622,
      "Ġdur": 5623,
      "AC": 5624,
      "lefon": 5625,
      "spf": 5626,
      "Ġdat": 5627,
      "ĠVorder": 5628,
      "43": 5629,
      "Ġti": 5630,
      "ĠUnterricht": 5631,
      "Ġpf": 5632,
      "Ġelektron": 5633,
      "sprÃ¼che": 5634,
      "inform": 5635,
      "uhl": 5636,
      "date": 5637,
      "Ġunterschiedliche": 5638,
      "55": 5639,
      "Ġgratis": 5640,
      "ĠAuff": 5641,
      "page": 5642,
      "Ġunterschiedlich": 5643,
      "ĠerzÃ¤hlt": 5644,
      "ĠGrenzen": 5645,
      "asino": 5646,
      "bildungs": 5647,
      "Ges": 5648,
      "Ġzeich": 5649,
      "ius": 5650,
      "Unsere": 5651,
      "ĠKol": 5652,
      "ĠgroÃŁes": 5653,
      "Ġmer": 5654,
      "angt": 5655,
      "ĠTau": 5656,
      "hindern": 5657,
      "zahlt": 5658,
      "Vers": 5659,
      "Ġbilden": 5660,
      "ips": 5661,
      "ampfadern": 5662,
      "ĠKann": 5663,
      "Ġzunehmen": 5664,
      "ĠVergangen": 5665,
      "erner": 5666,
      "ĠLeider": 5667,
      "ĠStrate": 5668,
      "tierten": 5669,
      "Ġvoller": 5670,
      "sum": 5671,
      "ĠBusiness": 5672,
      "Ã¤mpfen": 5673,
      "ĠerklÃ¤ren": 5674,
      "entlichkeit": 5675,
      "Ġas": 5676,
      "stÃ¤ndigen": 5677,
      "ld": 5678,
      "Ġsicherlich": 5679,
      "Ã¼ssen": 5680,
      "aschen": 5681,
      "JÃ¤hr": 5682,
      "blatt": 5683,
      "teile": 5684,
      "ĠEinkauf": 5685,
      "sequ": 5686,
      "ĠPrÃ¼f": 5687,
      "ĠHein": 5688,
      "rechte": 5689,
      "ĠInfos": 5690,
      "ĠWerbung": 5691,
      "haften": 5692,
      "ĠStahl": 5693,
      "Ġtrifft": 5694,
      "ĠRock": 5695,
      "rochen": 5696,
      "drich": 5697,
      "46": 5698,
      "kunde": 5699,
      "ress": 5700,
      "Ġverbessern": 5701,
      "ĠHÃ¼": 5702,
      "EG": 5703,
      "pfl": 5704,
      "cess": 5705,
      "Ġjahr": 5706,
      "Sh": 5707,
      "leger": 5708,
      "ĠFrÃ¼hstÃ¼ck": 5709,
      "Ġalleine": 5710,
      "ugend": 5711,
      "ĠBonus": 5712,
      "ĠQ": 5713,
      "ĠvollstÃ¤ndig": 5714,
      "ĠZuf": 5715,
      "Ġfein": 5716,
      "Ġbewusst": 5717,
      "PS": 5718,
      "mail": 5719,
      "go": 5720,
      "ĠAufbau": 5721,
      "ĠFla": 5722,
      "ĠKlassen": 5723,
      "fan": 5724,
      "ĠgrundsÃ¤tzlich": 5725,
      "Ġletzt": 5726,
      "steh": 5727,
      "ĠGeheim": 5728,
      "ĠTrau": 5729,
      "sem": 5730,
      "bern": 5731,
      "onie": 5732,
      "weite": 5733,
      "ĠLED": 5734,
      "ĠHimmel": 5735,
      "Ġgehalten": 5736,
      "Ġkr": 5737,
      "andeln": 5738,
      "ĠGeschenk": 5739,
      "Ġfolgt": 5740,
      "iebt": 5741,
      "dert": 5742,
      "ĠInstitut": 5743,
      "mund": 5744,
      "Ġmodernen": 5745,
      "ĠEinfluss": 5746,
      "Je": 5747,
      "ĠÃ¼bernehmen": 5748,
      "Ġattra": 5749,
      "itionen": 5750,
      "ĠBewer": 5751,
      "ĠAlters": 5752,
      "Ġreag": 5753,
      "ĠLebensmittel": 5754,
      "reen": 5755,
      "tive": 5756,
      "rug": 5757,
      "ring": 5758,
      "bett": 5759,
      "ĠWil": 5760,
      "Ġvorstellen": 5761,
      "ĠBrief": 5762,
      "ĠUmsetzung": 5763,
      "Ġverschw": 5764,
      "ĠMaterialien": 5765,
      "erklÃ¤rung": 5766,
      "ĠHard": 5767,
      "Ġmod": 5768,
      "ĠKonzept": 5769,
      "ĠJeder": 5770,
      "ival": 5771,
      "ĠfranzÃ¶s": 5772,
      "ĠBezir": 5773,
      "ohlen": 5774,
      "ĠRicht": 5775,
      "istisch": 5776,
      "gro": 5777,
      "ĠZeu": 5778,
      "ĠPe": 5779,
      "Ġzuk": 5780,
      "ummern": 5781,
      "Ġ2006": 5782,
      "ĠFlughafen": 5783,
      "ĠSchlafzimmer": 5784,
      "ĠVerbesser": 5785,
      "Ġgelungen": 5786,
      "Ġnahm": 5787,
      "Ã¤ck": 5788,
      "Ġinteressant": 5789,
      "Ġed": 5790,
      "ĠDafÃ¼r": 5791,
      "etenz": 5792,
      "oto": 5793,
      "kampf": 5794,
      "ichtete": 5795,
      "ĠMaschinen": 5796,
      "lÃ¤nd": 5797,
      "ĠKamera": 5798,
      "ĠwÃ¤ren": 5799,
      "ĠFans": 5800,
      "vertrag": 5801,
      "Ġabgeschlossen": 5802,
      "ĠTransport": 5803,
      "uh": 5804,
      "digen": 5805,
      "ĠHÃ¤lfte": 5806,
      "Ġheim": 5807,
      "ICH": 5808,
      "ĠEss": 5809,
      "sletter": 5810,
      "100": 5811,
      "ĠâĢļ": 5812,
      "ĠÃ¼brigens": 5813,
      "zesse": 5814,
      "ĠPDF": 5815,
      "ĠMor": 5816,
      "ĠStandort": 5817,
      "IG": 5818,
      "antas": 5819,
      "ĠAs": 5820,
      "Ġeingeb": 5821,
      "Ġdarunter": 5822,
      "eiern": 5823,
      "ĠLehrer": 5824,
      "ĠBio": 5825,
      "ĠChristian": 5826,
      "Ã¼rt": 5827,
      "ĠÃ¤hnlich": 5828,
      "kan": 5829,
      "ĠNorm": 5830,
      "Ġvertreten": 5831,
      "Ġinnen": 5832,
      "ĠRie": 5833,
      "sonsten": 5834,
      "handel": 5835,
      "Ġfragen": 5836,
      "Ġernst": 5837,
      "ĠAusstellung": 5838,
      "ĠplÃ¶tzlich": 5839,
      "Ġzieht": 5840,
      "Gen": 5841,
      "omie": 5842,
      "Ġprivate": 5843,
      "ulation": 5844,
      "ĠZahlen": 5845,
      "achelor": 5846,
      "ĠFolgen": 5847,
      "ĠKoch": 5848,
      "ĠWettbewerb": 5849,
      "Dieser": 5850,
      "ĠStudie": 5851,
      "ĠursprÃ¼n": 5852,
      "zeige": 5853,
      "Ġmussten": 5854,
      "Ġbedeuten": 5855,
      "ĠVit": 5856,
      "ĠDarÃ¼ber": 5857,
      "Ġdient": 5858,
      "Ġwirken": 5859,
      "Ġhochwertige": 5860,
      "Ġerlaubt": 5861,
      "Des": 5862,
      "ĠGebrauch": 5863,
      "Ġmoderne": 5864,
      "ĠSucht": 5865,
      "eilung": 5866,
      "ĠBier": 5867,
      "Ġschauen": 5868,
      "club": 5869,
      "ollar": 5870,
      "Ġdrauf": 5871,
      "tigte": 5872,
      "Ġsan": 5873,
      "holt": 5874,
      "Ġrech": 5875,
      "ĠMaster": 5876,
      "Ġberichtet": 5877,
      "Ġdritten": 5878,
      "Ġdeiner": 5879,
      "Ġbeweg": 5880,
      "ĠImmer": 5881,
      "Ġverhindern": 5882,
      "Fl": 5883,
      "ĠJes": 5884,
      "ĠTÃ¤tigkeit": 5885,
      "ĠDienstag": 5886,
      "illa": 5887,
      "forderung": 5888,
      "ĠErotik": 5889,
      "Ġmiteinander": 5890,
      "ĠTabl": 5891,
      "Ã¶rter": 5892,
      "schreiben": 5893,
      "39": 5894,
      "Ġstra": 5895,
      "ĠKategorie": 5896,
      "Ġberaten": 5897,
      "ieter": 5898,
      "Ġgetragen": 5899,
      "Ġ150": 5900,
      "Ġschm": 5901,
      "ace": 5902,
      "andid": 5903,
      "Ã¤dagog": 5904,
      "Ġpol": 5905,
      "Ġbeschrieben": 5906,
      "App": 5907,
      "lafen": 5908,
      "ĠKant": 5909,
      "ĠMir": 5910,
      "pul": 5911,
      "seitig": 5912,
      "Ġverpflichtet": 5913,
      "beg": 5914,
      "wertungen": 5915,
      "ĠSchwar": 5916,
      "san": 5917,
      "ĠpersÃ¶nliche": 5918,
      "abt": 5919,
      "reig": 5920,
      "ĠBook": 5921,
      "Ã¤ne": 5922,
      "ĠInnov": 5923,
      "ĠNeue": 5924,
      "ĠEindruck": 5925,
      "Weiter": 5926,
      "Ġbauen": 5927,
      "Ã¼ÃŁen": 5928,
      "2016": 5929,
      "Ġspeziell": 5930,
      "Ġbeliebte": 5931,
      "netz": 5932,
      "Ã¼st": 5933,
      "ĠSingle": 5934,
      "ĠTw": 5935,
      "gestaltung": 5936,
      "Ġsuche": 5937,
      "platte": 5938,
      "ĠPor": 5939,
      "Ġmedizin": 5940,
      "ĠFleisch": 5941,
      "waltungs": 5942,
      "ĠTanz": 5943,
      "ammt": 5944,
      "Ġhabt": 5945,
      "Ġamer": 5946,
      "Ġgelesen": 5947,
      "reif": 5948,
      "ĠBehÃ¶r": 5949,
      "Ġperfekte": 5950,
      "telligen": 5951,
      "ĠRunde": 5952,
      "ĠMilliar": 5953,
      "ĠTal": 5954,
      "eta": 5955,
      "Ġerstmals": 5956,
      "ĠProdukten": 5957,
      "Ġbekannte": 5958,
      "Ġaufgenommen": 5959,
      "onds": 5960,
      "Ã¼m": 5961,
      "boden": 5962,
      "ĠVergangenheit": 5963,
      "timent": 5964,
      "hoch": 5965,
      "Ã¼se": 5966,
      "ĠDro": 5967,
      "ĠBaden": 5968,
      "enter": 5969,
      "ĠStraf": 5970,
      "44": 5971,
      "ĠMikro": 5972,
      "ĠanschlieÃŁend": 5973,
      "Ġwachsen": 5974,
      "Ġgewonnen": 5975,
      "rock": 5976,
      "ĠBesonders": 5977,
      "schirm": 5978,
      "ĠMiet": 5979,
      "rol": 5980,
      "ĠZw": 5981,
      "bas": 5982,
      "Ġsamm": 5983,
      "ĠRoll": 5984,
      "Ġwor": 5985,
      "ĠÃ¼berzeugt": 5986,
      "messer": 5987,
      "UNG": 5988,
      "ĠgefÃ¼hrt": 5989,
      "ĠBeziehung": 5990,
      "Ġverf": 5991,
      "zy": 5992,
      "ĠMy": 5993,
      "Ġflex": 5994,
      "ĠInternetseite": 5995,
      "etzten": 5996,
      "ĠDokument": 5997,
      "ibel": 5998,
      "Ġsozialen": 5999,
      "icks": 6000,
      "ags": 6001,
      "Ð°": 6002,
      "ĠKÃ¼chen": 6003,
      "ĠBildungs": 6004,
      "ĠSchulen": 6005,
      "komp": 6006,
      "ites": 6007,
      "stahl": 6008,
      "Ã¤nn": 6009,
      "ĠFrieden": 6010,
      "Ġneg": 6011,
      "werbe": 6012,
      "ĠInformations": 6013,
      "Ġnochmal": 6014,
      "Ġeinst": 6015,
      "ĠPop": 6016,
      "Ġverkaufen": 6017,
      "ĠLÃ¤nge": 6018,
      "ĠPay": 6019,
      "rÃ¤nkt": 6020,
      "ĠUnfall": 6021,
      "gramme": 6022,
      "ĠAnfrage": 6023,
      "ĠBevÃ¶lkerung": 6024,
      "Ġgezeigt": 6025,
      "ĠWal": 6026,
      "ĠGegner": 6027,
      "ĠSmartphone": 6028,
      "gelassen": 6029,
      "ĠHannover": 6030,
      "Ġessen": 6031,
      "ĠPlanung": 6032,
      "Ġficken": 6033,
      "Ġunters": 6034,
      "ĠWeihnachts": 6035,
      "ampe": 6036,
      "LAN": 6037,
      "ĠZit": 6038,
      "Den": 6039,
      "Neu": 6040,
      "deu": 6041,
      "Ġgebe": 6042,
      "ischung": 6043,
      "Ġwann": 6044,
      "regierung": 6045,
      "Ġzahlen": 6046,
      "xx": 6047,
      "ĠBericht": 6048,
      "Ġverantwortlich": 6049,
      "alog": 6050,
      "ĠCor": 6051,
      "kre": 6052,
      "ĠKommentar": 6053,
      "ĠVertrieb": 6054,
      "wÃ¤": 6055,
      "ĠLieferung": 6056,
      "ĠLeipzig": 6057,
      "ĠKritik": 6058,
      "Ġwelchen": 6059,
      "ĠEisen": 6060,
      "atoren": 6061,
      "kohol": 6062,
      "itiative": 6063,
      "ahrung": 6064,
      "ĠVorsitzen": 6065,
      "ĠMund": 6066,
      "antie": 6067,
      "ĠEinen": 6068,
      "ampag": 6069,
      "ĠkÃ¶rper": 6070,
      "ĠBeschÃ¤f": 6071,
      "ĠZÃ¼r": 6072,
      "Ġerheb": 6073,
      "beit": 6074,
      "ĠTherapie": 6075,
      "ĠParty": 6076,
      "Ġinkl": 6077,
      "Ġwichtigen": 6078,
      "ĠSign": 6079,
      "ĠÃ¼bertragen": 6080,
      "zenz": 6081,
      "ĠauÃŁerhalb": 6082,
      "achtung": 6083,
      "ĠBox": 6084,
      "ĠtÃ¤tig": 6085,
      "ografie": 6086,
      "ĠAnalyse": 6087,
      "ĠMuster": 6088,
      "ĠMinister": 6089,
      "Ã¶rdert": 6090,
      "hlight": 6091,
      "Ġfindest": 6092,
      "tlichen": 6093,
      "Ġgering": 6094,
      "ktor": 6095,
      "ĠLern": 6096,
      "Ðµ": 6097,
      "ĠEreig": 6098,
      "Ja": 6099,
      "ĠÃ¼berprÃ¼": 6100,
      "ĠLandkreis": 6101,
      "II": 6102,
      "Ġeinfache": 6103,
      "ĠChina": 6104,
      "Ġ32": 6105,
      "ĠVerantwortung": 6106,
      "indert": 6107,
      "frau": 6108,
      "ĠEinfach": 6109,
      "31": 6110,
      "beratung": 6111,
      "Ġeffe": 6112,
      "geschrieben": 6113,
      "Ġwichtiger": 6114,
      "Ġ2019": 6115,
      "ĠWelche": 6116,
      "Ġtotal": 6117,
      "ĠSchlÃ¼ssel": 6118,
      "Ġkurze": 6119,
      "Ġzuverl": 6120,
      "Ġbegeistert": 6121,
      "ĠFernseh": 6122,
      "Ġ2005": 6123,
      "ĠKrÃ¤": 6124,
      "Ġzuerst": 6125,
      "ĠÃĸffentlichkeit": 6126,
      "ĠKollegen": 6127,
      "Ġnutz": 6128,
      "ĠWeiterlesen": 6129,
      "nissen": 6130,
      "ĠBeteil": 6131,
      "iefe": 6132,
      "ĠAllgem": 6133,
      "ĠHerrn": 6134,
      "ĠKompon": 6135,
      "ĠHom": 6136,
      "ĠVorteile": 6137,
      "ĠgrÃ¼n": 6138,
      "ĠLÃ¼": 6139,
      "ĠdÃ¼rfte": 6140,
      "Ġfil": 6141,
      "olden": 6142,
      "itar": 6143,
      "fertigt": 6144,
      "itor": 6145,
      "ĠHum": 6146,
      "Ġ08": 6147,
      "ĠInterview": 6148,
      "hÃ¤user": 6149,
      "ĠProfil": 6150,
      "ĠFalle": 6151,
      "Ġschreibt": 6152,
      "ĠFree": 6153,
      "osen": 6154,
      "ĠerwÃ¤hn": 6155,
      "rah": 6156,
      "Ã¼h": 6157,
      "Ġstellte": 6158,
      "ĠProt": 6159,
      "heber": 6160,
      "Gesch": 6161,
      "ĠDienstleistungen": 6162,
      "TV": 6163,
      "KW": 6164,
      "ĠzusÃ¤tzliche": 6165,
      "Ġfrem": 6166,
      "ĠBlack": 6167,
      "ĠFo": 6168,
      "dre": 6169,
      "ĠFisch": 6170,
      "TM": 6171,
      "IP": 6172,
      "ĠfÃ¼hlen": 6173,
      "Ġaufs": 6174,
      "Ġsteigen": 6175,
      "ĠLeiter": 6176,
      "gerufen": 6177,
      "ĠWare": 6178,
      "ĠDres": 6179,
      "Ġtrocken": 6180,
      "ideos": 6181,
      "Ġpolitischen": 6182,
      "ehrt": 6183,
      "plÃ¤tze": 6184,
      "ĠGelegenheit": 6185,
      "pap": 6186,
      "ĠPersÃ¶n": 6187,
      "Ġerstellt": 6188,
      "ĠInstrum": 6189,
      "ĠÃ¼berw": 6190,
      "Ġsprach": 6191,
      "Ġbreit": 6192,
      "ĠPrÃ¼fung": 6193,
      "37": 6194,
      "Ġdisku": 6195,
      "ĠLab": 6196,
      "yle": 6197,
      "Ġgedacht": 6198,
      "Ġregion": 6199,
      "ilfs": 6200,
      "ĠWasch": 6201,
      "Ġjung": 6202,
      "ĠRelig": 6203,
      "cy": 6204,
      "ĠWunder": 6205,
      "pflege": 6206,
      "ski": 6207,
      "ĠeuropÃ¤ischen": 6208,
      "Ġdienen": 6209,
      "ĠgenÃ¼": 6210,
      "geht": 6211,
      "con": 6212,
      "Ġdaraus": 6213,
      "ĠFilme": 6214,
      "slam": 6215,
      "ices": 6216,
      "kÃ¼ndig": 6217,
      "ymn": 6218,
      "ĠausfÃ¼hr": 6219,
      "ĠberÃ¼hm": 6220,
      "ĠKrampfadern": 6221,
      "ĠsÃ¼d": 6222,
      "pon": 6223,
      "ĠZentr": 6224,
      "Ġlust": 6225,
      "ĠKart": 6226,
      "Ġsen": 6227,
      "ĠRÃ¶": 6228,
      "ierend": 6229,
      "Ġentsteht": 6230,
      "ampen": 6231,
      "Ã¡": 6232,
      "Ġstarten": 6233,
      "Ġengag": 6234,
      "ĠStudium": 6235,
      "ĠKop": 6236,
      "erweise": 6237,
      "Ġverwende": 6238,
      "ĠLeiden": 6239,
      "-/": 6240,
      "ĠSpe": 6241,
      "ĠDÃ¼sseld": 6242,
      "rÃ¤umen": 6243,
      "Ã¶rdern": 6244,
      "Ã¤hlte": 6245,
      "bericht": 6246,
      "ippen": 6247,
      "eichern": 6248,
      "ĠModelle": 6249,
      "Ġbetroffenen": 6250,
      "steiger": 6251,
      "Ġmei": 6252,
      "ĠNummer": 6253,
      "Ġfalsch": 6254,
      "werben": 6255,
      "ĠOrts": 6256,
      "ĠFahrer": 6257,
      "Ser": 6258,
      "ly": 6259,
      "Ġpassende": 6260,
      "ĠfÃ¼hrte": 6261,
      "arif": 6262,
      "ĠRussland": 6263,
      "ĠWeil": 6264,
      "jekten": 6265,
      "ĠEigenschaften": 6266,
      "ĠTrink": 6267,
      "ĠschÃ¼tzen": 6268,
      "ĠSpitzen": 6269,
      "orte": 6270,
      "akten": 6271,
      "ĠKÃ¼hl": 6272,
      "utzung": 6273,
      "pert": 6274,
      "hÃ¤nger": 6275,
      "Produ": 6276,
      "ationalen": 6277,
      "Ġvorne": 6278,
      "ĠBot": 6279,
      "usste": 6280,
      "ĠNachdem": 6281,
      "rand": 6282,
      "gentur": 6283,
      "ĠDrit": 6284,
      "back": 6285,
      "ĠForschungs": 6286,
      "cel": 6287,
      "alerie": 6288,
      "ehme": 6289,
      "ondon": 6290,
      "fristig": 6291,
      "Ġfehlt": 6292,
      "ĠGerade": 6293,
      "ĠSet": 6294,
      "ĠHigh": 6295,
      "ĠFreundin": 6296,
      "Ġkultur": 6297,
      "ĠGericht": 6298,
      "Or": 6299,
      "ichert": 6300,
      "orben": 6301,
      "Ġentdecken": 6302,
      "Ġlok": 6303,
      "arn": 6304,
      "Ġeinzelne": 6305,
      "Ġverurs": 6306,
      "ĠWiderruf": 6307,
      "ĠMig": 6308,
      "ĠFreiheit": 6309,
      "Zur": 6310,
      "schaffen": 6311,
      "ĠDadurch": 6312,
      "ĠSchreib": 6313,
      "ĠMesse": 6314,
      "ĠArbeitgeber": 6315,
      "ĠTechnologie": 6316,
      "ĠPublikum": 6317,
      "ĠBrust": 6318,
      "Ġhergestellt": 6319,
      "ĠPaul": 6320,
      "ĠSilber": 6321,
      "Ġprivaten": 6322,
      "Ġgesellschaft": 6323,
      "roid": 6324,
      "ĠZeitung": 6325,
      "gewicht": 6326,
      "Ġ38": 6327,
      "ĠOpfer": 6328,
      "ĠModern": 6329,
      "Ġleisten": 6330,
      "ĠWÃ¤rme": 6331,
      "ĠbeschÃ¤ftigt": 6332,
      "ĠPlus": 6333,
      "ĠMilch": 6334,
      "ĠrÃ¼ck": 6335,
      "ĠRos": 6336,
      "ĠHinweis": 6337,
      "ĠNoch": 6338,
      "Ġlieb": 6339,
      "mung": 6340,
      "ĠFakt": 6341,
      "Ġgekauft": 6342,
      "beu": 6343,
      "ĠAf": 6344,
      "ĠTeilnahme": 6345,
      "denburg": 6346,
      "Ġverfol": 6347,
      "ĠKarl": 6348,
      "ĠJapan": 6349,
      "freie": 6350,
      "ĠBewertung": 6351,
      "ivil": 6352,
      "ĠEp": 6353,
      "32": 6354,
      "ĠFa": 6355,
      "ischt": 6356,
      "ĠArbeitspl": 6357,
      "erei": 6358,
      "Ġkurzen": 6359,
      "ĠNewsletter": 6360,
      "entwicklung": 6361,
      "Ġinklusive": 6362,
      "rÃ¶": 6363,
      "artige": 6364,
      "ĠAusgabe": 6365,
      "ĠPla": 6366,
      "digt": 6367,
      "ĠGal": 6368,
      "ï¿½ï¿½": 6369,
      "Ġhinein": 6370,
      "Ġpositiv": 6371,
      "ĠStimme": 6372,
      "vo": 6373,
      "Ġextra": 6374,
      "zeichnen": 6375,
      "fernen": 6376,
      "Ġindividuelle": 6377,
      "Ã¤ische": 6378,
      "ĠMiss": 6379,
      "zeichnis": 6380,
      "Ġhoffe": 6381,
      "ĠzÃ¤hlt": 6382,
      "ĠGestaltung": 6383,
      "Ġgesetzlichen": 6384,
      "ĠKonzert": 6385,
      "ds": 6386,
      "raining": 6387,
      "34": 6388,
      "Ġkommun": 6389,
      "ĠHD": 6390,
      "figur": 6391,
      "lehr": 6392,
      "Aut": 6393,
      "ĠMilliarden": 6394,
      "lament": 6395,
      "kurs": 6396,
      "rÃ¤nke": 6397,
      "Ġtollen": 6398,
      "ĠInstall": 6399,
      "wÃ¤rts": 6400,
      "ĠEinfÃ¼hrung": 6401,
      "ĠTaschen": 6402,
      "Ġblieb": 6403,
      "Ġentspricht": 6404,
      "vangel": 6405,
      "ĠAtmosphÃ¤re": 6406,
      "liefer": 6407,
      "sende": 6408,
      "Ġ195": 6409,
      "Techn": 6410,
      "ĠUnterschied": 6411,
      "ĠÃľberblick": 6412,
      "ĠZubehÃ¶r": 6413,
      "ergie": 6414,
      "ĠTexte": 6415,
      "AB": 6416,
      "SP": 6417,
      "renz": 6418,
      "Ġpraktisch": 6419,
      "ep": 6420,
      "OP": 6421,
      "achstum": 6422,
      "ĠRechnung": 6423,
      "ĠErlebnis": 6424,
      "Ġgarantiert": 6425,
      "weiÃŁ": 6426,
      "way": 6427,
      "Ġren": 6428,
      "Ġlebt": 6429,
      "kontakte": 6430,
      "spruchs": 6431,
      "alismus": 6432,
      "Ġausreichend": 6433,
      "ĠZul": 6434,
      "Ġerscheinen": 6435,
      "ual": 6436,
      "undert": 6437,
      "rennen": 6438,
      "ĠGebiet": 6439,
      "meter": 6440,
      "ĠMerk": 6441,
      "ĠRab": 6442,
      "ĠgefÃ¤llt": 6443,
      "ĠStaaten": 6444,
      "italien": 6445,
      "ackte": 6446,
      "ĠDeutschlands": 6447,
      "ĠFriedrich": 6448,
      "za": 6449,
      "ĠgewÃ¤hlt": 6450,
      "ĠMulti": 6451,
      "ĠBud": 6452,
      "ritz": 6453,
      "bedarf": 6454,
      "versorgung": 6455,
      "Ġgleiche": 6456,
      "maÃŁen": 6457,
      "spez": 6458,
      "agd": 6459,
      "ĠMedik": 6460,
      "Ġfrau": 6461,
      "Ġwollten": 6462,
      "ĠKunststoff": 6463,
      "Ġsparen": 6464,
      "laufen": 6465,
      "::": 6466,
      "kul": 6467,
      "ĠRob": 6468,
      "dio": 6469,
      "aufnahme": 6470,
      "mine": 6471,
      "ĠShow": 6472,
      "machen": 6473,
      "ikations": 6474,
      "Ġexist": 6475,
      "ĠAbsatz": 6476,
      "que": 6477,
      "Ġgespielt": 6478,
      "ĠZiele": 6479,
      "stellungs": 6480,
      "ĠAdresse": 6481,
      "verk": 6482,
      "Ġleist": 6483,
      "ĠChancen": 6484,
      "ĠSyn": 6485,
      "kultur": 6486,
      "Ġkat": 6487,
      "ĠUrteil": 6488,
      "Ġorden": 6489,
      "ĠEuropÃ¤ischen": 6490,
      "gesp": 6491,
      "fordert": 6492,
      "Ġumfasst": 6493,
      "spartner": 6494,
      "Ġzugleich": 6495,
      "Ġerstmal": 6496,
      "ĠArm": 6497,
      "spiegel": 6498,
      "Ġdeinem": 6499,
      "ĠTher": 6500,
      "ktien": 6501,
      "derung": 6502,
      "OT": 6503,
      "Ġachten": 6504,
      "Ġ09": 6505,
      "bu": 6506,
      "etisch": 6507,
      "ĠKabel": 6508,
      "ĠMuseum": 6509,
      "ram": 6510,
      "ĠArten": 6511,
      "ĠverfÃ¼gen": 6512,
      "liste": 6513,
      "ĠDeb": 6514,
      "ĠBlumen": 6515,
      "Ġmark": 6516,
      "rael": 6517,
      "ĠOff": 6518,
      "Ġbemer": 6519,
      "Ġideal": 6520,
      "ĠErnÃ¤hrung": 6521,
      "ĠTeams": 6522,
      "Ġausgeb": 6523,
      "Ġglauben": 6524,
      "VD": 6525,
      "ielten": 6526,
      "iga": 6527,
      "Ġ400": 6528,
      "angs": 6529,
      "Ġeiniges": 6530,
      "ena": 6531,
      "aszin": 6532,
      "ew": 6533,
      "jenigen": 6534,
      "Ġtechnischen": 6535,
      "Ġbehandelt": 6536,
      "Ġvorber": 6537,
      "Â§": 6538,
      "ĠKommentare": 6539,
      "gten": 6540,
      "ĠZugriff": 6541,
      "df": 6542,
      "Ġhinten": 6543,
      "ĠerfÃ¼llt": 6544,
      "47": 6545,
      "altungs": 6546,
      "2015": 6547,
      "wander": 6548,
      "teln": 6549,
      "ĠBenutzer": 6550,
      "Ġinteressiert": 6551,
      "Ã¤use": 6552,
      "ĠAmts": 6553,
      "ommunity": 6554,
      "ĠKontrolle": 6555,
      "geschÃ¤ft": 6556,
      "nummer": 6557,
      "Ġevent": 6558,
      "Ġoptim": 6559,
      "Ġlohnt": 6560,
      "Ġbesitzt": 6561,
      "eis": 6562,
      "val": 6563,
      "Ġergeben": 6564,
      "ĠMinute": 6565,
      "ĠVielzahl": 6566,
      "Ġby": 6567,
      "ĠInner": 6568,
      "soft": 6569,
      "Ġkg": 6570,
      "Ġgrau": 6571,
      "ĠMini": 6572,
      "reitet": 6573,
      "splan": 6574,
      "ĠAktivitÃ¤ten": 6575,
      "ragend": 6576,
      "essel": 6577,
      "amilien": 6578,
      "Ġangezeigt": 6579,
      "IM": 6580,
      "oben": 6581,
      "Ġhingegen": 6582,
      "egt": 6583,
      "Ġruss": 6584,
      "zÃ¼ge": 6585,
      "Ġsofern": 6586,
      "Ġsehe": 6587,
      "este": 6588,
      "atisch": 6589,
      "ĠZucker": 6590,
      "ĠverstÃ¤r": 6591,
      "Ã¶rung": 6592,
      "ĠDeck": 6593,
      "euchtung": 6594,
      "Ġpartner": 6595,
      "LE": 6596,
      "gÃ¼l": 6597,
      "ĠBor": 6598,
      "ziehungs": 6599,
      "igem": 6600,
      "Deut": 6601,
      "ĠAch": 6602,
      "berech": 6603,
      "Ġfur": 6604,
      "ĠJur": 6605,
      "ĠBurg": 6606,
      "ĠBM": 6607,
      "Ġregistr": 6608,
      "iefen": 6609,
      "Ġkostet": 6610,
      "Ġzeigte": 6611,
      "oge": 6612,
      "ages": 6613,
      "ĠÃ¶sterreich": 6614,
      "Ġweiterer": 6615,
      "CD": 6616,
      "dessen": 6617,
      "Ġverlie": 6618,
      "ĠSound": 6619,
      "duzieren": 6620,
      "nahm": 6621,
      "ĠPS": 6622,
      "Ġstarke": 6623,
      "ĠSau": 6624,
      "ĠErkrank": 6625,
      "schulen": 6626,
      "Ġpassenden": 6627,
      "ĠBetroffen": 6628,
      "scheidet": 6629,
      "indungen": 6630,
      "ĠEnglisch": 6631,
      "teilen": 6632,
      "Ġunglaub": 6633,
      "hÃ¶he": 6634,
      "aber": 6635,
      "Ġniedr": 6636,
      "ervice": 6637,
      "ĠerfÃ¼llen": 6638,
      "istenz": 6639,
      "Ã¤umen": 6640,
      "ĠDanach": 6641,
      "ĠRadio": 6642,
      "ĠAngriff": 6643,
      "stes": 6644,
      "ĠwunderschÃ¶n": 6645,
      "ĠstÃ¤rker": 6646,
      "Ã¤ufe": 6647,
      "Ġmobil": 6648,
      "Ġgeil": 6649,
      "senden": 6650,
      "steigen": 6651,
      "ĠPul": 6652,
      "Ġinformiert": 6653,
      "Dieses": 6654,
      "text": 6655,
      "kap": 6656,
      "ĠSchnell": 6657,
      "Ġinvest": 6658,
      "ĠAufnahme": 6659,
      "ĠAnteil": 6660,
      "ĠzÃ¤hlen": 6661,
      "SGVO": 6662,
      "ĠFormen": 6663,
      "ĠWorte": 6664,
      "ĠGi": 6665,
      "ĠVom": 6666,
      "forschung": 6667,
      "ĠSE": 6668,
      "umin": 6669,
      "krank": 6670,
      "ĠVerz": 6671,
      "Ġsogenannten": 6672,
      "ordin": 6673,
      "ada": 6674,
      "Ġherzlich": 6675,
      "Ġinteressante": 6676,
      "RA": 6677,
      "Ġnennen": 6678,
      "Ġeiniger": 6679,
      "Ġwenden": 6680,
      "ĠSn": 6681,
      "ĠprÃ¼": 6682,
      "Ġunge": 6683,
      "ĠSV": 6684,
      "Ġbekannten": 6685,
      "wertet": 6686,
      "umente": 6687,
      "Ġlecker": 6688,
      "itiv": 6689,
      "Ġ<": 6690,
      "Ġkonzentr": 6691,
      "Ġgemeinsamen": 6692,
      "Ġtelefon": 6693,
      "Ġno": 6694,
      "ĠDreh": 6695,
      "Mehr": 6696,
      "ĠSekunden": 6697,
      "ĠGlauben": 6698,
      "ĠZusatz": 6699,
      "spannung": 6700,
      "ĠFinger": 6701,
      "treffen": 6702,
      "ĠApple": 6703,
      "Ġerfolgen": 6704,
      "Ã¼nen": 6705,
      "ĠBlau": 6706,
      "lÃ¤nder": 6707,
      "ĠGute": 6708,
      "ĠSymbol": 6709,
      ".[": 6710,
      "ĠZwecke": 6711,
      "ĠMode": 6712,
      "ĠverÃ¤ndert": 6713,
      "veranst": 6714,
      "ĠMos": 6715,
      "sitz": 6716,
      "Ġzerst": 6717,
      "ĠKooperation": 6718,
      "ĠWorkshop": 6719,
      "gÃ¤nger": 6720,
      "ĠAnzeige": 6721,
      "Ġvieles": 6722,
      "Ġstarken": 6723,
      "igungs": 6724,
      "Ġrezept": 6725,
      "Ġleichter": 6726,
      "Ġsinnvoll": 6727,
      "ĠselbstverstÃ¤ndlich": 6728,
      "Ġeindeu": 6729,
      "...)": 6730,
      "ĠBlock": 6731,
      "Ġentlang": 6732,
      "schten": 6733,
      "ĠStamm": 6734,
      "ĠOt": 6735,
      "ĠSchloss": 6736,
      "Ã¶rungen": 6737,
      "spekt": 6738,
      "ĠPet": 6739,
      "Ġweiss": 6740,
      "Ã¼ter": 6741,
      "ĠNews": 6742,
      "Ã¼rn": 6743,
      "wenden": 6744,
      "ĠDanke": 6745,
      "Ġ07": 6746,
      "uellen": 6747,
      "ĠSpiegel": 6748,
      "ĠFran": 6749,
      "anischen": 6750,
      "ĠZusch": 6751,
      "66": 6752,
      "modell": 6753,
      "kÃ¼n": 6754,
      "Ġbill": 6755,
      "urn": 6756,
      "Ġausger": 6757,
      "euert": 6758,
      "Ġverkauft": 6759,
      "Ġhart": 6760,
      "ates": 6761,
      "Ġbeeinfl": 6762,
      "halter": 6763,
      "Ġschnelle": 6764,
      "Ġ75": 6765,
      "angebote": 6766,
      "ĠUnion": 6767,
      "isst": 6768,
      "fÃ¼llung": 6769,
      "ĠDiskussion": 6770,
      "annen": 6771,
      "ĠZeitraum": 6772,
      "ĠTick": 6773,
      "ĠPoly": 6774,
      "ĠausdrÃ¼cklich": 6775,
      "bis": 6776,
      "ĠAntworten": 6777,
      "alisieren": 6778,
      "Ã¤rm": 6779,
      "ĠUmsatz": 6780,
      "ĠSachsen": 6781,
      "Ġiden": 6782,
      "ĠGrie": 6783,
      "vid": 6784,
      "Ġnatur": 6785,
      "Ġkontroll": 6786,
      "ĠSeni": 6787,
      "ĠFÃ¶rderung": 6788,
      "Ġwesentlich": 6789,
      "zellen": 6790,
      "ĠAlbum": 6791,
      "ĠAnlagen": 6792,
      "Ġeleg": 6793,
      "ĠnÃ¶tig": 6794,
      "loud": 6795,
      "Au": 6796,
      "ĠStiefel": 6797,
      "ĠHomepage": 6798,
      "ĠFitness": 6799,
      "ita": 6800,
      "ĠHÃ¤nd": 6801,
      "Ã¤dt": 6802,
      "Ġgetr": 6803,
      "ĠEinige": 6804,
      "Ġser": 6805,
      "ruhe": 6806,
      "ĠAuge": 6807,
      "ris": 6808,
      "ĠDigit": 6809,
      "okus": 6810,
      "ini": 6811,
      "ĠPrakti": 6812,
      "Ġvorlie": 6813,
      "Ġbessere": 6814,
      "ĠFreunden": 6815,
      "ĠgegrÃ¼ndet": 6816,
      "Ġbehaup": 6817,
      "aker": 6818,
      "ĠLondon": 6819,
      "Neben": 6820,
      "iller": 6821,
      "ĠChef": 6822,
      "Ġgeist": 6823,
      "reff": 6824,
      "Ġgeile": 6825,
      "ĠBunde": 6826,
      "ĠGegensatz": 6827,
      "Ġindividuellen": 6828,
      "igner": 6829,
      "rÃ¼st": 6830,
      "ĠEngagement": 6831,
      "Ġverg": 6832,
      "Ã¤tter": 6833,
      "ĠGÃ¶t": 6834,
      ",-": 6835,
      "Ġrot": 6836,
      "temberg": 6837,
      "ĠMittag": 6838,
      "Ġkomplex": 6839,
      "azin": 6840,
      "ĠDenk": 6841,
      "ĠHart": 6842,
      "Ġbetroffene": 6843,
      "riterien": 6844,
      "ĠHu": 6845,
      "ĠLad": 6846,
      "lehn": 6847,
      "ĠLau": 6848,
      "iertes": 6849,
      "ĠOrdnung": 6850,
      "ders": 6851,
      "Spiel": 6852,
      "gemeinschaft": 6853,
      "ĠJahrzehn": 6854,
      "Ġteilen": 6855,
      "Ġstabil": 6856,
      "Ġerhoben": 6857,
      "rastruktur": 6858,
      "Ġtr": 6859,
      "Ġanbieten": 6860,
      "wege": 6861,
      "orts": 6862,
      "Ã¼re": 6863,
      "ĠÂ°": 6864,
      "Ġliefern": 6865,
      "Ġeure": 6866,
      "ĠKarr": 6867,
      "ĠKein": 6868,
      "ano": 6869,
      "Ð¸": 6870,
      "Ġeigenes": 6871,
      "ĠWerte": 6872,
      "Ġmusst": 6873,
      "ĠHandels": 6874,
      "wohnung": 6875,
      "Ġwirst": 6876,
      "versammlung": 6877,
      "ĠFle": 6878,
      "sprechend": 6879,
      "Ġfe": 6880,
      "farben": 6881,
      "ĠWell": 6882,
      "Ã¶rte": 6883,
      "weisung": 6884,
      "ĠKontakte": 6885,
      "reuen": 6886,
      "ĠStrecke": 6887,
      "ĠPlattform": 6888,
      "Ġweich": 6889,
      "Ġsh": 6890,
      "zepti": 6891,
      "Ġweiteres": 6892,
      "raktion": 6893,
      "ĠGrÃ¼nde": 6894,
      "ĠEinrichtung": 6895,
      "ladung": 6896,
      "zern": 6897,
      "Ġfrag": 6898,
      "ĠAnf": 6899,
      "otion": 6900,
      "ĠAusdruck": 6901,
      "Ġ2004": 6902,
      "ĠprÃ¤sentieren": 6903,
      "euern": 6904,
      "iente": 6905,
      "ziplin": 6906,
      "enke": 6907,
      "))": 6908,
      "macht": 6909,
      "ĠMethoden": 6910,
      "Ġfrisch": 6911,
      "una": 6912,
      "ĠKeine": 6913,
      "ĠHochzeit": 6914,
      "Ġzweit": 6915,
      "stÃ¤ndnis": 6916,
      "usstsein": 6917,
      "Ã¤cher": 6918,
      "ĠVerhÃ¤ltnis": 6919,
      "amb": 6920,
      "ĠGrundstÃ¼ck": 6921,
      "het": 6922,
      "Ġhe": 6923,
      "Ġraum": 6924,
      "ĠGir": 6925,
      "Ġfreien": 6926,
      "nicht": 6927,
      "indust": 6928,
      "Ġklassischen": 6929,
      "ĠÃ¶ffentlich": 6930,
      "ĠHat": 6931,
      "ĠHÃ¤nde": 6932,
      "ĠSehen": 6933,
      "Ġmache": 6934,
      "pass": 6935,
      "Ã¤hler": 6936,
      "ĠUSB": 6937,
      "ĠGolf": 6938,
      "2014": 6939,
      "ĠPrinzip": 6940,
      "Ã¶rse": 6941,
      "ĠJust": 6942,
      "ĠPrÃ¤sident": 6943,
      "Ġwiederum": 6944,
      "ĠAndreas": 6945,
      "Ġbislang": 6946,
      "!âĢľ": 6947,
      "ĠWÃ¼nsche": 6948,
      "ec": 6949,
      "ĠMotto": 6950,
      "va": 6951,
      "alifiz": 6952,
      "Ġvorgestellt": 6953,
      "Ġschul": 6954,
      "Ġtechnische": 6955,
      "Ġangenehm": 6956,
      "krÃ¤fte": 6957,
      "Bes": 6958,
      "Ġehemaligen": 6959,
      "Ġvermeiden": 6960,
      "ĠJugendliche": 6961,
      "ĠMedia": 6962,
      "gefÃ¼hl": 6963,
      "kat": 6964,
      "ĠKenn": 6965,
      "ola": 6966,
      "bliothek": 6967,
      "ĠgeschÃ¼tzt": 6968,
      "Ġpolitische": 6969,
      "ĠJournal": 6970,
      "Ġ1000": 6971,
      "ĠGerman": 6972,
      "Ġ48": 6973,
      "ĠkÃ¶nne": 6974,
      "Ġgefragt": 6975,
      "emen": 6976,
      "EU": 6977,
      "ĠST": 6978,
      "ituationen": 6979,
      "lager": 6980,
      "hler": 6981,
      "tim": 6982,
      "Also": 6983,
      "Ġsitzen": 6984,
      "Ġcasino": 6985,
      "Â¤": 6986,
      "Ġko": 6987,
      "ĠKlaus": 6988,
      "!)": 6989,
      "ziehungen": 6990,
      "EM": 6991,
      "ĠKonto": 6992,
      "Ġgeplant": 6993,
      "filme": 6994,
      "zwe": 6995,
      "ĠSicher": 6996,
      "gebracht": 6997,
      "ĠAutos": 6998,
      "rainer": 6999,
      "ĠDÃ¼sseldorf": 7000,
      "Ġbenutzt": 7001,
      "ĠUmfang": 7002,
      "ĠStock": 7003,
      "Ġfalls": 7004,
      "ĠTÃ¼rk": 7005,
      "ĠAg": 7006,
      "gig": 7007,
      "ĠPerspe": 7008,
      "ationale": 7009,
      "ĠVerwaltungs": 7010,
      "del": 7011,
      "Ġdachte": 7012,
      "ĠWol": 7013,
      "Ġwelchem": 7014,
      "Ã¤sser": 7015,
      "65": 7016,
      "helm": 7017,
      "ilien": 7018,
      "ifferen": 7019,
      "ĠStudenten": 7020,
      "Ġfahr": 7021,
      "ĠMut": 7022,
      "ĠKonkur": 7023,
      "ĠBÃ¼hne": 7024,
      "Ġla": 7025,
      "ĠEinrichtungen": 7026,
      ".:.:.:.:": 7027,
      "ĠauÃŁen": 7028,
      "Ġ55": 7029,
      "ĠLandschaft": 7030,
      "ĠWes": 7031,
      "atische": 7032,
      "kommt": 7033,
      "ĠWa": 7034,
      "ĠBrot": 7035,
      "ĠBauch": 7036,
      "ĠFalls": 7037,
      "orten": 7038,
      "elles": 7039,
      "ĠAlten": 7040,
      "ĠAlternative": 7041,
      "42": 7042,
      "Ġstaat": 7043,
      "Ġsogenannte": 7044,
      "ĠAblauf": 7045,
      "ĠAndroid": 7046,
      "udwig": 7047,
      "ĠPu": 7048,
      "beweg": 7049,
      "ĠDresden": 7050,
      "Bild": 7051,
      "bÃ¼rger": 7052,
      "zieht": 7053,
      "ĠZÃ¼rich": 7054,
      "Ġmusikal": 7055,
      "ĠVersicherungs": 7056,
      "Ã¤hlten": 7057,
      "ĠÃĦnderungen": 7058,
      "ĠHeiz": 7059,
      "Ġkompeten": 7060,
      "ĠSat": 7061,
      "ĠStiftung": 7062,
      "ĠKomfort": 7063,
      "Ġtreten": 7064,
      "ĠVoraussetzungen": 7065,
      "Ġmeines": 7066,
      "Ġverschl": 7067,
      "IV": 7068,
      "ologien": 7069,
      "ĠRezept": 7070,
      "wiegend": 7071,
      "ĠlÃ¤ngst": 7072,
      "ĠMindest": 7073,
      "ĠerhÃ¶ht": 7074,
      "ric": 7075,
      "ĠLaden": 7076,
      "imen": 7077,
      "ĠVerkÃ¤ufer": 7078,
      "zufÃ¼hren": 7079,
      "ĠlÃ¶": 7080,
      "ĠRegeln": 7081,
      "ĠÃ¶ffnen": 7082,
      "ikationen": 7083,
      "Reg": 7084,
      "Mein": 7085,
      "Ã¼mer": 7086,
      "ĠJohn": 7087,
      "job": 7088,
      "ĠÃľbersicht": 7089,
      "Ġallgemeinen": 7090,
      "mach": 7091,
      "Ġwarm": 7092,
      "Ã¼hle": 7093,
      "gels": 7094,
      "tis": 7095,
      "Ġitalien": 7096,
      "Ġneun": 7097,
      "ĠgrÃ¶ÃŁere": 7098,
      "ĠÃĦrzte": 7099,
      "ĠCan": 7100,
      "ĠInteress": 7101,
      "ĠStefan": 7102,
      "Ġbo": 7103,
      "maÃŁnahmen": 7104,
      "Land": 7105,
      "innern": 7106,
      "ĠmÃ¼sste": 7107,
      "ĠHan": 7108,
      "ĠBahnhof": 7109,
      "Ġdunk": 7110,
      "sw": 7111,
      "Ġarbeite": 7112,
      "Ã¤tzlich": 7113,
      "essour": 7114,
      "Ġbrachte": 7115,
      "seits": 7116,
      "Ġwasser": 7117,
      "ĠWichtig": 7118,
      "wirken": 7119,
      "ĠBalkon": 7120,
      "ussen": 7121,
      "tl": 7122,
      ");": 7123,
      "ĠMatt": 7124,
      "ĠArme": 7125,
      "Ġkrank": 7126,
      "Ġausgel": 7127,
      "ĠRede": 7128,
      "hÃ¶ren": 7129,
      "Ġausges": 7130,
      "Phone": 7131,
      "Med": 7132,
      "ffizienz": 7133,
      "ĠHighlight": 7134,
      "ĠKrankheit": 7135,
      "ĠRand": 7136,
      "ĠRestaurants": 7137,
      "top": 7138,
      "ĠAnaly": 7139,
      "rinken": 7140,
      "Ġdahin": 7141,
      "Ġlegt": 7142,
      "ĠBedien": 7143,
      "##": 7144,
      "willigung": 7145,
      "musik": 7146,
      "ĠSind": 7147,
      "anische": 7148,
      "Ġschwei": 7149,
      "ĠBill": 7150,
      "ĠAbenteuer": 7151,
      "lebt": 7152,
      "ĠMac": 7153,
      "ĠRichter": 7154,
      "ĠZut": 7155,
      "ĠGang": 7156,
      "ĠDirekt": 7157,
      "alerweise": 7158,
      "Ġeignet": 7159,
      "Ġentdeckt": 7160,
      "ĠVerband": 7161,
      "Ġleiden": 7162,
      "zusetzen": 7163,
      "rechnung": 7164,
      "ĠUser": 7165,
      "Ġgetan": 7166,
      "ĠmaÃŁ": 7167,
      "ĠGroÃŁe": 7168,
      "ĠStad": 7169,
      "samen": 7170,
      "ĠKonfl": 7171,
      "ĠSÃ¼": 7172,
      "bindung": 7173,
      "medizin": 7174,
      "aming": 7175,
      "Ġnahezu": 7176,
      "ĠKapital": 7177,
      "Ġinternationale": 7178,
      "Ġelektr": 7179,
      "Ġprofitieren": 7180,
      "agra": 7181,
      "TS": 7182,
      "ĠDial": 7183,
      "agten": 7184,
      "gf": 7185,
      "ĠAustausch": 7186,
      "Ã¤testens": 7187,
      "leistet": 7188,
      "ĠGemÃ¼se": 7189,
      "ubil": 7190,
      "Ġentsp": 7191,
      "iguren": 7192,
      "aster": 7193,
      "ĠPre": 7194,
      "ikanische": 7195,
      "ĠKategorien": 7196,
      "eide": 7197,
      "ĠReal": 7198,
      "ards": 7199,
      "ĠOpen": 7200,
      "ĠRefer": 7201,
      "ĠSchÃ¤den": 7202,
      "nt": 7203,
      "ĠJungen": 7204,
      "ĠSpitze": 7205,
      "struktion": 7206,
      "Ġladen": 7207,
      "Ġgetroffen": 7208,
      "ĠWebseiten": 7209,
      "ĠÃ¼berzeugen": 7210,
      "ĠPflicht": 7211,
      "Bet": 7212,
      "Ġhalb": 7213,
      ".Â«": 7214,
      "Ġangemessen": 7215,
      "schiede": 7216,
      "Nun": 7217,
      "Ġwechseln": 7218,
      "iedern": 7219,
      "fordern": 7220,
      "ĠJahrhunderts": 7221,
      "ĠJose": 7222,
      "ĠÃ¶ffentliche": 7223,
      "arbeitern": 7224,
      "ĠðŁĺ": 7225,
      "ĠmÃ¶glichen": 7226,
      "41": 7227,
      "reck": 7228,
      "standen": 7229,
      "ĠParis": 7230,
      "ĠHinweise": 7231,
      "Ġvermut": 7232,
      "ĠMad": 7233,
      "gewiesen": 7234,
      "Ġschau": 7235,
      "metho": 7236,
      "ĠunabhÃ¤ngig": 7237,
      "Ġglob": 7238,
      "andern": 7239,
      "ĠBildern": 7240,
      "ĠTelef": 7241,
      "kund": 7242,
      "industrie": 7243,
      "Fr": 7244,
      "ĠVerwaltung": 7245,
      "Bay": 7246,
      "holung": 7247,
      "sprecher": 7248,
      "luss": 7249,
      "ĠAktien": 7250,
      "no": 7251,
      "ender": 7252,
      "Ġ120": 7253,
      "98": 7254,
      "fÃ¼llt": 7255,
      "blieben": 7256,
      "ĠDatenschutzerklÃ¤rung": 7257,
      "ĠAutoren": 7258,
      "ĠVerÃ¶ffentlich": 7259,
      "ĠLesen": 7260,
      "ĠEmpfeh": 7261,
      "Ġdauert": 7262,
      "politik": 7263,
      "automaten": 7264,
      "ĠGeneration": 7265,
      "ĠÃ¤r": 7266,
      "ĠAufenthalt": 7267,
      "ĠVertrauen": 7268,
      "Ġverlieren": 7269,
      "ĠSchwe": 7270,
      "ĠWaffen": 7271,
      "ãģ": 7272,
      "ĠregelmÃ¤ÃŁ": 7273,
      "ĠIN": 7274,
      "esto": 7275,
      "Ġ:)": 7276,
      "ĠbestÃ¤tigt": 7277,
      "ĠBra": 7278,
      "verwaltung": 7279,
      "For": 7280,
      "ĠCre": 7281,
      "same": 7282,
      "ĠCDU": 7283,
      "ĠNet": 7284,
      "gier": 7285,
      "Ġrest": 7286,
      "ĠRenn": 7287,
      "ollt": 7288,
      "ĠBin": 7289,
      "beln": 7290,
      "sichts": 7291,
      "Dat": 7292,
      "merksamkeit": 7293,
      "ĠDarm": 7294,
      "Ġkinder": 7295,
      "ĠVersuch": 7296,
      "Ġ37": 7297,
      "ĠChat": 7298,
      "Ġbewegen": 7299,
      "gÃ¼nst": 7300,
      "ĠGrill": 7301,
      "........": 7302,
      "ĠJugendlichen": 7303,
      "ĠEi": 7304,
      "ĠGeneral": 7305,
      "Ġeins": 7306,
      "drucken": 7307,
      "ĠBauern": 7308,
      "werks": 7309,
      "ĠKostenlose": 7310,
      "Ġentfernen": 7311,
      "Ġspezielle": 7312,
      "Ġjedenfalls": 7313,
      "paratur": 7314,
      "ĠBir": 7315,
      "ĠVermÃ¶gen": 7316,
      "isieren": 7317,
      "ton": 7318,
      "farbe": 7319,
      "ĠMand": 7320,
      "armon": 7321,
      "onym": 7322,
      "ãĥ": 7323,
      "essor": 7324,
      "fahrung": 7325,
      "ĠGutschein": 7326,
      "ĠStÃ¤dte": 7327,
      "ĠKompl": 7328,
      "ĠSchwanger": 7329,
      "Ġ33": 7330,
      "Ġkorre": 7331,
      "sfÃ¤h": 7332,
      "gesprÃ¤": 7333,
      "elen": 7334,
      "ĠRoh": 7335,
      "ppich": 7336,
      "ĠHyp": 7337,
      "Ã¤nner": 7338,
      "best": 7339,
      "ĠOs": 7340,
      "Ġanerk": 7341,
      "Ġwest": 7342,
      "ikon": 7343,
      "ĠSeele": 7344,
      "barung": 7345,
      "okratie": 7346,
      "otos": 7347,
      "ĠVertreter": 7348,
      "Ġbezahlen": 7349,
      "prÃ¼fung": 7350,
      "funk": 7351,
      "pos": 7352,
      "Ġvermutlich": 7353,
      "ĠBedÃ¼rfnisse": 7354,
      "RW": 7355,
      "Ġeur": 7356,
      "RO": 7357,
      "asi": 7358,
      "arbeits": 7359,
      "ĠDSGVO": 7360,
      "athem": 7361,
      "Ġlive": 7362,
      "ĠBelast": 7363,
      "Ã¼rk": 7364,
      "ĠBerat": 7365,
      "Ġhoher": 7366,
      "ĠFett": 7367,
      "ĠSong": 7368,
      "ĠJack": 7369,
      "Ġgestaltet": 7370,
      "artig": 7371,
      "Ġ2003": 7372,
      "lichem": 7373,
      "Ġ34": 7374,
      "lieÃŁt": 7375,
      "Ã¼lle": 7376,
      "ĠYork": 7377,
      "Â»,": 7378,
      "Ġcool": 7379,
      "ĠBord": 7380,
      "ĠWahrheit": 7381,
      "ĠWagen": 7382,
      "legten": 7383,
      "ĠRett": 7384,
      "Ġgemeinsame": 7385,
      "Ġgehe": 7386,
      "pal": 7387,
      "Ġerleich": 7388,
      "Ġunbek": 7389,
      "glas": 7390,
      "ĠBÃ¼rgermeister": 7391,
      "grÃ¼n": 7392,
      "ĠHaft": 7393,
      "Ġgeeig": 7394,
      "Ġkomfort": 7395,
      "ĠTrainings": 7396,
      "ĠKÃ¤ufer": 7397,
      "Ad": 7398,
      "ĠSortiment": 7399,
      "Ġseiten": 7400,
      "ĠBatter": 7401,
      "ĠGrundlagen": 7402,
      "ĠSchwerpunkt": 7403,
      "Doch": 7404,
      "grÃ¶ÃŁe": 7405,
      "Ġoffenbar": 7406,
      "Ġschafft": 7407,
      "ĠCro": 7408,
      "ĠsÃ¤mtliche": 7409,
      "hebung": 7410,
      "ĠBremen": 7411,
      "ĠKab": 7412,
      "ĠTim": 7413,
      "tÃ¤": 7414,
      "ĠSocial": 7415,
      "ĠBaumw": 7416,
      "door": 7417,
      "ĠhÃ¤ngt": 7418,
      "500": 7419,
      "Ã¼llen": 7420,
      "fassungs": 7421,
      "Ġhistorischen": 7422,
      "Ġinspir": 7423,
      "ĠauÃŁergewÃ¶hn": 7424,
      "ĠStreit": 7425,
      "ĠBÃ¶": 7426,
      "ĠMÃ¼ller": 7427,
      "rhein": 7428,
      "Ġverarbeitet": 7429,
      "ĠSchreiben": 7430,
      "ĠÃ¼bernommen": 7431,
      "Ã¼hrt": 7432,
      "hte": 7433,
      "ĠZoll": 7434,
      "Ġgebaut": 7435,
      "ĠKÃ¶r": 7436,
      "Ġerlebt": 7437,
      "Ġabend": 7438,
      "spart": 7439,
      "68": 7440,
      "Ġflie": 7441,
      "Ġverlei": 7442,
      "rib": 7443,
      "leisten": 7444,
      "ĠLernen": 7445,
      "ĠUnternehmer": 7446,
      "ĠSchnee": 7447,
      "ĠNutzen": 7448,
      "ĠEdelstahl": 7449,
      "achter": 7450,
      "ey": 7451,
      "ĠSeminar": 7452,
      "Shop": 7453,
      "ĠAutom": 7454,
      "ĠLeitung": 7455,
      "ĠCH": 7456,
      "ÑĤ": 7457,
      "ĠArg": 7458,
      "ĠBu": 7459,
      "brechen": 7460,
      "ĠBlu": 7461,
      "ĠFahrzeuge": 7462,
      "Beim": 7463,
      "rac": 7464,
      "Ġfreue": 7465,
      "ĠdÃ¼n": 7466,
      "ĠBetreiber": 7467,
      "hlung": 7468,
      "ĠSchwanz": 7469,
      "ĠNachricht": 7470,
      "male": 7471,
      "Ġverste": 7472,
      "ĠPfarr": 7473,
      "Ġgegangen": 7474,
      "ĠRosen": 7475,
      "ible": 7476,
      "ĠLim": 7477,
      "Ġinternational": 7478,
      "bart": 7479,
      "ĠVerstÃ¤ndnis": 7480,
      "ĠYog": 7481,
      "ĠKrankenhaus": 7482,
      "ainer": 7483,
      "ĠZuschauer": 7484,
      "ĠlÃ¶sen": 7485,
      "Ġschwierig": 7486,
      "struktur": 7487,
      "Ġ250": 7488,
      "inderung": 7489,
      "Ġverab": 7490,
      "Ġrum": 7491,
      "ĠungefÃ¤hr": 7492,
      "arben": 7493,
      "ĠFront": 7494,
      "ĠDritte": 7495,
      "tragung": 7496,
      "Ġmanche": 7497,
      "Ġsetzte": 7498,
      "Ġ2002": 7499,
      "reiter": 7500,
      "ĠAqu": 7501,
      "stuhl": 7502,
      "Ġerinnert": 7503,
      "ĠHalle": 7504,
      "SU": 7505,
      "Ġgeschaffen": 7506,
      "sidenten": 7507,
      "rauben": 7508,
      "erischen": 7509,
      "Ġanzeigen": 7510,
      "Ġeinfachen": 7511,
      "Ġruhig": 7512,
      "ĠGeschÃ¤ftsfÃ¼hrer": 7513,
      "ĠÃ¤uÃŁerst": 7514,
      "ĠZuhause": 7515,
      "rÃ¤ch": 7516,
      "Ġwillst": 7517,
      "2013": 7518,
      "ĠLieblings": 7519,
      "ĠDatei": 7520,
      "ĠArchitektur": 7521,
      "ĠgÃ¼l": 7522,
      "Ġakzepti": 7523,
      "Ġauseinander": 7524,
      "lieben": 7525,
      "ĠKlo": 7526,
      "ĠeinschlieÃŁlich": 7527,
      "km": 7528,
      "ĠNachmittag": 7529,
      "rollen": 7530,
      "ĠNie": 7531,
      "Ġfree": 7532,
      "ĠAspe": 7533,
      "otten": 7534,
      "Ġbegleitet": 7535,
      "Ġdro": 7536,
      "ĠHerstellung": 7537,
      "Ġklicken": 7538,
      "Ġoffenen": 7539,
      "stoffen": 7540,
      "ĠEhren": 7541,
      "ĠBadezimmer": 7542,
      "ĠPower": 7543,
      "ĠGefÃ¼": 7544,
      "ĠKleid": 7545,
      "Nicht": 7546,
      "aller": 7547,
      "ĠAusnahme": 7548,
      "wirt": 7549,
      "Ġletzter": 7550,
      "ĠKapitel": 7551,
      "oler": 7552,
      "ĠMio": 7553,
      "ĠBre": 7554,
      "wirkung": 7555,
      "ĠHallo": 7556,
      "ĠStress": 7557,
      "uliert": 7558,
      "ĠStimmung": 7559,
      "fÃ¤llt": 7560,
      "alit": 7561,
      "ĠJunge": 7562,
      "eth": 7563,
      "ĠBund": 7564,
      "Ġirgendwann": 7565,
      "ical": 7566,
      "ĠDarstellung": 7567,
      "bran": 7568,
      "ymbol": 7569,
      "Ġerinnern": 7570,
      "dung": 7571,
      "kopf": 7572,
      "lines": 7573,
      "Mar": 7574,
      "Mark": 7575,
      "ĠVielfalt": 7576,
      "Ġei": 7577,
      "Ġbenutzen": 7578,
      "siehe": 7579,
      "ĠEich": 7580,
      "bares": 7581,
      "ĠGrau": 7582,
      "Ġtritt": 7583,
      "spor": 7584,
      "ĠGemeinschaft": 7585,
      "ĠFlor": 7586,
      "Ġkurzer": 7587,
      "cc": 7588,
      "annter": 7589,
      "Ġallgemein": 7590,
      "ĠMicrosoft": 7591,
      "ĠSchmerzen": 7592,
      "ĠglÃ¼cklich": 7593,
      "gas": 7594,
      "Ġanti": 7595,
      "ĠGriff": 7596,
      "beck": 7597,
      "Ġholen": 7598,
      "azier": 7599,
      "reme": 7600,
      "Ġausw": 7601,
      "ĠDaniel": 7602,
      "haltet": 7603,
      "ĠParteien": 7604,
      "ĠBundestag": 7605,
      "ĠPool": 7606,
      "ĠWeihnachten": 7607,
      "ĠYou": 7608,
      "Ġsoziale": 7609,
      "ĀĀĀĀĀĀĀĀ": 7610,
      "ĠBetreuung": 7611,
      "prÃ¤gt": 7612,
      "Ġplatz": 7613,
      "ona": 7614,
      "dam": 7615,
      "ĠGrÃ¶ÃŁen": 7616,
      "ĠGhostwriter": 7617,
      "Fil": 7618,
      "ĠQuad": 7619,
      "fÃ¤llen": 7620,
      "pret": 7621,
      "Ã¤fte": 7622,
      "sorge": 7623,
      "Ġerhielt": 7624,
      "formular": 7625,
      "ĠTerrasse": 7626,
      "ĠBruder": 7627,
      "ĠMaria": 7628,
      "ĠCap": 7629,
      "unken": 7630,
      "druckt": 7631,
      "ĠFlie": 7632,
      "ĠRollen": 7633,
      "ĠLaufe": 7634,
      "Ġmeistens": 7635,
      "ĠNerv": 7636,
      "ĠIhn": 7637,
      "eral": 7638,
      "ĠSchwier": 7639,
      "Ġ65": 7640,
      "wendungs": 7641,
      "Grund": 7642,
      "ĠiPhone": 7643,
      "Pf": 7644,
      "ĠAufmerksamkeit": 7645,
      "reit": 7646,
      "Ġtrain": 7647,
      "yd": 7648,
      "ĠPubl": 7649,
      "ĠDurchfÃ¼hrung": 7650,
      "ĠEcht": 7651,
      "ĠHoffnung": 7652,
      "ĠDS": 7653,
      "worben": 7654,
      "ĠFokus": 7655,
      "igi": 7656,
      "osex": 7657,
      "88": 7658,
      "ĠRegistr": 7659,
      "Che": 7660,
      "Ġgezogen": 7661,
      "platten": 7662,
      "ous": 7663,
      "anze": 7664,
      "fÃ¤llig": 7665,
      "isen": 7666,
      "77": 7667,
      "schiff": 7668,
      "ĠerÃ¶ffnet": 7669,
      "ĠQuelle": 7670,
      "staat": 7671,
      "Ġfair": 7672,
      "ĠNote": 7673,
      "ĠAmt": 7674,
      "ĠAllgemein": 7675,
      "Ġgelie": 7676,
      "Ã¤tigung": 7677,
      "ĠHon": 7678,
      "Ġprivat": 7679,
      "ĠerhÃ¶hen": 7680,
      "Ġ000": 7681,
      "ĠNah": 7682,
      "ĠWird": 7683,
      "ĠAusgang": 7684,
      "ĠWM": 7685,
      "El": 7686,
      "stechnik": 7687,
      "ĠCol": 7688,
      "abilitÃ¤t": 7689,
      "rang": 7690,
      "Ġgepf": 7691,
      "inu": 7692,
      "ĠKeller": 7693,
      "ĠFab": 7694,
      "Â«,": 7695,
      "ĠBrenn": 7696,
      "aul": 7697,
      "Ã¼tter": 7698,
      "ilitÃ¤t": 7699,
      "anc": 7700,
      "ĠCO": 7701,
      "Ġbildet": 7702,
      "Ġwand": 7703,
      "Ġerschienen": 7704,
      "Ġaussehen": 7705,
      "West": 7706,
      "Ġ39": 7707,
      "Ġbesucht": 7708,
      "Ã¼te": 7709,
      "Ġgelegt": 7710,
      "Ġnormal": 7711,
      "ĠheiÃŁen": 7712,
      "ĠUnterkunft": 7713,
      "ĠSum": 7714,
      "agentur": 7715,
      "Ġanhand": 7716,
      "ents": 7717,
      "ĠHerausforderungen": 7718,
      "loÃŁ": 7719,
      "Ġmonat": 7720,
      "ĠerklÃ¤rte": 7721,
      "ĠSpanien": 7722,
      "ged": 7723,
      "ĠhÃ¤uf": 7724,
      "ĠTeilen": 7725,
      "ĠAlkohol": 7726,
      "ĠWerke": 7727,
      "ĠVerÃ¤nderungen": 7728,
      "Ġspezial": 7729,
      "ĠgewÃ¶hn": 7730,
      "ĠDipl": 7731,
      "Pal": 7732,
      "design": 7733,
      "Ġheil": 7734,
      "nei": 7735,
      "ĠMonats": 7736,
      "sieht": 7737,
      "berater": 7738,
      "ĠEinblick": 7739,
      "AU": 7740,
      "ĠPrÃ¤sent": 7741,
      "ĠErwachsene": 7742,
      "ĠFÃ¤higkeiten": 7743,
      "Ġwillkommen": 7744,
      "zten": 7745,
      "Ġzog": 7746,
      "ĠÃ¼bersch": 7747,
      "antast": 7748,
      "ĠOberflÃ¤che": 7749,
      "ĠnatÃ¼rliche": 7750,
      "ĠHochschule": 7751,
      "herr": 7752,
      "ĠStellung": 7753,
      "tend": 7754,
      "War": 7755,
      "Ã¤usern": 7756,
      "Ã¶rderung": 7757,
      "Ġintensiv": 7758,
      "ĠDekor": 7759,
      "heil": 7760,
      "artikel": 7761,
      "ĠLudwig": 7762,
      "ĠVortrag": 7763,
      "Ġbundes": 7764,
      "selben": 7765,
      "Ġhervorragen": 7766,
      "ĠAutob": 7767,
      "zeption": 7768,
      "ĠHafen": 7769,
      "Ġbrit": 7770,
      "ĠMas": 7771,
      "werde": 7772,
      "Ġrechten": 7773,
      "ĠSollte": 7774,
      "ĠSki": 7775,
      "atch": 7776,
      "PrÃ¤": 7777,
      "ĠEinkommen": 7778,
      "Ġausgezeichnet": 7779,
      "vergleich": 7780,
      "Ã¤ure": 7781,
      "kk": 7782,
      "ĠfÃ¶rdern": 7783,
      "count": 7784,
      "osophie": 7785,
      "utsch": 7786,
      "ĠNÃ¼rn": 7787,
      "leister": 7788,
      "ĠSingles": 7789,
      "ĠNorden": 7790,
      "Ġbeit": 7791,
      "dis": 7792,
      "Ġmelden": 7793,
      "deckung": 7794,
      "bald": 7795,
      "Ġeinfacher": 7796,
      "ymnas": 7797,
      "Ġdeswegen": 7798,
      "geschlagen": 7799,
      "licherweise": 7800,
      "Ġteuer": 7801,
      "Ġliefert": 7802,
      "Ġhell": 7803,
      "Ã¶ffnung": 7804,
      "ĠTeen": 7805,
      "izieren": 7806,
      "bef": 7807,
      "ĠAR": 7808,
      "book": 7809,
      "ĠfÃ¼hlt": 7810,
      "klass": 7811,
      "Ġgehabt": 7812,
      "ii": 7813,
      "ĠHoll": 7814,
      "kle": 7815,
      "Ġaltern": 7816,
      "ĠJungs": 7817,
      "eldet": 7818,
      "enkt": 7819,
      "Ġleichte": 7820,
      "ĠAmb": 7821,
      "ĠCity": 7822,
      "Ġvorgesehen": 7823,
      "ĠIntegration": 7824,
      "ffel": 7825,
      "heimer": 7826,
      "ads": 7827,
      "Ġgelang": 7828,
      "ĠfÃ¼rs": 7829,
      "ĠgelÃ¶": 7830,
      "stern": 7831,
      "uminium": 7832,
      "85": 7833,
      "SS": 7834,
      "ĠBanken": 7835,
      "lan": 7836,
      "ronen": 7837,
      "Ihr": 7838,
      "Ġbesitzen": 7839,
      "ĠBit": 7840,
      "ĠKarriere": 7841,
      "ĠkrÃ¤f": 7842,
      "Ġmotiv": 7843,
      "ĠFan": 7844,
      "griffen": 7845,
      "Ġkap": 7846,
      "ĠTrinkwasser": 7847,
      "ĠKos": 7848,
      "ĠHÃ¶hen": 7849,
      "ĠBehÃ¶rden": 7850,
      "essourcen": 7851,
      "teur": 7852,
      "ademie": 7853,
      "Ġbegonnen": 7854,
      "ĠDating": 7855,
      "ĠReifen": 7856,
      "elche": 7857,
      "sert": 7858,
      "Ġaufmerksam": 7859,
      "ĠAnleitung": 7860,
      "Ġerstes": 7861,
      "station": 7862,
      "ĠBranchen": 7863,
      "ĠAuswirkungen": 7864,
      "ĠSomit": 7865,
      "Hand": 7866,
      "Ġvia": 7867,
      "Ġbau": 7868,
      "ĠKino": 7869,
      "Ġreichen": 7870,
      "Ġsenden": 7871,
      "ĠCal": 7872,
      "weist": 7873,
      "ĠFick": 7874,
      "ĠBrun": 7875,
      "ĠÃľberra": 7876,
      "ieur": 7877,
      "Mo": 7878,
      "ĠErklÃ¤rung": 7879,
      "ĠgeÃ¶ffnet": 7880,
      "ĠSchmuck": 7881,
      "Ġtrau": 7882,
      "ĠKenntnis": 7883,
      "\"-": 7884,
      "Ġspeziellen": 7885,
      "ĠÃ¼bernimmt": 7886,
      "ĠEbene": 7887,
      "ĠArbeitnehmer": 7888,
      "ziel": 7889,
      "Ġreden": 7890,
      "aner": 7891,
      "melden": 7892,
      "rats": 7893,
      "ĠKÃ¼r": 7894,
      "fÃ¼hrten": 7895,
      "Ġausgeschlossen": 7896,
      "ĠSchuld": 7897,
      "aktionen": 7898,
      "Ġvollen": 7899,
      "ĠschÃ¶ner": 7900,
      "dler": 7901,
      "Ġechte": 7902,
      "Ġgeschafft": 7903,
      "dete": 7904,
      "ĠSub": 7905,
      "Stand": 7906,
      "Ġhierbei": 7907,
      "ĠMedikamen": 7908,
      "kop": 7909,
      "ĠKlar": 7910,
      "reift": 7911,
      "ĠLeg": 7912,
      "ÑĢ": 7913,
      "Stud": 7914,
      "Ġmann": 7915,
      "ĠjÃ¤hrlich": 7916,
      "ĠschÃ¶nsten": 7917,
      "gerechnet": 7918,
      "Ã¤se": 7919,
      "ĠRobert": 7920,
      "stÃ¼cke": 7921,
      "Ġtesten": 7922,
      "richtet": 7923,
      "ubilÃ¤um": 7924,
      "ĠSzene": 7925,
      "terne": 7926,
      "zwei": 7927,
      "iale": 7928,
      "ĠDennoch": 7929,
      "Ġdiesmal": 7930,
      "Ġweib": 7931,
      "Ġteilnehmen": 7932,
      "endung": 7933,
      "ĠgrÃ¶ÃŁeren": 7934,
      "Ġhervorragend": 7935,
      "ĠThr": 7936,
      "enken": 7937,
      "Ġsk": 7938,
      "ĠWolfgang": 7939,
      "ĠNiveau": 7940,
      "Ġfaszin": 7941,
      "etzungen": 7942,
      "appen": 7943,
      "Ġsolltest": 7944,
      "ĠParkplatz": 7945,
      "ĠFremd": 7946,
      "verkauf": 7947,
      "ĠBestimmungen": 7948,
      "ĠGrafik": 7949,
      "DS": 7950,
      "ĠSchatten": 7951,
      "ĠSysteme": 7952,
      "kirchen": 7953,
      "lichten": 7954,
      "Ġauspro": 7955,
      "Ġsolcher": 7956,
      "ĠMethode": 7957,
      ".).": 7958,
      "Ġsichern": 7959,
      "werken": 7960,
      "Ġideen": 7961,
      "ĠerlÃ¤u": 7962,
      "ĠSens": 7963,
      "ĠObst": 7964,
      "krieg": 7965,
      "Ġoptimale": 7966,
      "EC": 7967,
      "rinzip": 7968,
      "Ġergibt": 7969,
      "bÃ¼cher": 7970,
      "onto": 7971,
      "ĠJesus": 7972,
      "Ġbekam": 7973,
      "zugs": 7974,
      "ĠBereits": 7975,
      "ĠTwitter": 7976,
      "enzt": 7977,
      "WÃ¤hrend": 7978,
      "ĠFu": 7979,
      "ye": 7980,
      "Ð½": 7981,
      "JÃ¤hrige": 7982,
      "Ġschrieb": 7983,
      "Ist": 7984,
      "ĠRum": 7985,
      "legte": 7986,
      "Ġenorm": 7987,
      "cription": 7988,
      "sicherheit": 7989,
      "Ġha": 7990,
      "gert": 7991,
      "Ġ06": 7992,
      "Ġdigitalen": 7993,
      "ĠRem": 7994,
      "ĠFertig": 7995,
      "Ġ05": 7996,
      "ĠMontage": 7997,
      "ĠKaiser": 7998,
      "ĠKlinik": 7999,
      "ĠAngel": 8000,
      "urlaub": 8001,
      "Ġfarb": 8002,
      "aupt": 8003,
      "ĠPunkten": 8004,
      "ĠVerantwortlichen": 8005,
      "las": 8006,
      "âĢľ-": 8007,
      "ministerium": 8008,
      "ĠBeschreibung": 8009,
      "loser": 8010,
      "stehenden": 8011,
      "ĠZeich": 8012,
      "Ġstren": 8013,
      "Ġbilder": 8014,
      "Ġdran": 8015,
      "ĠGeorg": 8016,
      "ĠRau": 8017,
      "Ġverletzt": 8018,
      "Ã¶lf": 8019,
      "ĠMassen": 8020,
      "onstr": 8021,
      "ĠverÃ¤ndern": 8022,
      "verbrauch": 8023,
      "ĠReife": 8024,
      "mg": 8025,
      "ĠNav": 8026,
      "igte": 8027,
      "ĠAcht": 8028,
      "sprozess": 8029,
      "Ġsichtbar": 8030,
      "Ġjeg": 8031,
      "Meine": 8032,
      "ĠWebs": 8033,
      "ĠHobby": 8034,
      "aupts": 8035,
      "ĠTatsache": 8036,
      "Ġ..": 8037,
      "Ġgingen": 8038,
      "Ġjene": 8039,
      "De": 8040,
      "falen": 8041,
      "Ġschme": 8042,
      "Sti": 8043,
      "ĠAnal": 8044,
      "ĠRing": 8045,
      "ĠIndividu": 8046,
      "Ġdesto": 8047,
      "ĠTief": 8048,
      "Ġfiel": 8049,
      "ĠHerausforderung": 8050,
      "ĠPok": 8051,
      "Ġstanden": 8052,
      "ĠLast": 8053,
      "Ġproduziert": 8054,
      "ĠAgentur": 8055,
      "Ġkeinerlei": 8056,
      "ulin": 8057,
      "Ġkrie": 8058,
      "ĠMitarbeitern": 8059,
      "freiheit": 8060,
      "temperatur": 8061,
      "Ġrelev": 8062,
      "formance": 8063,
      "ĠVorbereitung": 8064,
      "leistungs": 8065,
      "ĠRennen": 8066,
      "ĠGumm": 8067,
      "ĠmÃ¶glicherweise": 8068,
      "Ġnett": 8069,
      "Ho": 8070,
      "uschi": 8071,
      "Ġggf": 8072,
      "Ġnutzt": 8073,
      "Ġbehalten": 8074,
      "Ġstimmt": 8075,
      "Ġhielt": 8076,
      "Ġ2001": 8077,
      "ĠAusstattung": 8078,
      "anter": 8079,
      "âĢĿ,": 8080,
      "Ġpoten": 8081,
      "oppelt": 8082,
      "Ã¤tzung": 8083,
      "tÃ¤u": 8084,
      "ĠNein": 8085,
      "Ġmaximal": 8086,
      "ĠDienste": 8087,
      "Gem": 8088,
      "Ġweiterlesen": 8089,
      "ĠWachstum": 8090,
      "ba": 8091,
      "ĠOhr": 8092,
      "gra": 8093,
      "Heute": 8094,
      "Ġverbringen": 8095,
      "Ġster": 8096,
      "gefÃ¼": 8097,
      "isierte": 8098,
      "ĠVariante": 8099,
      "Ã¼ndete": 8100,
      "mess": 8101,
      "ĠUntersuchung": 8102,
      "ĠTrum": 8103,
      "eibe": 8104,
      "raÃŁe": 8105,
      "ĠPress": 8106,
      "ega": 8107,
      "Ġeingeladen": 8108,
      "Ġrad": 8109,
      "ĠFass": 8110,
      "ĠerwÃ¤hnt": 8111,
      "teten": 8112,
      "Ġansehen": 8113,
      "Ġdeutscher": 8114,
      "attet": 8115,
      "reibe": 8116,
      "Ã¼ll": 8117,
      "ĠVerlauf": 8118,
      "IR": 8119,
      "ĠBeide": 8120,
      "ĠVerbesserung": 8121,
      "Ġniemals": 8122,
      "unterricht": 8123,
      "ĠHaare": 8124,
      "Ġstattfinden": 8125,
      "ĠÃĦnderung": 8126,
      "ĠVerpack": 8127,
      "systeme": 8128,
      "ĠMuse": 8129,
      "ĠBonn": 8130,
      "Ġwusste": 8131,
      "Ġbetrieb": 8132,
      "Ġbestellt": 8133,
      "ĠBesitz": 8134,
      "Ġbetreffen": 8135,
      "Ġfreiwill": 8136,
      "Ġversehen": 8137,
      "Bo": 8138,
      "FA": 8139,
      "ĠInsgesamt": 8140,
      "ĠEinwilligung": 8141,
      "rÃ¤glich": 8142,
      "ĠBereiche": 8143,
      "Ñģ": 8144,
      "ĠHals": 8145,
      "2012": 8146,
      "Ġneuesten": 8147,
      "ĠDigital": 8148,
      "ody": 8149,
      "ids": 8150,
      "icker": 8151,
      "ĠNachw": 8152,
      "lÃ¶": 8153,
      "ĠObjekt": 8154,
      "ĠAnlass": 8155,
      "rahmen": 8156,
      "Ġvieler": 8157,
      "ĠAB": 8158,
      "ĠPaket": 8159,
      "rip": 8160,
      "Ġhierzu": 8161,
      "anisch": 8162,
      "ĠGratis": 8163,
      "Ġhoffen": 8164,
      "!\"": 8165,
      "ĠWLAN": 8166,
      "ĠUmfeld": 8167,
      "ĠSupp": 8168,
      "Ã¤ser": 8169,
      "stoÃŁ": 8170,
      "VerÃ¶ffentlicht": 8171,
      "Ġgerecht": 8172,
      "stil": 8173,
      "Ġgenauer": 8174,
      "ĠVari": 8175,
      "ĠParlament": 8176,
      "gebnisse": 8177,
      "ĠFrÃ¼hl": 8178,
      "Ġfreie": 8179,
      "uth": 8180,
      "Ã¤ub": 8181,
      "Ġrunter": 8182,
      "Ġverzichten": 8183,
      "ĠCoach": 8184,
      "produkte": 8185,
      "ĠBem": 8186,
      "Ġmeint": 8187,
      "ĠTemperaturen": 8188,
      "Em": 8189,
      "Ġstartet": 8190,
      "lÃ¶sen": 8191,
      "ritts": 8192,
      "reihe": 8193,
      "verschluss": 8194,
      "ĠEntwicklungs": 8195,
      "ĠFund": 8196,
      "96": 8197,
      "schmerzen": 8198,
      "Ġwid": 8199,
      "ĠPack": 8200,
      "Ġtra": 8201,
      "Ġ42": 8202,
      "ĠErweiter": 8203,
      "ĠGelÃ¤nde": 8204,
      "inken": 8205,
      "Ġ(âĢŀ": 8206,
      "Ġsystem": 8207,
      "ava": 8208,
      "Ġhilf": 8209,
      "ĠLuxus": 8210,
      "Ġvorge": 8211,
      "ya": 8212,
      "ĠWall": 8213,
      "ĠRang": 8214,
      "hÃ¶rigen": 8215,
      "ward": 8216,
      "gener": 8217,
      "ĠgeÃ¤ndert": 8218,
      "ĠKleidung": 8219,
      "schlagen": 8220,
      "Ġmehrfach": 8221,
      "azit": 8222,
      "Ġsteuer": 8223,
      "ĠSchritte": 8224,
      "ĠLieb": 8225,
      "regel": 8226,
      "empl": 8227,
      "Ġnachfol": 8228,
      "ichteten": 8229,
      "ĠSei": 8230,
      "ĠAL": 8231,
      "Ġverdient": 8232,
      "fektion": 8233,
      "ulieren": 8234,
      "ĠBereit": 8235,
      "Ġfeiern": 8236,
      "euchtigkeit": 8237,
      "Ġchar": 8238,
      "ĠBig": 8239,
      "Ġfa": 8240,
      "ĠFehl": 8241,
      "ĠgeprÃ¼": 8242,
      "Ġ$": 8243,
      "hÃ¤ngig": 8244,
      "Ġbegleiten": 8245,
      "ĠGarantie": 8246,
      "ĠHeid": 8247,
      "ĠHen": 8248,
      "ĠHistor": 8249,
      "OC": 8250,
      "gi": 8251,
      "ĠOne": 8252,
      "ĠBein": 8253,
      "Jetzt": 8254,
      "ĠhÃ¶here": 8255,
      "immern": 8256,
      "rÃ¼stung": 8257,
      "Ġeingerichtet": 8258,
      "runde": 8259,
      "ĠmÃ¶gliche": 8260,
      "Ġdunkel": 8261,
      "Ġles": 8262,
      "ĠSwinger": 8263,
      "Ġvollkommen": 8264,
      "weiten": 8265,
      "ĠUrheber": 8266,
      "ĠFlex": 8267,
      "Ġabgesch": 8268,
      "ĠCam": 8269,
      "ĠAnn": 8270,
      "Ġfanden": 8271,
      "rÃ¤t": 8272,
      "Ġsteigt": 8273,
      "ĠSammlung": 8274,
      "ĠschÃ¶nes": 8275,
      "gemÃ¤ÃŁ": 8276,
      "ĠVerteidig": 8277,
      "folger": 8278,
      "ĠnatÃ¼rlichen": 8279,
      "Ġthis": 8280,
      "itis": 8281,
      ";;;;;;;;": 8282,
      "ĠFischer": 8283,
      "ĠAbw": 8284,
      "Ã¶d": 8285,
      "ĠDollar": 8286,
      "hÃ¤ltnisse": 8287,
      "ĠSem": 8288,
      "ĠWirk": 8289,
      "Form": 8290,
      "behÃ¶rde": 8291,
      "kehrt": 8292,
      "ĠMittelpunkt": 8293,
      "Ã¼rgen": 8294,
      "ĠTurnier": 8295,
      "ĠschlieÃŁen": 8296,
      "iner": 8297,
      "wein": 8298,
      "uel": 8299,
      "ĠKÃ¼ndig": 8300,
      "Ġversteht": 8301,
      "Ġreal": 8302,
      "ĠAns": 8303,
      "ĠDist": 8304,
      "ony": 8305,
      "ĠfÃ¤hrt": 8306,
      "ĠSchÃ¼lerinnen": 8307,
      "ĠHaushalt": 8308,
      "projekt": 8309,
      "ĠHaust": 8310,
      "mungs": 8311,
      "Ġberechtigt": 8312,
      "Ġdurchschnitt": 8313,
      "nitz": 8314,
      "Ġfreut": 8315,
      "handlungen": 8316,
      "Ġweite": 8317,
      "ĠHÃ¶ch": 8318,
      "ĠWohnungs": 8319,
      "ĠEck": 8320,
      "ĠWik": 8321,
      "Daten": 8322,
      "ĠInstallation": 8323,
      "Ġkomplette": 8324,
      "ico": 8325,
      "ĠViertel": 8326,
      "Ġeigener": 8327,
      "keln": 8328,
      "Ġzust": 8329,
      "gerichts": 8330,
      "ĠFrÃ¼hjahr": 8331,
      "ĠKla": 8332,
      "Ġnormalen": 8333,
      "ĠLat": 8334,
      "problem": 8335,
      "ee": 8336,
      "ĠAufwand": 8337,
      "iens": 8338,
      "Ġmaxim": 8339,
      "ĠEntscheidungen": 8340,
      "ĠverÃ¶ffentlich": 8341,
      "dach": 8342,
      "ebel": 8343,
      "lappt": 8344,
      "ziger": 8345,
      "ĠBehand": 8346,
      "Welt": 8347,
      "ĠVorstellung": 8348,
      "ĠQuellen": 8349,
      "ĠPremium": 8350,
      "DE": 8351,
      "fernung": 8352,
      "ĠDavid": 8353,
      "bring": 8354,
      "gÃ¤nglich": 8355,
      "ĠKreativ": 8356,
      "ĠTasche": 8357,
      "ĠGru": 8358,
      "ĠAnwendungen": 8359,
      "ĠSold": 8360,
      "Ġumgesetzt": 8361,
      "west": 8362,
      "Dann": 8363,
      "Ġunmittelbar": 8364,
      "stark": 8365,
      "ĠHaftung": 8366,
      "freien": 8367,
      "ĠHabe": 8368,
      "Ġdargestellt": 8369,
      "Ã¤rten": 8370,
      "76": 8371,
      "mat": 8372,
      "ĠAussicht": 8373,
      "Ġsitzt": 8374,
      "Ġdritte": 8375,
      "Ã¤chs": 8376,
      "tor": 8377,
      "ave": 8378,
      "Ġauftreten": 8379,
      "ĠWin": 8380,
      "pekt": 8381,
      "ĠGrenze": 8382,
      "ĠMak": 8383,
      "ĠSchok": 8384,
      "ĠfrÃ¼hen": 8385,
      "stÃ¤tte": 8386,
      "Ã¼tte": 8387,
      "ĠprÃ¼fen": 8388,
      "ĠErgÃ¤n": 8389,
      "ucken": 8390,
      "Ġkomme": 8391,
      "Ġverstanden": 8392,
      "ĠhÃ¶chste": 8393,
      "ration": 8394,
      "getragen": 8395,
      "ĠKlang": 8396,
      "Ġrichtet": 8397,
      "kirche": 8398,
      "ĠWart": 8399,
      "ĠBachelor": 8400,
      "Gro": 8401,
      "ella": 8402,
      "ĠEgal": 8403,
      "etaill": 8404,
      "HH": 8405,
      "Ġlog": 8406,
      "ahrungs": 8407,
      "code": 8408,
      "emit": 8409,
      "stren": 8410,
      "Ġerm": 8411,
      "ĠStimmen": 8412,
      "Ġhaupts": 8413,
      "becken": 8414,
      "Ġdigitale": 8415,
      "uhren": 8416,
      "oÃŁ": 8417,
      "ĠZahlung": 8418,
      "Ã¶pfe": 8419,
      "ĠerzÃ¤hlen": 8420,
      "ga": 8421,
      "ĠKratz": 8422,
      "Ġyou": 8423,
      "ĠEingang": 8424,
      "Bitte": 8425,
      "ĠMassage": 8426,
      "Ġhandeln": 8427,
      "Ġbeliebt": 8428,
      "ieden": 8429,
      "DP": 8430,
      "Ġsobald": 8431,
      "ĠGrenz": 8432,
      "Ġexklus": 8433,
      "ĠAlexander": 8434,
      "hes": 8435,
      "ove": 8436,
      "Ã¼rzt": 8437,
      "gendes": 8438,
      "ĠGerichts": 8439,
      "ĠCloud": 8440,
      "ĠEmail": 8441,
      "Ġwunderbar": 8442,
      "ehren": 8443,
      "ĠKuchen": 8444,
      "utton": 8445,
      "ĠStrategie": 8446,
      "Ġweb": 8447,
      "ĠOptim": 8448,
      "ĠAussage": 8449,
      "Team": 8450,
      "Ġanspruchs": 8451,
      "ĠLeidenschaft": 8452,
      "ĠBeine": 8453,
      "Ġstammen": 8454,
      "otheke": 8455,
      "ĠVir": 8456,
      "ĠObwohl": 8457,
      "indlich": 8458,
      "ĠlÃ¤dt": 8459,
      "Ġvermitteln": 8460,
      "stÃ¤ndigkeit": 8461,
      "ĠSenioren": 8462,
      "ĠMotorrad": 8463,
      "Ġgebraucht": 8464,
      "ĠSÃ¤nger": 8465,
      "ĠGemeinden": 8466,
      "ĠSchwimm": 8467,
      "ĠLohn": 8468,
      "Ġdurfte": 8469,
      "Ġtop": 8470,
      "ĠKriegs": 8471,
      "ĠAtem": 8472,
      "ĠNÃ¤ch": 8473,
      "ĠGlob": 8474,
      "Ġholz": 8475,
      "Ġkauf": 8476,
      "ĠDVD": 8477,
      "Ġorien": 8478,
      "bil": 8479,
      "ĠRuf": 8480,
      "Ġklingt": 8481,
      "ĠgelÃ¶scht": 8482,
      "ĠFilter": 8483,
      "Ġmoment": 8484,
      "urst": 8485,
      "On": 8486,
      "ools": 8487,
      "ĠGeschwindigkeit": 8488,
      "ĠTabellen": 8489,
      "Ġverbinden": 8490,
      "Ġbegeg": 8491,
      "ĠAluminium": 8492,
      "ifferenz": 8493,
      "tikeln": 8494,
      "Ġgarten": 8495,
      "ĠSchlei": 8496,
      "flex": 8497,
      "Inter": 8498,
      "Ã¶rsen": 8499,
      "azz": 8500,
      "nÃ¼": 8501,
      "pern": 8502,
      "Ġsammeln": 8503,
      "ĠhÃ¶rt": 8504,
      "Ġstammt": 8505,
      "ĠGrÃ¼nen": 8506,
      "ĠzukÃ¼nf": 8507,
      "Ġnied": 8508,
      "Ġmitten": 8509,
      "strom": 8510,
      "nd": 8511,
      "Ġhochwertigen": 8512,
      "ĠDatum": 8513,
      "Seite": 8514,
      "ĠWesen": 8515,
      "haf": 8516,
      "ĠzusÃ¤tzlichen": 8517,
      "mas": 8518,
      "Ġchrist": 8519,
      "Ġlei": 8520,
      "afÃ©": 8521,
      "ĠGewerbe": 8522,
      "ĠHÃ¤ndler": 8523,
      "ĠVerlust": 8524,
      "Ġabsolv": 8525,
      "ĠBoot": 8526,
      "ikat": 8527,
      "ĠInternational": 8528,
      "Ġplanen": 8529,
      "ĠRet": 8530,
      "ĠKompetenz": 8531,
      "Ġeingestellt": 8532,
      "kÃ¶rper": 8533,
      "ĠKle": 8534,
      "Ġmar": 8535,
      "wÃ¤sche": 8536,
      "Ġgelangen": 8537,
      "ĠspÃ¤t": 8538,
      "Ġberichten": 8539,
      "kÃ¼nfte": 8540,
      "Ġnochmals": 8541,
      "gemeinde": 8542,
      "Ġgespannt": 8543,
      "ĠNik": 8544,
      "Ġerweitert": 8545,
      "Ġverbr": 8546,
      "Ġempfohlen": 8547,
      "ĠErwart": 8548,
      "Ġwirk": 8549,
      "ĠZentral": 8550,
      "ĠPause": 8551,
      "Ġkeines": 8552,
      "Ġvertrau": 8553,
      "astrop": 8554,
      "anzler": 8555,
      "ĠZusÃ¤tzlich": 8556,
      "Ġschlimm": 8557,
      "Ġ600": 8558,
      "Ġbisherigen": 8559,
      "aken": 8560,
      "ĠSympt": 8561,
      "appe": 8562,
      "ĠEinstellung": 8563,
      "ĠspÃ¤testens": 8564,
      "rost": 8565,
      "andt": 8566,
      "ney": 8567,
      "ĠElemente": 8568,
      "ĠDiagn": 8569,
      "jahres": 8570,
      "ramm": 8571,
      "Ġbuchen": 8572,
      "ĠPen": 8573,
      "fÃ¼hrungen": 8574,
      "ĠAnsprech": 8575,
      "ĠErnst": 8576,
      "neu": 8577,
      "Ġco": 8578,
      "ĠSchwester": 8579,
      "bereiche": 8580,
      "Ġbestens": 8581,
      "ellschaften": 8582,
      "Ġetabl": 8583,
      "mag": 8584,
      "ĠInhalts": 8585,
      "kÃ¶": 8586,
      "Ġjur": 8587,
      "ĠZustimmung": 8588,
      "ĠWorld": 8589,
      "Fahr": 8590,
      "aktieren": 8591,
      "ĠIII": 8592,
      "position": 8593,
      "ley": 8594,
      "Ġgehol": 8595,
      "Dar": 8596,
      "ush": 8597,
      "Ġbestimmen": 8598,
      "Ġschicken": 8599,
      "ĠDisplay": 8600,
      "tags": 8601,
      "Ġthem": 8602,
      "Ã¶hnen": 8603,
      "Ġproblemlos": 8604,
      "ĠEier": 8605,
      "Ġvirt": 8606,
      "ĠAufgrund": 8607,
      "ilber": 8608,
      "Ġev": 8609,
      "ĠSteu": 8610,
      "stunden": 8611,
      "Ġwirksam": 8612,
      "ĠWirklich": 8613,
      "Ġgesundheit": 8614,
      "ĠKalender": 8615,
      "srecht": 8616,
      "elbe": 8617,
      "ĠReparatur": 8618,
      "ĠArbeiter": 8619,
      "stem": 8620,
      "bilden": 8621,
      "ĠReihen": 8622,
      "heben": 8623,
      "ĠDortmund": 8624,
      "ĠTee": 8625,
      "Ġbetrieben": 8626,
      "eutr": 8627,
      "ĠArchiv": 8628,
      "ĠVogel": 8629,
      "oter": 8630,
      "ĠLandwirtschaft": 8631,
      "ĠArchite": 8632,
      "hotel": 8633,
      "entwick": 8634,
      "biert": 8635,
      "mmern": 8636,
      "spunkt": 8637,
      "board": 8638,
      "ision": 8639,
      "Ġbeobachten": 8640,
      "ĠSongs": 8641,
      "ĠWiener": 8642,
      "Ġli": 8643,
      "ump": 8644,
      "ĠZauber": 8645,
      "ĠAuflage": 8646,
      "Jahr": 8647,
      "Ã¤rt": 8648,
      "ĠHell": 8649,
      "Ġerfolgreiche": 8650,
      "ĠMÃ¼nster": 8651,
      "ĠOster": 8652,
      "ĠBeob": 8653,
      "Ġleistungs": 8654,
      "Ã¼cksichtigt": 8655,
      "ĠWesten": 8656,
      "Ġpositive": 8657,
      "ĠWurz": 8658,
      "Ġbehandeln": 8659,
      "ĠMr": 8660,
      "ĠJohannes": 8661,
      "Ġbetrachtet": 8662,
      "ĠUni": 8663,
      "sdorf": 8664,
      "ĠBekannt": 8665,
      "ĠMilitÃ¤r": 8666,
      "Prof": 8667,
      "Ã¤hne": 8668,
      "ĠFutter": 8669,
      "schlÃ¼sse": 8670,
      "stands": 8671,
      "TER": 8672,
      "ĠAv": 8673,
      "ĠPferde": 8674,
      "ĠGenau": 8675,
      "ĠBearbeitung": 8676,
      "skon": 8677,
      "ĠTom": 8678,
      "Ġpassieren": 8679,
      "Ġumge": 8680,
      "ĠSÃ¼den": 8681,
      "abetes": 8682,
      "Ġserv": 8683,
      "ĠAusfÃ¼hrung": 8684,
      "verarbeitung": 8685,
      "oir": 8686,
      "Ġschweren": 8687,
      "ĠAusbildungs": 8688,
      "Ġmach": 8689,
      "ĠKarls": 8690,
      "ĠAktionen": 8691,
      "syl": 8692,
      "stÃ¤tten": 8693,
      "otte": 8694,
      "ĠZivil": 8695,
      "ĠVal": 8696,
      "Ġlief": 8697,
      "ĠGewÃ¤hr": 8698,
      "aa": 8699,
      "ierer": 8700,
      "denk": 8701,
      "Ġbeinhaltet": 8702,
      "ĠWellness": 8703,
      "ental": 8704,
      "GH": 8705,
      "analyse": 8706,
      "ĠErinnerung": 8707,
      "chester": 8708,
      "ĠTrÃ¤ger": 8709,
      "pla": 8710,
      "ĠhÃ¶chsten": 8711,
      "Ġbun": 8712,
      "kord": 8713,
      "ĠKindes": 8714,
      "formation": 8715,
      "horn": 8716,
      "ĠHauptstadt": 8717,
      "ĠhÃ¼b": 8718,
      "Ġaufgebaut": 8719,
      "Ġgearbeitet": 8720,
      "luft": 8721,
      "ieht": 8722,
      "Ġdiverse": 8723,
      "ĠRessourcen": 8724,
      "serie": 8725,
      "Ġhinsichtlich": 8726,
      "Â¶": 8727,
      "ĠBraun": 8728,
      "GE": 8729,
      "UM": 8730,
      "ĠStudio": 8731,
      "hÃ¤nge": 8732,
      "ĠSerien": 8733,
      "ĠIsrael": 8734,
      "allel": 8735,
      "hor": 8736,
      "ĠGab": 8737,
      "auff": 8738,
      "lub": 8739,
      "komm": 8740,
      "ĠLiebes": 8741,
      "recken": 8742,
      "ĠKost": 8743,
      "Berlin": 8744,
      "sper": 8745,
      "ĠFormat": 8746,
      "ĠAst": 8747,
      "Ġkenne": 8748,
      "Haus": 8749,
      "ĠkÃ¼nftig": 8750,
      "ĠVerbr": 8751,
      "ĠKleider": 8752,
      "bildungen": 8753,
      "aft": 8754,
      "ĠQualitÃ¤ts": 8755,
      "Ġirgendwo": 8756,
      "werfen": 8757,
      "schritt": 8758,
      "utzer": 8759,
      "echsl": 8760,
      "rÃ¤nken": 8761,
      "reinigung": 8762,
      "spezif": 8763,
      "97": 8764,
      "Ġerfolgreichen": 8765,
      "ĠFluss": 8766,
      "ĠSchmid": 8767,
      "ĠInitiative": 8768,
      "ĠRich": 8769,
      "ĠNeues": 8770,
      "Ġgra": 8771,
      "ypen": 8772,
      "Ġverhindert": 8773,
      "Ġverdienen": 8774,
      "ĠVern": 8775,
      "decke": 8776,
      "Ġverlangen": 8777,
      "scheidung": 8778,
      "ĠgewÃ¤hrleisten": 8779,
      "2011": 8780,
      "ĠOlymp": 8781,
      "ĠIdent": 8782,
      "ĠHem": 8783,
      "work": 8784,
      "KE": 8785,
      "Ġna": 8786,
      "ilfen": 8787,
      "ĠgrÃ¼": 8788,
      "Ġentspann": 8789,
      "ĠAnsprÃ¼che": 8790,
      "ĠHamburger": 8791,
      "Ġfunktionieren": 8792,
      "ographie": 8793,
      "âĢ¢âĢ¢": 8794,
      "Ġ00": 8795,
      "amilie": 8796,
      "ĠSieger": 8797,
      "Ġmy": 8798,
      "anw": 8799,
      "ĠRealitÃ¤t": 8800,
      "ĠBewertungen": 8801,
      "ĠAfr": 8802,
      "Ġsexy": 8803,
      "sung": 8804,
      "bro": 8805,
      "stab": 8806,
      "All": 8807,
      "Ġbeschlossen": 8808,
      "ĠTÃ¼rkei": 8809,
      "ĠKriterien": 8810,
      "Ġvergeben": 8811,
      "vermittlung": 8812,
      "Lie": 8813,
      "kompl": 8814,
      "ĠAngabe": 8815,
      "ata": 8816,
      "verhalten": 8817,
      "ĠGeschlecht": 8818,
      "ary": 8819,
      "IA": 8820,
      "losigkeit": 8821,
      "stÃ¤d": 8822,
      "dige": 8823,
      "Ġnennt": 8824,
      "ĠOutdoor": 8825,
      "ĠEinstellungen": 8826,
      "Nachdem": 8827,
      "asste": 8828,
      "Ġstil": 8829,
      "ĠInfrastruktur": 8830,
      "klar": 8831,
      "Ġcon": 8832,
      "auben": 8833,
      "ĠEhr": 8834,
      "ĠNRW": 8835,
      "WÃ¼rt": 8836,
      "ĠhierfÃ¼r": 8837,
      "Ġsteckt": 8838,
      "resse": 8839,
      "otheken": 8840,
      "Ã¶ne": 8841,
      "Ã³": 8842,
      "pers": 8843,
      "ĠHÃ¤nden": 8844,
      "Viele": 8845,
      "Ã¨": 8846,
      "Funktion": 8847,
      "umenten": 8848,
      "rages": 8849,
      "ĠtÃ¼rk": 8850,
      "handlung": 8851,
      "ĠFried": 8852,
      "ĠInn": 8853,
      "Ġkostenlosen": 8854,
      "gerecht": 8855,
      "Book": 8856,
      "Ġbitten": 8857,
      "ĠAdvent": 8858,
      "anner": 8859,
      "ĠKam": 8860,
      "ĠCasinos": 8861,
      "Leist": 8862,
      "fred": 8863,
      "Ġ44": 8864,
      "Ã¼hrung": 8865,
      "gent": 8866,
      "ĠWohnungen": 8867,
      "Ġdeutschland": 8868,
      "ĠVersorgung": 8869,
      "ĠVerpflicht": 8870,
      "ham": 8871,
      "Ġsolange": 8872,
      "Ġapp": 8873,
      "ula": 8874,
      "arl": 8875,
      "bauten": 8876,
      "Ġmeinte": 8877,
      "ĠApps": 8878,
      "ĠMischung": 8879,
      "irr": 8880,
      "BN": 8881,
      "ĠNÃ¼rnberg": 8882,
      "ĠKirch": 8883,
      "ki": 8884,
      "ĠgenÃ¼gend": 8885,
      "ucher": 8886,
      "Ġalter": 8887,
      "kern": 8888,
      "igungen": 8889,
      "ĠBreite": 8890,
      "Nr": 8891,
      "Ġdamal": 8892,
      "schech": 8893,
      "ĠDDR": 8894,
      "ĠRohr": 8895,
      "wenn": 8896,
      "ĠdrauÃŁen": 8897,
      "zeits": 8898,
      "Ġechten": 8899,
      "strich": 8900,
      "Ġdating": 8901,
      "ĠBeispiele": 8902,
      "Ġschwarze": 8903,
      "Ġveranst": 8904,
      "ãĤ": 8905,
      "ĠStartseite": 8906,
      "deten": 8907,
      "frauen": 8908,
      "Ð¾Ð": 8909,
      "Ġjapan": 8910,
      "ĠAudio": 8911,
      "Ġveran": 8912,
      "ichtigung": 8913,
      "ĠIslam": 8914,
      "ÃŃ": 8915,
      "Ġoffensichtlich": 8916,
      "polit": 8917,
      "produktion": 8918,
      "ĠEinschrÃ¤n": 8919,
      "ĠWilhelm": 8920,
      "anda": 8921,
      "zeichnete": 8922,
      "ĠhÃ¶heren": 8923,
      "ĠLeicht": 8924,
      "wid": 8925,
      "ĠVan": 8926,
      "Ġauss": 8927,
      "ĠEuropas": 8928,
      "ĠServices": 8929,
      "Ġreduziert": 8930,
      "ĠPa": 8931,
      "Ġnotwendigen": 8932,
      "ĠGriechen": 8933,
      "Ġvorzu": 8934,
      "ĠBranche": 8935,
      "ĠHaben": 8936,
      "eigern": 8937,
      "ĠhauptsÃ¤chlich": 8938,
      "WÃ¼rttemberg": 8939,
      "papier": 8940,
      "anbieter": 8941,
      "Ġstrate": 8942,
      "ĠStell": 8943,
      "ampagne": 8944,
      "Damit": 8945,
      "paar": 8946,
      "Ġbezahlt": 8947,
      "ĠSchweden": 8948,
      "Ġersetzt": 8949,
      "SC": 8950,
      "ĠFrist": 8951,
      "swÃ¼rdig": 8952,
      "Ġgelernt": 8953,
      "ĠFeder": 8954,
      "ĠVerÃ¶ffentlichung": 8955,
      "Ġunterscheiden": 8956,
      "ĠSchalt": 8957,
      "Ã¼hen": 8958,
      "rÃ¼m": 8959,
      "ĠPersÃ¶nlichkeit": 8960,
      "Ġstat": 8961,
      "ĠKapit": 8962,
      "Ã¤ge": 8963,
      "?âĢľ": 8964,
      "ĠFur": 8965,
      "ĠAnzeigen": 8966,
      "ĠIll": 8967,
      "Ġfreundlich": 8968,
      "Ġgesprochen": 8969,
      "ĠFÃ¤lle": 8970,
      "ĠAnhÃ¤nger": 8971,
      "Ġspezif": 8972,
      ",...": 8973,
      "felder": 8974,
      "ĠSchmerz": 8975,
      "ĠOptionen": 8976,
      "Ġreife": 8977,
      "Ġ02": 8978,
      ".),": 8979,
      "quenz": 8980,
      "ĠBewegungs": 8981,
      "Ġvermittelt": 8982,
      "wÃ¼n": 8983,
      "ĠMerkel": 8984,
      "BA": 8985,
      "Ġbraun": 8986,
      "insel": 8987,
      "ĠKÃ¶": 8988,
      "bte": 8989,
      "Ġ04": 8990,
      "ĠSchuh": 8991,
      "Wo": 8992,
      "ĠRÃ¤ume": 8993,
      "Ġideale": 8994,
      "abschluss": 8995,
      "astian": 8996,
      "ĠKloster": 8997,
      "Ġter": 8998,
      "Ġzunehmend": 8999,
      "Ste": 9000,
      "Ġangepasst": 9001,
      "ĠInstitu": 9002,
      "Ġroman": 9003,
      "Ġangenommen": 9004,
      "wissenschaften": 9005,
      "ĠManager": 9006,
      "Viel": 9007,
      "ĠOsten": 9008,
      "fÃ¤hig": 9009,
      "ĠAllein": 9010,
      "ĠIng": 9011,
      "Ġgelingt": 9012,
      "ĠNeuer": 9013,
      "ĠHab": 9014,
      "ĠFal": 9015,
      "ĠBMW": 9016,
      "Ġseid": 9017,
      "amera": 9018,
      "Ġkombiniert": 9019,
      "ĠPlast": 9020,
      "Ġgesund": 9021,
      "Ġsepar": 9022,
      "sachsen": 9023,
      "informationen": 9024,
      "Ġklassische": 9025,
      "ĠGemeinsam": 9026,
      "hu": 9027,
      "behalten": 9028,
      "glieder": 9029,
      "Ġeinzigen": 9030,
      "zz": 9031,
      "58": 9032,
      "Bahn": 9033,
      "Ġmachten": 9034,
      "Ġemotion": 9035,
      "lings": 9036,
      "ĠStich": 9037,
      "Ġgewisse": 9038,
      "Ġspielte": 9039,
      "beschichtung": 9040,
      "ĠGegenteil": 9041,
      "ĠÃ¼bert": 9042,
      "Ġherz": 9043,
      "ĠBeziehungen": 9044,
      "merk": 9045,
      "oÃŁen": 9046,
      "ĠErz": 9047,
      "Ġentstand": 9048,
      "wachung": 9049,
      "Ġehrlich": 9050,
      "ĠBeratungs": 9051,
      "Ġzug": 9052,
      "fas": 9053,
      "Ġselben": 9054,
      "Ġweshalb": 9055,
      "ĠBenz": 9056,
      "iversitÃ¤t": 9057,
      "Ġorganisiert": 9058,
      "ĠFlÃ¼chtlinge": 9059,
      "Ġeig": 9060,
      "Ġbeteiligt": 9061,
      "ĠTodes": 9062,
      "obald": 9063,
      "orfer": 9064,
      "ĠAdr": 9065,
      "ĠEcke": 9066,
      "ĠAbstand": 9067,
      "ĠDenken": 9068,
      "aumen": 9069,
      "Ġmil": 9070,
      "ĠPlug": 9071,
      "tiere": 9072,
      "schalten": 9073,
      "Ġstruktur": 9074,
      "ĠPri": 9075,
      "ĠHÃ¤user": 9076,
      "log": 9077,
      "Ġspannende": 9078,
      "ĠAccess": 9079,
      "Ġverbessert": 9080,
      "ĠLein": 9081,
      "ischof": 9082,
      "Ġbetrifft": 9083,
      "bleiben": 9084,
      "Sel": 9085,
      "Ġgesamm": 9086,
      "dustr": 9087,
      "ĠBÃ¤": 9088,
      "digung": 9089,
      "ĠAspekte": 9090,
      "Ġvideo": 9091,
      "Ã¼ckt": 9092,
      "ĠBeweis": 9093,
      "ĠGÃ¤sten": 9094,
      "ĠAnsicht": 9095,
      "ĠMÃ¤nnern": 9096,
      "verhÃ¤ltnis": 9097,
      "ĠKlÃ¤ger": 9098,
      "Ġeindeutig": 9099,
      "ĠÃ¼berprÃ¼fen": 9100,
      "ĠSchÃ¶nheit": 9101,
      "Ġperson": 9102,
      "ĠEdition": 9103,
      "Ġlinken": 9104,
      "echslungs": 9105,
      "Ġeventuell": 9106,
      "ĠMusiker": 9107,
      "ronik": 9108,
      "Ġhef": 9109,
      "Ġchines": 9110,
      "Ġvergleichen": 9111,
      "Ġspannend": 9112,
      "Ġgefahren": 9113,
      "sendung": 9114,
      "ausschuss": 9115,
      "ĠErfÃ¼llung": 9116,
      "ĠTerror": 9117,
      "offer": 9118,
      "ĠKandid": 9119,
      "une": 9120,
      "ĠStÃ¤dten": 9121,
      "Ġdenk": 9122,
      "ĠBeschwerde": 9123,
      "ĠgÃ¼nstigen": 9124,
      "ĠLade": 9125,
      "beginn": 9126,
      "fÃ¶r": 9127,
      "ĠMasse": 9128,
      "ĠEinheit": 9129,
      "ĠHalt": 9130,
      "ING": 9131,
      "kar": 9132,
      "rans": 9133,
      "rÃ¤der": 9134,
      "gebnis": 9135,
      "Ġeinsetzen": 9136,
      "ĠStatt": 9137,
      "Ã¤tzt": 9138,
      "56": 9139,
      "Service": 9140,
      "ĠZeug": 9141,
      "Ġghostwriter": 9142,
      "ĠmÃ¶chtest": 9143,
      "ĠSpenden": 9144,
      "geschoss": 9145,
      "ĠCode": 9146,
      "ologisch": 9147,
      "aters": 9148,
      "Ġgeboten": 9149,
      "\":": 9150,
      "ĠGitar": 9151,
      "Ġordentlich": 9152,
      "ĠMuskel": 9153,
      "Ġangekommen": 9154,
      "Ġbeantworten": 9155,
      "stufe": 9156,
      "ape": 9157,
      "schlossen": 9158,
      "ĠBestandteil": 9159,
      "ĠMom": 9160,
      "aps": 9161,
      "lim": 9162,
      "ĠFigur": 9163,
      "aktor": 9164,
      "Ġ46": 9165,
      "ĠFlÃ¤chen": 9166,
      "Ġvari": 9167,
      "ĠAustr": 9168,
      "HE": 9169,
      "schend": 9170,
      "gigen": 9171,
      "ĠErl": 9172,
      "ĠmÃ¤nn": 9173,
      "Ġsiehe": 9174,
      "Ġanalys": 9175,
      "Ã¼bung": 9176,
      "brit": 9177,
      "ĠZuge": 9178,
      "ĠZun": 9179,
      "ĠGlÃ¼cks": 9180,
      "ĠMc": 9181,
      "pat": 9182,
      "ĠWorten": 9183,
      "ĠMaÃŁe": 9184,
      "ĠKG": 9185,
      "Ġdauern": 9186,
      "ĠDusche": 9187,
      "sprogramm": 9188,
      "edia": 9189,
      "Ġstimm": 9190,
      "ĠMehrheit": 9191,
      "fur": 9192,
      "kum": 9193,
      "Ġkalt": 9194,
      "zene": 9195,
      "ĠTarif": 9196,
      "lÃ¤sslich": 9197,
      "Sehr": 9198,
      "Ġhoff": 9199,
      "ĠBundesregierung": 9200,
      "ĠKonkurrenz": 9201,
      "strÃ¤ger": 9202,
      "Ã¤hrungs": 9203,
      "ĠErschein": 9204,
      "ĠendgÃ¼l": 9205,
      "ION": 9206,
      "Ġgleicher": 9207,
      "ckte": 9208,
      "ĠberÃ¼cksichtigt": 9209,
      "ĠbezÃ¼glich": 9210,
      "ãĢ": 9211,
      "spolitik": 9212,
      "Ġ49": 9213,
      "âĢľ)": 9214,
      "Ã¤mpfer": 9215,
      "ĠWerkzeug": 9216,
      "nur": 9217,
      "Ġgeblieben": 9218,
      "Ġoftmals": 9219,
      "Ġbar": 9220,
      "ĠHot": 9221,
      "ĠkÃ¼nstler": 9222,
      "ĠAndere": 9223,
      "ĠUmstÃ¤nden": 9224,
      "Ġberlin": 9225,
      "zeichnungen": 9226,
      "Ġsw": 9227,
      "leun": 9228,
      "Best": 9229,
      "Ã¤b": 9230,
      "Ġsub": 9231,
      "grenzen": 9232,
      "ĠSolar": 9233,
      "ĠHilfs": 9234,
      "Ã¶m": 9235,
      "ĠzwÃ¶lf": 9236,
      "act": 9237,
      "Ġdenkt": 9238,
      "ĠOrte": 9239,
      "ĠÃ¶k": 9240,
      "ĠkÃ¤mpfen": 9241,
      "ĠVorschriften": 9242,
      "wohnungen": 9243,
      "Ã¶ten": 9244,
      "Ġnerv": 9245,
      "ĠBlatt": 9246,
      "Ġverschiedener": 9247,
      "hauses": 9248,
      "ĠSC": 9249,
      "webe": 9250,
      "ĠabhÃ¤ngig": 9251,
      "ĠMeld": 9252,
      "zone": 9253,
      "ouren": 9254,
      "Ġglaub": 9255,
      "ĠZin": 9256,
      "Ġbrauch": 9257,
      "ĠPrivate": 9258,
      "ĠVorgehen": 9259,
      "ologen": 9260,
      "ĠZutaten": 9261,
      "ettbewerb": 9262,
      "Ġgewissen": 9263,
      "Ġdis": 9264,
      "region": 9265,
      "Ġfestgestellt": 9266,
[...]
