{
  "version": "1.0",
  "truncation": null,
  "padding": null,
  "added_tokens": [
    {
      "id": 0,
      "content": "<|endoftext|>",
      "single_word": false,
      "lstrip": false,
      "rstrip": false,
      "normalized": false,
      "special": true
    },
    {
      "id": 1,
      "content": "<|padding|>",
      "single_word": false,
      "lstrip": false,
      "rstrip": false,
      "normalized": false,
      "special": true
    }
  ],
  "normalizer": {
    "type": "NFKC"
  },
  "pre_tokenizer": {
    "type": "ByteLevel",
    "add_prefix_space": true,
    "trim_offsets": true,
    "use_regex": true
  },
  "post_processor": {
    "type": "ByteLevel",
    "add_prefix_space": true,
    "trim_offsets": true,
    "use_regex": true
  },
  "decoder": {
    "type": "ByteLevel",
    "add_prefix_space": true,
    "trim_offsets": true,
    "use_regex": true
  },
  "model": {
    "type": "BPE",
    "dropout": null,
    "unk_token": null,
    "continuing_subword_prefix": null,
    "end_of_word_suffix": null,
    "fuse_unk": false,
    "byte_fallback": false,
    "vocab": {
      "<|endoftext|>": 0,
      "<|padding|>": 1,
      "!": 2,
      "\"": 3,
      "#": 4,
      "$": 5,
      "%": 6,
      "&": 7,
      "'": 8,
      "(": 9,
      ")": 10,
      "*": 11,
      "+": 12,
      ",": 13,
      "-": 14,
      ".": 15,
      "/": 16,
      "0": 17,
      "1": 18,
      "2": 19,
      "3": 20,
      "4": 21,
      "5": 22,
      "6": 23,
      "7": 24,
      "8": 25,
      "9": 26,
      ":": 27,
      ";": 28,
      "<": 29,
      "=": 30,
      ">": 31,
      "?": 32,
      "@": 33,
      "A": 34,
      "B": 35,
      "C": 36,
      "D": 37,
      "E": 38,
      "F": 39,
      "G": 40,
      "H": 41,
      "I": 42,
      "J": 43,
      "K": 44,
      "L": 45,
      "M": 46,
      "N": 47,
      "O": 48,
      "P": 49,
      "Q": 50,
      "R": 51,
      "S": 52,
      "T": 53,
      "U": 54,
      "V": 55,
      "W": 56,
      "X": 57,
      "Y": 58,
      "Z": 59,
      "[": 60,
      "\\": 61,
      "]": 62,
      "^": 63,
      "_": 64,
      "`": 65,
      "a": 66,
      "b": 67,
      "c": 68,
      "d": 69,
      "e": 70,
      "f": 71,
      "g": 72,
      "h": 73,
      "i": 74,
      "j": 75,
      "k": 76,
      "l": 77,
      "m": 78,
      "n": 79,
      "o": 80,
      "p": 81,
      "q": 82,
      "r": 83,
      "s": 84,
      "t": 85,
      "u": 86,
      "v": 87,
      "w": 88,
      "x": 89,
      "y": 90,
      "z": 91,
      "{": 92,
      "|": 93,
      "}": 94,
      "~": 95,
      "¡": 96,
      "¢": 97,
      "£": 98,
      "¤": 99,
      "¥": 100,
      "¦": 101,
      "§": 102,
      "¨": 103,
      "©": 104,
      "ª": 105,
      "«": 106,
      "¬": 107,
      "®": 108,
      "¯": 109,
      "°": 110,
      "±": 111,
      "²": 112,
      "³": 113,
      "´": 114,
      "µ": 115,
      "¶": 116,
      "·": 117,
      "¸": 118,
      "¹": 119,
      "º": 120,
      "»": 121,
      "¼": 122,
      "½": 123,
      "¾": 124,
      "¿": 125,
      "Â": 126,
      "Ã": 127,
      "Ä": 128,
      "Å": 129,
      "Æ": 130,
      "Ç": 131,
      "È": 132,
      "É": 133,
      "Ê": 134,
      "Ë": 135,
      "Ì": 136,
      "Í": 137,
      "Î": 138,
      "Ï": 139,
      "Ð": 140,
      "Ñ": 141,
      "Ò": 142,
      "Ó": 143,
      "Ô": 144,
      "Õ": 145,
      "Ö": 146,
      "×": 147,
      "Ø": 148,
      "Ù": 149,
      "Ú": 150,
      "Û": 151,
      "Ü": 152,
      "Ý": 153,
      "Þ": 154,
      "ß": 155,
      "à": 156,
      "á": 157,
      "â": 158,
      "ã": 159,
      "ä": 160,
      "å": 161,
      "æ": 162,
      "ç": 163,
      "è": 164,
      "é": 165,
      "ê": 166,
      "ë": 167,
      "ì": 168,
      "í": 169,
      "î": 170,
      "ï": 171,
      "ð": 172,
      "ñ": 173,
      "ò": 174,
      "ó": 175,
      "ô": 176,
      "Ā": 177,
      "ā": 178,
      "Ă": 179,
      "ă": 180,
      "Ą": 181,
      "ą": 182,
      "Ć": 183,
      "ć": 184,
      "Ĉ": 185,
      "ĉ": 186,
      "Ċ": 187,
      "ċ": 188,
      "Č": 189,
      "Ď": 190,
      "ď": 191,
      "Đ": 192,
      "đ": 193,
      "Ē": 194,
      "ē": 195,
      "Ĕ": 196,
      "ĕ": 197,
      "Ė": 198,
      "ė": 199,
      "Ę": 200,
      "ę": 201,
      "Ě": 202,
      "ě": 203,
      "Ĝ": 204,
      "ĝ": 205,
      "Ğ": 206,
      "ğ": 207,
      "Ġ": 208,
      "ġ": 209,
      "Ģ": 210,
      "ģ": 211,
      "Ĥ": 212,
      "ĥ": 213,
      "Ħ": 214,
      "ħ": 215,
      "Ĩ": 216,
      "ĩ": 217,
      "Ī": 218,
      "ī": 219,
      "Ĭ": 220,
      "ĭ": 221,
      "Į": 222,
      "į": 223,
      "İ": 224,
      "ı": 225,
      "Ĳ": 226,
      "ĳ": 227,
      "Ĵ": 228,
      "ĵ": 229,
      "Ķ": 230,
      "ķ": 231,
      "ĸ": 232,
      "Ĺ": 233,
      "ĺ": 234,
      "Ļ": 235,
      "ļ": 236,
      "Ľ": 237,
      "ľ": 238,
      "Ŀ": 239,
      "ŀ": 240,
      "Ł": 241,
      "ł": 242,
      "Ń": 243,
      "Ġt": 244,
      "Ġa": 245,
      "in": 246,
      "he": 247,
      "re": 248,
      "on": 249,
      "Ġthe": 250,
      "er": 251,
      "Ġs": 252,
      "Ġw": 253,
      "Ġo": 254,
      "at": 255,
      "nd": 256,
      "Ġc": 257,
      "it": 258,
      "es": 259,
      "is": 260,
      "or": 261,
      "Ġf": 262,
      "ou": 263,
      "en": 264,
      "Ġb": 265,
      "ing": 266,
      "Ġp": 267,
      "ed": 268,
      "an": 269,
      "al": 270,
      "Ġm": 271,
      "Ġto": 272,
      "Ġand": 273,
      "ar": 274,
      "Ġin": 275,
      "Ġof": 276,
      "Ġd": 277,
      "ic": 278,
      "le": 279,
      "Ġh": 280,
      "ion": 281,
      "om": 282,
      "as": 283,
      "Ġth": 284,
      "ll": 285,
      "Ġl": 286,
      "ent": 287,
      "Ġe": 288,
      "ve": 289,
      "Ġre": 290,
      "Ġn": 291,
      "ro": 292,
      "st": 293,
      "Ġy": 294,
      "Ġg": 295,
      "ct": 296,
      "ĠI": 297,
      "ly": 298,
      "Ġbe": 299,
      "Ġyou": 300,
      "Ġis": 301,
      "âĢ": 302,
      "ĠT": 303,
      "et": 304,
      "ut": 305,
      "ot": 306,
      "Ġfor": 307,
      "Ġon": 308,
      "id": 309,
      "ĠS": 310,
      "ur": 311,
      "ow": 312,
      "ay": 313,
      "us": 314,
      "ce": 315,
      "im": 316,
      "ad": 317,
      "ig": 318,
      "ĠA": 319,
      "ver": 320,
      "ch": 321,
      "ĠC": 322,
      "ith": 323,
      "ation": 324,
      "am": 325,
      "Ġthat": 326,
      "il": 327,
      "Ġst": 328,
      "ol": 329,
      "Ġwith": 330,
      "ir": 331,
      "Ġit": 332,
      "se": 333,
      "Ġhe": 334,
      "ra": 335,
      "Ġwe": 336,
      "ĠM": 337,
      "Ġan": 338,
      "Ġas": 339,
      "Ġwh": 340,
      "ers": 341,
      "Ġpro": 342,
      "ĠP": 343,
      "un": 344,
      "ill": 345,
      "if": 346,
      "âĢĻ": 347,
      "Ġare": 348,
      "ĠB": 349,
      "Ġha": 350,
      "ge": 351,
      "ter": 352,
      "Ġcon": 353,
      "ke": 354,
      "ul": 355,
      "Ġor": 356,
      "oo": 357,
      "ess": 358,
      "ĠW": 359,
      "Ġcom": 360,
      "ĠThe": 361,
      "her": 362,
      "ate": 363,
      "ri": 364,
      "ld": 365,
      "Ġse": 366,
      "pp": 367,
      "ment": 368,
      "est": 369,
      "ck": 370,
      "Ġde": 371,
      "ore": 372,
      "ab": 373,
      "Ġat": 374,
      "ĠH": 375,
      "ĠD": 376,
      "Ġex": 377,
      "rom": 378,
      "ist": 379,
      "..": 380,
      "igh": 381,
      "th": 382,
      "Ġne": 383,
      "pe": 384,
      "Ġ(": 385,
      "ĠF": 386,
      "Ġwas": 387,
      "Ġ1": 388,
      "qu": 389,
      "Ġ2": 390,
      "Ġv": 391,
      "ure": 392,
      "Ġyour": 393,
      "ity": 394,
      "ant": 395,
      "ĠR": 396,
      "Ġthis": 397,
      "ive": 398,
      "ort": 399,
      "um": 400,
      "Ġhave": 401,
      "Ġsh": 402,
      "op": 403,
      "em": 404,
      "Ġby": 405,
      "Ġr": 406,
      "ust": 407,
      "Ġfrom": 408,
      "ain": 409,
      "ĠL": 410,
      "art": 411,
      "ies": 412,
      "Ġnot": 413,
      "os": 414,
      "Ġus": 415,
      "ĠG": 416,
      "el": 417,
      "Ġch": 418,
      "ĠE": 419,
      "Ġal": 420,
      "Ġcan": 421,
      "Ġsu": 422,
      "ĠN": 423,
      "and": 424,
      "Ġu": 425,
      "nt": 426,
      "ight": 427,
      "ome": 428,
      "res": 429,
      "all": 430,
      "ud": 431,
      "Ġle": 432,
      "Ġwill": 433,
      "ard": 434,
      "od": 435,
      "ie": 436,
      "out": 437,
      "ally": 438,
      "iv": 439,
      "Ġwor": 440,
      "Ġab": 441,
      "ould": 442,
      "ost": 443,
      "Ġdo": 444,
      "ĠO": 445,
      "ide": 446,
      "te": 447,
      "gh": 448,
      "Ġall": 449,
      "pt": 450,
      "our": 451,
      "Ġpl": 452,
      "ĠâĢ": 453,
      "ci": 454,
      "Ġj": 455,
      "ine": 456,
      "per": 457,
      "red": 458,
      "rou": 459,
      "Ġk": 460,
      "ag": 461,
      "Ġso": 462,
      "ast": 463,
      "'s": 464,
      "ak": 465,
      "fe": 466,
      "ction": 467,
      "Ġme": 468,
      "age": 469,
      "Ġ20": 470,
      "ĠJ": 471,
      "Ġcomp": 472,
      "Ġhas": 473,
      "ice": 474,
      "ook": 475,
      "ear": 476,
      "Ġad": 477,
      "Ġwhe": 478,
      "Ġbut": 479,
      "lo": 480,
      "ac": 481,
      "ite": 482,
      "ther": 483,
      "ich": 484,
      "ack": 485,
      "ind": 486,
      "ated": 487,
      "Ġout": 488,
      "able": 489,
      "Ġen": 490,
      "Ġup": 491,
      "very": 492,
      "Ġmy": 493,
      "one": 494,
      "ake": 495,
      "ous": 496,
      "are": 497,
      "ry": 498,
      "iz": 499,
      "Ġmore": 500,
      "cc": 501,
      "Ġtheir": 502,
      "so": 503,
      "Ġthey": 504,
      "ĠTh": 505,
      "ong": 506,
      "ood": 507,
      "ime": 508,
      "Ġlo": 509,
      "ĠU": 510,
      "Ġte": 511,
      "ip": 512,
      "Ġone": 513,
      "ans": 514,
      "Ġim": 515,
      "Ġour": 516,
      "The": 517,
      "Ġhis": 518,
      "orm": 519,
      "Ġman": 520,
      "ber": 521,
      "Ġcont": 522,
      "Ġun": 523,
      "ike": 524,
      "ance": 525,
      "00": 526,
      "Ġabout": 527,
      "ru": 528,
      "ign": 529,
      "ĠIn": 530,
      "ile": 531,
      "du": 532,
      "Ġwhich": 533,
      "Ġwho": 534,
      "Ġfe": 535,
      "Ġinc": 536,
      "act": 537,
      "ions": 538,
      "Ġcl": 539,
      "Ġres": 540,
      "ame": 541,
      "og": 542,
      "Ġapp": 543,
      "ult": 544,
      "ib": 545,
      "...": 546,
      "ap": 547,
      "âĢĿ": 548,
      "ree": 549,
      "Ġwork": 550,
      "ations": 551,
      "reat": 552,
      "ire": 553,
      "ary": 554,
      "ical": 555,
      "ail": 556,
      "ase": 557,
      "pl": 558,
      "ach": 559,
      "Ġqu": 560,
      "ia": 561,
      "Ġany": 562,
      "Ġother": 563,
      "Ġper": 564,
      "Ġgo": 565,
      "ace": 566,
      "to": 567,
      "Ġ201": 568,
      "ĠY": 569,
      "ass": 570,
      "Ġdis": 571,
      "ff": 572,
      "own": 573,
      "Ġtime": 574,
      "ne": 575,
      "Ġsome": 576,
      "erv": 577,
      "Ġoff": 578,
      "ĠK": 579,
      "ays": 580,
      "Ġlike": 581,
      "vel": 582,
      "ven": 583,
      "form": 584,
      "ence": 585,
      "ub": 586,
      "Ġget": 587,
      "ĠIt": 588,
      "ick": 589,
      "ount": 590,
      "ep": 591,
      "ark": 592,
      "Ġsp": 593,
      "Ġalso": 594,
      "Ġpart": 595,
      "Ġsa": 596,
      "ue": 597,
      "Ġyear": 598,
      "Ġdes": 599,
      "Ġnew": 600,
      "ition": 601,
      "Ġthem": 602,
      "Ġar": 603,
      "ings": 604,
      "ial": 605,
      "ress": 606,
      "ĠV": 607,
      "ĠâĢľ": 608,
      "Ġtr": 609,
      "Ġbeen": 610,
      "ord": 611,
      "Ġag": 612,
      "Ġher": 613,
      "ond": 614,
      "Ġbec": 615,
      "Ġthere": 616,
      "Ġover": 617,
      "ents": 618,
      "use": 619,
      "Ġpe": 620,
      "ating": 621,
      "ĠSt": 622,
      "Ġno": 623,
      "Ġwere": 624,
      "Ġif": 625,
      "ĠCh": 626,
      "Ġwhen": 627,
      "Ġam": 628,
      "ink": 629,
      "Ġkn": 630,
      "Ġ3": 631,
      "ors": 632,
      "Ġro": 633,
      "Ġspe": 634,
      "ish": 635,
      "Ġhad": 636,
      "ĠWe": 637,
      "ough": 638,
      "Ġpre": 639,
      "Ġwould": 640,
      "av": 641,
      "Ġ\"": 642,
      "Ġwhat": 643,
      "Ġco": 644,
      "Ġjust": 645,
      "ens": 646,
      "Ġthan": 647,
      "ild": 648,
      "nder": 649,
      "Ġneed": 650,
      "Ġ-": 651,
      "Ġimp": 652,
      "wn": 653,
      "Ġrec": 654,
      "Ġacc": 655,
      "ound": 656,
      "int": 657,
      "ren": 658,
      "Ġhow": 659,
      "ory": 660,
      "ople": 661,
      "Ġinto": 662,
      "ause": 663,
      "Ġsc": 664,
      "ater": 665,
      "ual": 666,
      "ĠThis": 667,
      "irst": 668,
      "ade": 669,
      "Ġcomm": 670,
      "rough": 671,
      "Ġmay": 672,
      "ian": 673,
      "Ġits": 674,
      "lud": 675,
      "lic": 676,
      "ang": 677,
      "fter": 678,
      "vers": 679,
      "cial": 680,
      "itt": 681,
      "ĠHe": 682,
      "Ġpeople": 683,
      "ning": 684,
      "Ġprov": 685,
      "we": 686,
      "old": 687,
      "ces": 688,
      "'t": 689,
      "ose": 690,
      "Ġem": 691,
      "Ġknow": 692,
      "Ġtw": 693,
      "ates": 694,
      "les": 695,
      "Ġlook": 696,
      "ons": 697,
      "Ġshe": 698,
      "Ġpr": 699,
      "Ġtra": 700,
      "lp": 701,
      "ull": 702,
      "ments": 703,
      "Ġonly": 704,
      "Ġind": 705,
      "tern": 706,
      "Ġmost": 707,
      "Ġmake": 708,
      "rent": 709,
      "hed": 710,
      "Ġuse": 711,
      "end": 712,
      "Ġserv": 713,
      "Ġfirst": 714,
      "Ġinclud": 715,
      "Ġfo": 716,
      "Ġhelp": 717,
      "Ġpo": 718,
      "Ġph": 719,
      "bs": 720,
      "Ġadd": 721,
      "Ġbet": 722,
      "Ġbu": 723,
      "ily": 724,
      "Ġevery": 725,
      "ft": 726,
      "ect": 727,
      "Ġthrough": 728,
      "ph": 729,
      "ious": 730,
      "iew": 731,
      "Ġact": 732,
      "Ġprodu": 733,
      "Ġwell": 734,
      "Ġunder": 735,
      "Ġvery": 736,
      "ov": 737,
      "round": 738,
      "Ġback": 739,
      "Ġwant": 740,
      "ict": 741,
      "fect": 742,
      "Ġcons": 743,
      "ise": 744,
      "ove": 745,
      "mer": 746,
      "gr": 747,
      "Ġrep": 748,
      "ific": 749,
      "Ġbecause": 750,
      "Ġsee": 751,
      "ices": 752,
      "Ġrel": 753,
      "Ġthese": 754,
      "Ġsy": 755,
      "Ġ4": 756,
      "ities": 757,
      "hen": 758,
      "lect": 759,
      "Ġ19": 760,
      "ks": 761,
      "amp": 762,
      "ife": 763,
      "hing": 764,
      ").": 765,
      "Ġdif": 766,
      "ced": 767,
      "sel": 768,
      "Ġ5": 769,
      "ys": 770,
      "ĠRe": 771,
      "ful": 772,
      "Ġcol": 773,
      "Ġstud": 774,
      "ject": 775,
      "Ġtwo": 776,
      "Ġreg": 777,
      "rit": 778,
      "iss": 779,
      "urn": 780,
      "Ġafter": 781,
      "Ġexper": 782,
      "Ġsupp": 783,
      "Ġgood": 784,
      "ĠYou": 785,
      "Ġdown": 786,
      "xt": 787,
      "Ġcould": 788,
      "day": 789,
      "fore": 790,
      "uch": 791,
      "erson": 792,
      "Ġmany": 793,
      "ert": 794,
      "Ġfl": 795,
      "row": 796,
      "Ġway": 797,
      "ob": 798,
      "Ġinv": 799,
      "ath": 800,
      "cess": 801,
      "ures": 802,
      "ting": 803,
      "olog": 804,
      "ange": 805,
      "Ġgu": 806,
      "Ġyears": 807,
      "iness": 808,
      "Ġsaid": 809,
      "Ġwhere": 810,
      "ased": 811,
      "ont": 812,
      "Ġgreat": 813,
      "erm": 814,
      "als": 815,
      "ics": 816,
      "ible": 817,
      "aw": 818,
      "Ġeven": 819,
      "ility": 820,
      "Ġdec": 821,
      "Ġsm": 822,
      "Ġthen": 823,
      "ied": 824,
      "oss": 825,
      "Ġrem": 826,
      "ational": 827,
      "Ġke": 828,
      "Ġev": 829,
      "Ġra": 830,
      "ular": 831,
      "pect": 832,
      "Ġac": 833,
      "ew": 834,
      "Ġown": 835,
      "oth": 836,
      "Ġread": 837,
      "line": 838,
      "Ġfind": 839,
      "Ġnow": 840,
      "ĠâĢĵ": 841,
      "aking": 842,
      "Ġshould": 843,
      "ty": 844,
      "Ġbl": 845,
      "ble": 846,
      "Ġbus": 847,
      "any": 848,
      "ower": 849,
      "Ġent": 850,
      "Ġsec": 851,
      "Ġsuch": 852,
      "ool": 853,
      "ract": 854,
      "ative": 855,
      "stem": 856,
      "ption": 857,
      "ĠSe": 858,
      "Ġins": 859,
      "Ġinform": 860,
      "Ġright": 861,
      "Ġhigh": 862,
      "uring": 863,
      "Ġbest": 864,
      "Ġcar": 865,
      "ts": 866,
      "get": 867,
      "Ġhim": 868,
      "Ġmuch": 869,
      "Ġinst": 870,
      "cri": 871,
      "Ġatt": 872,
      "Ġplay": 873,
      "hes": 874,
      "ward": 875,
      "velop": 876,
      "Ġinte": 877,
      "Ġset": 878,
      "oc": 879,
      "arch": 880,
      "Ġfin": 881,
      "hip": 882,
      "llow": 883,
      "Ġloc": 884,
      "ĠAs": 885,
      "ident": 886,
      "air": 887,
      "Ġdesign": 888,
      "Ġdid": 889,
      "Ġstart": 890,
      "ener": 891,
      "Ġdon": 892,
      "Ġthink": 893,
      "oy": 894,
      "Th": 895,
      "Ġperson": 896,
      "ĠUn": 897,
      "ĠIf": 898,
      "Ġhome": 899,
      "its": 900,
      "Ġday": 901,
      "ited": 902,
      "omet": 903,
      "Ġtoo": 904,
      "Ġmod": 905,
      "Ġdiffe": 906,
      "Ġpres": 907,
      "Ġlong": 908,
      "Ġrequ": 909,
      "),": 910,
      "li": 911,
      "other": 912,
      "ĠCom": 913,
      "ĠWh": 914,
      "Ġass": 915,
      "Ġbeing": 916,
      "Ġtrans": 917,
      "up": 918,
      "Ġworld": 919,
      "Ġche": 920,
      "Ġmade": 921,
      "Ġshow": 922,
      "Ġhere": 923,
      "ork": 924,
      "Ġused": 925,
      "Ġagain": 926,
      "ving": 927,
      "cy": 928,
      "alth": 929,
      "com": 930,
      "Ġmon": 931,
      "Ġsub": 932,
      "Ġsur": 933,
      "gan": 934,
      "Ġtake": 935,
      "ĠAnd": 936,
      "Ġbook": 937,
      "ually": 938,
      "Ġinformation": 939,
      "Ġsystem": 940,
      "Ġfam": 941,
      "Ġsim": 942,
      "Ġbr": 943,
      "ĠDe": 944,
      "ng": 945,
      "Ġdisc": 946,
      "Ġbefore": 947,
      "Ġdoes": 948,
      "Ġlife": 949,
      "Ġbel": 950,
      "chool": 951,
      "Ġmin": 952,
      "Ġend": 953,
      "Ġthose": 954,
      "rest": 955,
      "Ġmark": 956,
      "und": 957,
      "Ġbusiness": 958,
      "Ġdevelop": 959,
      "Ġav": 960,
      "ved": 961,
      "Ġart": 962,
      "Ġinter": 963,
      "Ġdet": 964,
      "Ġ6": 965,
      "Ġ&": 966,
      "ank": 967,
      "ell": 968,
      "ouse": 969,
      "chn": 970,
      "way": 971,
      "Ġcall": 972,
      "ality": 973,
      "ner": 974,
      "Ġexperi": 975,
      "ax": 976,
      "ffect": 977,
      "io": 978,
      "ĠPro": 979,
      "Ġhand": 980,
      "led": 981,
      "Ġvis": 982,
      "ale": 983,
      "Ġfree": 984,
      "Ġprovid": 985,
      "self": 986,
      "az": 987,
      "Ġexp": 988,
      "Ġwee": 989,
      "alk": 990,
      "Ġreally": 991,
      "Ġform": 992,
      "Ġmet": 993,
      "ĠAn": 994,
      "ues": 995,
      "Ġmed": 996,
      "Ġnum": 997,
      "gg": 998,
      "ix": 999,
      "ric": 1000,
      "Ġed": 1001,
      "Ġmem": 1002,
      "Ġproduct": 1003,
      "Ġcre": 1004,
      "ather": 1005,
      "Ġop": 1006,
      "gram": 1007,
      "atch": 1008,
      "Ġcomple": 1009,
      "Ġpost": 1010,
      "Ġchar": 1011,
      "Ġeach": 1012,
      "Ġ$": 1013,
      "ince": 1014,
      "riend": 1015,
      "Ġser": 1016,
      "Ġ200": 1017,
      "ros": 1018,
      "ages": 1019,
      "ines": 1020,
      "Ġaut": 1021,
      "ives": 1022,
      "land": 1023,
      "Ġlove": 1024,
      "ple": 1025,
      "Ġgr": 1026,
      "Ġwhile": 1027,
      "Ġpol": 1028,
      "ution": 1029,
      "Ġcur": 1030,
      "ize": 1031,
      "be": 1032,
      "Ġear": 1033,
      "ween": 1034,
      "ctions": 1035,
      "Ġpub": 1036,
      "In": 1037,
      "akes": 1038,
      "Ġstr": 1039,
      "ets": 1040,
      "ness": 1041,
      "ave": 1042,
      "Ġdifferent": 1043,
      "Ġthough": 1044,
      "ason": 1045,
      "Ġaround": 1046,
      "Ġadv": 1047,
      "Ġbo": 1048,
      "der": 1049,
      "Ġprof": 1050,
      "ata": 1051,
      "Ġeas": 1052,
      "ins": 1053,
      "Ġcle": 1054,
      "ized": 1055,
      "Ġlast": 1056,
      "Ġsign": 1057,
      "Ġbetween": 1058,
      "imes": 1059,
      "Ġret": 1060,
      "Ġcount": 1061,
      "Ġsomet": 1062,
      "Ġ10": 1063,
      "ash": 1064,
      "Ġfun": 1065,
      "view": 1066,
      "lease": 1067,
      "Ġlead": 1068,
      "Ġchild": 1069,
      "roup": 1070,
      "ustom": 1071,
      "au": 1072,
      "Ġsk": 1073,
      "Ġcare": 1074,
      "Ġsupport": 1075,
      "Ġsame": 1076,
      "arm": 1077,
      "read": 1078,
      "ature": 1079,
      "ĠFor": 1080,
      "ĠAl": 1081,
      "Ġ7": 1082,
      "Ġfollow": 1083,
      "ene": 1084,
      "ĠNew": 1085,
      "Ġpur": 1086,
      "ute": 1087,
      "Ġcommun": 1088,
      "Ġplace": 1089,
      "irect": 1090,
      "pr": 1091,
      ".âĢĿ": 1092,
      "ĠBut": 1093,
      "ever": 1094,
      "Ġfeel": 1095,
      "Ġboth": 1096,
      "Ġfound": 1097,
      "ĠSo": 1098,
      "ways": 1099,
      "Ġstill": 1100,
      "Ġprocess": 1101,
      "Ġi": 1102,
      "oun": 1103,
      "ves": 1104,
      "orn": 1105,
      "Ġcour": 1106,
      "Ġgoing": 1107,
      "ĠSh": 1108,
      "Ġlist": 1109,
      "ient": 1110,
      "Ġext": 1111,
      "Ġlot": 1112,
      "Ġgener": 1113,
      "Ġlar": 1114,
      "Ġfull": 1115,
      "ittle": 1116,
      "Ġint": 1117,
      "less": 1118,
      "Ġsl": 1119,
      "Ġtechn": 1120,
      "Ġtop": 1121,
      "Ġreal": 1122,
      "Ġsol": 1123,
      "Ġonline": 1124,
      "Ġusing": 1125,
      "Ġ8": 1126,
      "Ġvar": 1127,
      "Ġsay": 1128,
      "ailable": 1129,
      "Ġshort": 1130,
      "Ġfew": 1131,
      "ah": 1132,
      "ĠThey": 1133,
      "Ġprogram": 1134,
      "ivers": 1135,
      "load": 1136,
      "Ġsite": 1137,
      "ology": 1138,
      "ars": 1139,
      "Ġob": 1140,
      "ional": 1141,
      "Ġhapp": 1142,
      "ically": 1143,
      "Ġpoint": 1144,
      "ĠAr": 1145,
      "ired": 1146,
      "Ġfile": 1147,
      "cept": 1148,
      "We": 1149,
      "Ġwom": 1150,
      "iqu": 1151,
      "Ġimport": 1152,
      "uc": 1153,
      "Ġfr": 1154,
      "ining": 1155,
      "Ġappro": 1156,
      "thing": 1157,
      "This": 1158,
      "Ġval": 1159,
      "Ġide": 1160,
      "Ġrun": 1161,
      "ety": 1162,
      "Ġthings": 1163,
      "Ġty": 1164,
      "ten": 1165,
      "ering": 1166,
      "ody": 1167,
      "Ġinterest": 1168,
      "Ġfil": 1169,
      "Ġref": 1170,
      "ĠBe": 1171,
      "iving": 1172,
      "Ġwithout": 1173,
      "Ġfriend": 1174,
      "ism": 1175,
      "Ġplan": 1176,
      "Ġcustom": 1177,
      "ants": 1178,
      "Ġlear": 1179,
      "ug": 1180,
      "Ġresult": 1181,
      "Ġ...": 1182,
      "Ġcent": 1183,
      "Ġservice": 1184,
      "Ġposs": 1185,
      "Ġpat": 1186,
      "Ġteam": 1187,
      "Ġlittle": 1188,
      "Ġmain": 1189,
      "000": 1190,
      "meric": 1191,
      "Ġdescri": 1192,
      "Ġpartic": 1193,
      "Ġmarket": 1194,
      "ern": 1195,
      "Ġavailable": 1196,
      "ists": 1197,
      "ross": 1198,
      "Ġcor": 1199,
      "ĠThere": 1200,
      "Ġfact": 1201,
      "ined": 1202,
      "Ġincluding": 1203,
      "uss": 1204,
      "Ġsmall": 1205,
      "Ġdist": 1206,
      "Ġ[": 1207,
      "Ġdating": 1208,
      "Ġtri": 1209,
      "Ġpri": 1210,
      "Ġ'": 1211,
      "Ġduring": 1212,
      "Ġkeep": 1213,
      "Ġhealth": 1214,
      "Ġmonth": 1215,
      "Ġ9": 1216,
      "stand": 1217,
      "Ġsing": 1218,
      "ital": 1219,
      "Ġstate": 1220,
      "Ġthree": 1221,
      "Ġdef": 1222,
      "ished": 1223,
      "Ġwr": 1224,
      "ural": 1225,
      "ĠLe": 1226,
      "Ġalways": 1227,
      "Ġrece": 1228,
      "Ġdata": 1229,
      "bers": 1230,
      "Ġschool": 1231,
      "Ġ.": 1232,
      "blem": 1233,
      "co": 1234,
      "Ġeffect": 1235,
      "Ġmust": 1236,
      "Ġcome": 1237,
      "Ġopen": 1238,
      "Ġresp": 1239,
      "Ġexperience": 1240,
      "ames": 1241,
      "ĠCl": 1242,
      "Ġfamily": 1243,
      "ĠAd": 1244,
      "ton": 1245,
      "Ġconf": 1246,
      "gy": 1247,
      "Ġconc": 1248,
      "Ġrest": 1249,
      "con": 1250,
      "Ġbuild": 1251,
      "Ġiss": 1252,
      "ention": 1253,
      "aut": 1254,
      "ield": 1255,
      "Ġtry": 1256,
      "Ġmus": 1257,
      "Ġperform": 1258,
      "Ġsomething": 1259,
      "Ġcompany": 1260,
      "Ġdri": 1261,
      "man": 1262,
      "Ġallow": 1263,
      "Ġstand": 1264,
      "Ġgroup": 1265,
      "Ġnumber": 1266,
      "ock": 1267,
      "ling": 1268,
      "vern": 1269,
      "Ġwebs": 1270,
      "Ġwater": 1271,
      "raph": 1272,
      "ĠAmeric": 1273,
      "Ġbetter": 1274,
      "Ġold": 1275,
      "Ġorgan": 1276,
      "Ġclass": 1277,
      "rand": 1278,
      "Ġinf": 1279,
      "Ġpay": 1280,
      "Ġhard": 1281,
      "20": 1282,
      "Ġproblem": 1283,
      "Ġpass": 1284,
      "ared": 1285,
      "Ġreport": 1286,
      "att": 1287,
      "Ġsit": 1288,
      "Ġblo": 1289,
      "Ġput": 1290,
      "ware": 1291,
      "rist": 1292,
      "ertain": 1293,
      "Ġcontin": 1294,
      "Ġbig": 1295,
      "Ġquest": 1296,
      "âĢľ": 1297,
      "Ġproject": 1298,
      "Ġsure": 1299,
      "ately": 1300,
      "Ġnever": 1301,
      "ĠShe": 1302,
      "Ġanother": 1303,
      "Ġspec": 1304,
      "Ġgot": 1305,
      "ĠHow": 1306,
      "ense": 1307,
      "ior": 1308,
      "Ġpower": 1309,
      "Ġhead": 1310,
      "els": 1311,
      "Ġprovide": 1312,
      "Ġview": 1313,
      "Ġeng": 1314,
      "ery": 1315,
      "port": 1316,
      "ĠTe": 1317,
      "Ġmight": 1318,
      "Ġservices": 1319,
      "Ġmov": 1320,
      "rib": 1321,
      "Ġsince": 1322,
      "ik": 1323,
      "Ġsecond": 1324,
      "Ġlevel": 1325,
      "Ġcontro": 1326,
      "Ġwithin": 1327,
      "Ġcr": 1328,
      "Ġve": 1329,
      "Ġlet": 1330,
      "me": 1331,
      "the": 1332,
      "Ġproper": 1333,
      "ier": 1334,
      "Ġgive": 1335,
      "loy": 1336,
      "ĠOn": 1337,
      "Ġjo": 1338,
      "work": 1339,
      "Ġcost": 1340,
      "Ġexpl": 1341,
      "Ġimportant": 1342,
      "Ġnext": 1343,
      "Ġlight": 1344,
      "Ġopp": 1345,
      "ump": 1346,
      "ruct": 1347,
      "Ġroom": 1348,
      "Ġincre": 1349,
      "ĠEx": 1350,
      "aj": 1351,
      "Ġdirect": 1352,
      "oney": 1353,
      "Ġlooking": 1354,
      "ered": 1355,
      "Ġorder": 1356,
      "Ġphot": 1357,
      "ral": 1358,
      "Ġbro": 1359,
      "ĠPl": 1360,
      "pend": 1361,
      "Ġarea": 1362,
      "ĠIs": 1363,
      "ĠInd": 1364,
      "Ġoper": 1365,
      "Ġless": 1366,
      "reen": 1367,
      "inal": 1368,
      "Ġrese": 1369,
      "rence": 1370,
      "Ġable": 1371,
      "ploy": 1372,
      "ted": 1373,
      "Ġgame": 1374,
      "Ġest": 1375,
      "Ġdays": 1376,
      "Ġpresent": 1377,
      "ision": 1378,
      "Ġequ": 1379,
      "Ġbre": 1380,
      ".\"": 1381,
      "ccess": 1382,
      "Ġpos": 1383,
      "It": 1384,
      "Ġcurrent": 1385,
      "ĠAll": 1386,
      "Ġaccess": 1387,
      "Ġhum": 1388,
      "Ġdi": 1389,
      "ards": 1390,
      "Ġweek": 1391,
      "Ġel": 1392,
      "ably": 1393,
      "Ġpublic": 1394,
      "ivid": 1395,
      "Ġinvest": 1396,
      "Ġca": 1397,
      "Ġgl": 1398,
      "ember": 1399,
      "Ġmeet": 1400,
      "eng": 1401,
      "ified": 1402,
      "Ġlaw": 1403,
      "Ġtest": 1404,
      "ems": 1405,
      "Ġspecial": 1406,
      "ases": 1407,
      "ently": 1408,
      "Ġask": 1409,
      "Ġbelie": 1410,
      "Ġintern": 1411,
      "uck": 1412,
      "Ġpop": 1413,
      "ffic": 1414,
      "cl": 1415,
      "ĠQ": 1416,
      "ency": 1417,
      "Ġgrow": 1418,
      "gin": 1419,
      "Ġprofess": 1420,
      "Ġapplic": 1421,
      "ret": 1422,
      "ote": 1423,
      "Ġwrit": 1424,
      "ron": 1425,
      "Ġwebsite": 1426,
      "ortun": 1427,
      "iversity": 1428,
      "Ġprote": 1429,
      "ains": 1430,
      "joy": 1431,
      "Ġ18": 1432,
      "pos": 1433,
      "ration": 1434,
      "ĠJo": 1435,
      "Ġ2018": 1436,
      "ised": 1437,
      "outh": 1438,
      "ird": 1439,
      ",âĢĿ": 1440,
      "ĠTr": 1441,
      "lish": 1442,
      "Ġpract": 1443,
      "ients": 1444,
      "Ġagainst": 1445,
      "Ġprev": 1446,
      "Ġconst": 1447,
      "10": 1448,
      "Ġunderstand": 1449,
      "ator": 1450,
      "Ġhist": 1451,
      "por": 1452,
      "ĠFr": 1453,
      "Ġvisit": 1454,
      "Ġprom": 1455,
      "aper": 1456,
      "mber": 1457,
      "pping": 1458,
      "ours": 1459,
      "ats": 1460,
      "Ġhouse": 1461,
      "lection": 1462,
      "Ġvide": 1463,
      "room": 1464,
      "cing": 1465,
      "Ġtru": 1466,
      "Ġaddition": 1467,
      "Ġlarge": 1468,
      "ability": 1469,
      "ission": 1470,
      "ĠâĢĺ": 1471,
      "Ġtoday": 1472,
      "ium": 1473,
      "ann": 1474,
      "Ġworking": 1475,
      "ĠPh": 1476,
      "ization": 1477,
      "irl": 1478,
      "Ġturn": 1479,
      "'m": 1480,
      "Ġcond": 1481,
      "hor": 1482,
      "Ġquality": 1483,
      "Ġbuy": 1484,
      "omm": 1485,
      "Ġaway": 1486,
      "Ġterm": 1487,
      "Ġmaking": 1488,
      "Ġdem": 1489,
      "Ġwomen": 1490,
      "here": 1491,
      "ories": 1492,
      "ode": 1493,
      "iron": 1494,
      "Ġchildren": 1495,
      "Ġactiv": 1496,
      "Ġleg": 1497,
      "ĠCon": 1498,
      "med": 1499,
      "agement": 1500,
      "part": 1501,
      "ury": 1502,
      "atter": 1503,
      "ĠAt": 1504,
      "Ġbas": 1505,
      "ample": 1506,
      "Ġcase": 1507,
      "ĠTo": 1508,
      "Ġcap": 1509,
      "Ġfood": 1510,
      "itions": 1511,
      "Ġcomplete": 1512,
      "Ġlocal": 1513,
      "ĠZ": 1514,
      "icle": 1515,
      "Ġunt": 1516,
      "ify": 1517,
      "Ġdev": 1518,
      "Ġstudents": 1519,
      "Ġbeh": 1520,
      "ived": 1521,
      "Ġann": 1522,
      "Ġchang": 1523,
      "ope": 1524,
      "Ġhaving": 1525,
      "Ġ0": 1526,
      "pped": 1527,
      "ids": 1528,
      "Ġchange": 1529,
      "illion": 1530,
      "Ġkind": 1531,
      "sh": 1532,
      "ott": 1533,
      "Ġ12": 1534,
      "ĠChrist": 1535,
      "Ġname": 1536,
      "min": 1537,
      "Ġbased": 1538,
      "aterial": 1539,
      "Ġcourse": 1540,
      "Ġwhy": 1541,
      "Ġword": 1542,
      "If": 1543,
      "Ġmar": 1544,
      "Ġcheck": 1545,
      "Ġmen": 1546,
      "Ġimpro": 1547,
      "Ġnear": 1548,
      "ider": 1549,
      "ĠUS": 1550,
      "ĠGod": 1551,
      "rop": 1552,
      "Ġfac": 1553,
      "Ġthing": 1554,
      "rap": 1555,
      "Ġmoney": 1556,
      "orth": 1557,
      "ential": 1558,
      "Ġpain": 1559,
      "ream": 1560,
      "tain": 1561,
      "Ġdownload": 1562,
      "Ġproducts": 1563,
      "Ġoffer": 1564,
      "bo": 1565,
      "Ġwin": 1566,
      "Ġconne": 1567,
      "ina": 1568,
      "Ġopt": 1569,
      "ising": 1570,
      "aster": 1571,
      "Ġbeaut": 1572,
      "ills": 1573,
      "Ġelect": 1574,
      "Ġenjoy": 1575,
      "ec": 1576,
      "ĠCol": 1577,
      "Ġdr": 1578,
      "Ġalong": 1579,
      "Ġindust": 1580,
      "Ġcreat": 1581,
      "vernment": 1582,
      "ex": 1583,
      "tend": 1584,
      "Ġsal": 1585,
      "Ġanal": 1586,
      "Ġlearn": 1587,
      "Ġair": 1588,
      "aring": 1589,
      "iven": 1590,
      "'re": 1591,
      "Ġrecord": 1592,
      "soci": 1593,
      "Ġtrad": 1594,
      "Ġsw": 1595,
      "ĠWhen": 1596,
      "Ġsuccess": 1597,
      "let": 1598,
      "ination": 1599,
      "Ġpersonal": 1600,
      "Ġoften": 1601,
      "ged": 1602,
      "Ġdetail": 1603,
      "Ġnight": 1604,
      "ĠSp": 1605,
      "Ġeasy": 1606,
      "ique": 1607,
      "Ġtimes": 1608,
      "arent": 1609,
      "Ġdra": 1610,
      "ĠBl": 1611,
      "ĠMan": 1612,
      "Ġreview": 1613,
      "Ġtreat": 1614,
      "cus": 1615,
      "Ġtoget": 1616,
      "50": 1617,
      "Ġtogether": 1618,
      "Ġfour": 1619,
      "ĠWith": 1620,
      "ĠOr": 1621,
      "Ġaccount": 1622,
      "ividual": 1623,
      "ĠThat": 1624,
      "augh": 1625,
      "Ġes": 1626,
      "fer": 1627,
      "ĠComm": 1628,
      "cent": 1629,
      "lling": 1630,
      "Ġuntil": 1631,
      "itive": 1632,
      "Ġpast": 1633,
      "Ġneeds": 1634,
      "ead": 1635,
      "ger": 1636,
      "Ġcontrol": 1637,
      "ane": 1638,
      "Ġresearch": 1639,
      "ĠEng": 1640,
      "ured": 1641,
      "une": 1642,
      "br": 1643,
      "'ve": 1644,
      "Ġhot": 1645,
      "Ġevent": 1646,
      "veral": 1647,
      "Ġnon": 1648,
      "ley": 1649,
      "Ġever": 1650,
      "ries": 1651,
      "Ġ*": 1652,
      "hod": 1653,
      "Ġocc": 1654,
      "Ġinclude": 1655,
      "of": 1656,
      "Ġmaterial": 1657,
      "....": 1658,
      "atures": 1659,
      "ands": 1660,
      "ok": 1661,
      "Ġside": 1662,
      "ĠMy": 1663,
      "Ġemploy": 1664,
      "Ġcou": 1665,
      "Ġpossible": 1666,
      "Ġclo": 1667,
      "Ġmusic": 1668,
      "ots": 1669,
      "Ġbody": 1670,
      "ĠRes": 1671,
      "Ġline": 1672,
      "Ġbecome": 1673,
      "utes": 1674,
      "ajor": 1675,
      "Ġsingle": 1676,
      "side": 1677,
      "by": 1678,
      "Ġbit": 1679,
      "Ġcommunity": 1680,
      "Ġcertain": 1681,
      "lement": 1682,
      "Ġdone": 1683,
      "Ġindividual": 1684,
      "Ġcharact": 1685,
      "âĢĶ": 1686,
      "Ġperfect": 1687,
      "cu": 1688,
      "yle": 1689,
      "Ġmove": 1690,
      "Wh": 1691,
      "aim": 1692,
      "Ġmakes": 1693,
      "ĠMay": 1694,
      "Ġmult": 1695,
      "Ġbene": 1696,
      "conom": 1697,
      "Ġstory": 1698,
      "ograph": 1699,
      "ney": 1700,
      "Ġexpect": 1701,
      "Ġmeans": 1702,
      "book": 1703,
      "Ġenough": 1704,
      "iting": 1705,
      "Ġlive": 1706,
      "Ġfore": 1707,
      "Ġleft": 1708,
      "ER": 1709,
      "viron": 1710,
      "ready": 1711,
      "Ġorig": 1712,
      "ĠMar": 1713,
      "ither": 1714,
      "Ġdevelopment": 1715,
      "Ġseveral": 1716,
      "Ġstudy": 1717,
      "itc": 1718,
      "Ġnet": 1719,
      "Ġdescription": 1720,
      "ĠCo": 1721,
      "Ġlim": 1722,
      "ĠCan": 1723,
      "Ġsoft": 1724,
      "Ġcountry": 1725,
      "ĠâĢĶ": 1726,
      "Ġsocial": 1727,
      "Ġtre": 1728,
      "Ġeduc": 1729,
      "Ġtalk": 1730,
      "Ġgetting": 1731,
      "oice": 1732,
      "Ġothers": 1733,
      "ĠCent": 1734,
      "Ġlink": 1735,
      "ĠNo": 1736,
      "Ġcontact": 1737,
      "Ġmembers": 1738,
      "Ġexce": 1739,
      "Ġlow": 1740,
      "Ġsex": 1741,
      "Ġpage": 1742,
      "uro": 1743,
      "atic": 1744,
      "Ġfar": 1745,
      "Ġcalled": 1746,
      "Ġspecific": 1747,
      "urs": 1748,
      "Ġmean": 1749,
      "Ġwar": 1750,
      "rodu": 1751,
      "Ġdidn": 1752,
      "Ġpot": 1753,
      "ully": 1754,
      "You": 1755,
      "Ġ15": 1756,
      "Ġmind": 1757,
      "idd": 1758,
      "enn": 1759,
      "Ġfocus": 1760,
      "ides": 1761,
      "Ġalready": 1762,
      "Ġleast": 1763,
      "Ġcreate": 1764,
      "Ġfollowing": 1765,
      "Ġce": 1766,
      "Ġactually": 1767,
      "cially": 1768,
      ",\"": 1769,
      "Ġmil": 1770,
      "Ġjob": 1771,
      "ape": 1772,
      "ances": 1773,
      "Ġmajor": 1774,
      "Ġfriends": 1775,
      "ĠThese": 1776,
      "alf": 1777,
      "Ġdoing": 1778,
      "Ġyoung": 1779,
      "Ġvari": 1780,
      "Ġla": 1781,
      "orts": 1782,
      "osed": 1783,
      "Ġ30": 1784,
      "Ġpar": 1785,
      "Ġparticular": 1786,
      "Ġcity": 1787,
      "ored": 1788,
      "hn": 1789,
      "ians": 1790,
      "acy": 1791,
      "ĠFe": 1792,
      "Ġquick": 1793,
      "Ġclean": 1794,
      "err": 1795,
      "Ġsays": 1796,
      "Ġsho": 1797,
      "Ġbenef": 1798,
      "Ġ|": 1799,
      "ĠWhat": 1800,
      "ording": 1801,
      "!!": 1802,
      "Ġ11": 1803,
      "Ġ2017": 1804,
      "ĠOur": 1805,
      "Ġtem": 1806,
      "urity": 1807,
      "As": 1808,
      "Ġess": 1809,
      "Ġident": 1810,
      "ateg": 1811,
      "Ġdeal": 1812,
      "Ġfav": 1813,
      "Ġthought": 1814,
      "Ġtyp": 1815,
      "Ġacross": 1816,
      "Ġpriv": 1817,
      "lf": 1818,
      "uture": 1819,
      "Ġmethod": 1820,
      "most": 1821,
      "oint": 1822,
      "ĠSc": 1823,
      "Ġhold": 1824,
      "ee": 1825,
      "Ġcover": 1826,
      "ĠUniversity": 1827,
      "ĠRo": 1828,
      "Ġweb": 1829,
      "Ġcomes": 1830,
      "Ġvers": 1831,
      "Ġreason": 1832,
      "aff": 1833,
      "Ġvideo": 1834,
      "ulation": 1835,
      "wards": 1836,
      "Ġopportun": 1837,
      "Ġcame": 1838,
      "Ġbed": 1839,
      "icy": 1840,
      "vironment": 1841,
      "urther": 1842,
      "Ġrequire": 1843,
      "Ġrelations": 1844,
      "ĠAm": 1845,
      "Ġonce": 1846,
      "iful": 1847,
      "'ll": 1848,
      "ĠDo": 1849,
      "Ġgirl": 1850,
      "Ġexample": 1851,
      "Ġoffic": 1852,
      "Ġhuman": 1853,
      "ows": 1854,
      "utions": 1855,
      "ush": 1856,
      "Ġclear": 1857,
      "Ġprice": 1858,
      "bal": 1859,
      "ences": 1860,
      "Ġey": 1861,
      "Ġfilm": 1862,
      "not": 1863,
      "ĠCar": 1864,
      "Ġmom": 1865,
      "irm": 1866,
      "Ġsuper": 1867,
      "lished": 1868,
      "Ġdeli": 1869,
      "Ġnews": 1870,
      "Ġinvol": 1871,
      "Ġkey": 1872,
      "ai": 1873,
      "Ġshare": 1874,
      "Ġknown": 1875,
      "ones": 1876,
      "Ġreturn": 1877,
      "uff": 1878,
      "sw": 1879,
      "Ġhig": 1880,
      "Ġpurch": 1881,
      "Ġpict": 1882,
      "oose": 1883,
      "Ġet": 1884,
      "aps": 1885,
      "Ġ#": 1886,
      "ĠAmerican": 1887,
      "Ġredu": 1888,
      "par": 1889,
      "Ġcomb": 1890,
      "ource": 1891,
      "Ġtell": 1892,
      "Ġauthor": 1893,
      "son": 1894,
      "Ġcamp": 1895,
      "aken": 1896,
      "ĠPr": 1897,
      "resent": 1898,
      "Ġgovernment": 1899,
      "ference": 1900,
      "Ġdiscuss": 1901,
      "ister": 1902,
      "bed": 1903,
      "30": 1904,
      "cer": 1905,
      "Ġfund": 1906,
      "oring": 1907,
      "Ġcompan": 1908,
      "Ġcomput": 1909,
      "Ġpack": 1910,
      "ĠÂ": 1911,
      "Ġcult": 1912,
      "Ġheart": 1913,
      "Ġwa": 1914,
      "ster": 1915,
      "Ġaddress": 1916,
      "cks": 1917,
      "Ġstarted": 1918,
      "ips": 1919,
      "Ġdoesn": 1920,
      "Ġfuture": 1921,
      "Ġsomeone": 1922,
      "app": 1923,
      "Ġseries": 1924,
      "Ġ,": 1925,
      "ĠSu": 1926,
      "Ġeverything": 1927,
      "Ġant": 1928,
      "lev": 1929,
      "Ġsum": 1930,
      "Ġsearch": 1931,
      "ĠIntern": 1932,
      "iod": 1933,
      "Ġstep": 1934,
      "Ġspace": 1935,
      "Ġfeatures": 1936,
      "ges": 1937,
      "Ġtook": 1938,
      "Ġwalk": 1939,
      "go": 1940,
      "ilities": 1941,
      "Ġtool": 1942,
      "Ġclose": 1943,
      "anks": 1944,
      "Ġrespons": 1945,
      "ilt": 1946,
      "Ġstay": 1947,
      "Ġwent": 1948,
      "Ġbring": 1949,
      "yl": 1950,
      "Ġyet": 1951,
      "Ġresults": 1952,
      "urance": 1953,
      "Ġstrong": 1954,
      "wh": 1955,
      "Ġsci": 1956,
      "ctor": 1957,
      "Ġwind": 1958,
      "Ġfield": 1959,
      "Ġvol": 1960,
      "ĠNot": 1961,
      "Ġcontent": 1962,
      "Ġearly": 1963,
      "Ġport": 1964,
      "Ġoffers": 1965,
      "19": 1966,
      "Ġsound": 1967,
      "ĠApp": 1968,
      "ĠServ": 1969,
      "ony": 1970,
      "Ġcompet": 1971,
      "Ġhappen": 1972,
      "Ġgiven": 1973,
      "Ġfre": 1974,
      "Ġwond": 1975,
      "ches": 1976,
      "Ġhours": 1977,
      "Ġ100": 1978,
      "aces": 1979,
      "light": 1980,
      "ift": 1981,
      "for": 1982,
      "Ġrange": 1983,
      "DF": 1984,
      "cle": 1985,
      "Ġmonths": 1986,
      "Ġcut": 1987,
      "Ġtot": 1988,
      "Ġ199": 1989,
      "urch": 1990,
      "Ġmot": 1991,
      "Ġprob": 1992,
      "ites": 1993,
      "Ġappear": 1994,
      "Ġemail": 1995,
      "Ġseason": 1996,
      "de": 1997,
      "Ġworks": 1998,
      "ental": 1999,
      "Ġris": 2000,
      "Ġeconom": 2001,
      "Ġens": 2002,
      "Ġbegin": 2003,
      "ively": 2004,
      "Ġage": 2005,
      "ledge": 2006,
      "Ġflo": 2007,
      "Ġste": 2008,
      "Ġcal": 2009,
      "Ġener": 2010,
      "Ġbelow": 2011,
      "osp": 2012,
      "ĠHowever": 2013,
      "ĠX": 2014,
      "Ġlater": 2015,
      "Ġabove": 2016,
      "Ġhistory": 2017,
      "Ġplease": 2018,
      "Ġcra": 2019,
      "Ġmag": 2020,
      "over": 2021,
      "ĠCont": 2022,
      "ĠOne": 2023,
      "IN": 2024,
      "Ġindustry": 2025,
      "lege": 2026,
      "Ġbar": 2027,
      "Ġrecomm": 2028,
      "ilar": 2029,
      "12": 2030,
      "ources": 2031,
      "illed": 2032,
      "Ġ2016": 2033,
      "Ġamount": 2034,
      "Ġrecommend": 2035,
      "Ġexc": 2036,
      "atural": 2037,
      "ched": 2038,
      "Ġz": 2039,
      "ply": 2040,
      "ili": 2041,
      "Ġphys": 2042,
      "ĠComp": 2043,
      "Ġ14": 2044,
      "fort": 2045,
      "Ġenc": 2046,
      "Ġwhole": 2047,
      "Ġcell": 2048,
      "fact": 2049,
      "Ġwall": 2050,
      "idence": 2051,
      "Ġamong": 2052,
      "Ġcommon": 2053,
      "18": 2054,
      "Ġexam": 2055,
      "Ġpress": 2056,
      ".,": 2057,
      "ume": 2058,
      "Ġpie": 2059,
      "ĠUnited": 2060,
      "Ġprofessional": 2061,
      "ples": 2062,
      "Ġbelieve": 2063,
      "Ġaff": 2064,
      "Ġrelationship": 2065,
      "Ġwon": 2066,
      "Ġchall": 2067,
      "pecially": 2068,
      "ĠWor": 2069,
      "Ġcred": 2070,
      "Ġblack": 2071,
      "Ġvalue": 2072,
      "Ġseen": 2073,
      "Ġhope": 2074,
      "Ġdue": 2075,
      "fully": 2076,
      "Ġbreak": 2077,
      "though": 2078,
      "Ġenvironment": 2079,
      "Ġliving": 2080,
      "ggest": 2081,
      "Ġtax": 2082,
      "Ġmeas": 2083,
      "Ġhy": 2084,
      "Ġbeautiful": 2085,
      "Ġmillion": 2086,
      "gs": 2087,
      "ners": 2088,
      "Ġpolit": 2089,
      "Ġvarious": 2090,
      "ibility": 2091,
      "Ġwriting": 2092,
      "vert": 2093,
      "hers": 2094,
      "Ġprovides": 2095,
      "ino": 2096,
      "Ġtravel": 2097,
      "Ġstore": 2098,
      "Ġcompanies": 2099,
      "ĠEn": 2100,
      "reet": 2101,
      "Ġtype": 2102,
      "Ġperiod": 2103,
      "Ġmess": 2104,
      "Ġface": 2105,
      "Ġinstall": 2106,
      "ĠFl": 2107,
      "ogn": 2108,
      "icult": 2109,
      "Ġbuilding": 2110,
      "Ġdiff": 2111,
      "Ġmanagement": 2112,
      "ĠMed": 2113,
      "Ġwhether": 2114,
      "Ġissues": 2115,
      "iously": 2116,
      "cted": 2117,
      "Ġfront": 2118,
      "Ġpick": 2119,
      "Ġtechnology": 2120,
      "Ġengine": 2121,
      "ided": 2122,
      "Ġclaim": 2123,
      "ĠJohn": 2124,
      "Ġanything": 2125,
      "df": 2126,
      "ĠMore": 2127,
      "ĠSy": 2128,
      "Ġ16": 2129,
      "Ġtaking": 2130,
      "Ġsuggest": 2131,
      "urope": 2132,
      "asing": 2133,
      "ained": 2134,
      "Ġtext": 2135,
      "Ġvi": 2136,
      "He": 2137,
      "ĠBr": 2138,
      "Ġsize": 2139,
      "Ġconsider": 2140,
      "Ġeither": 2141,
      "Ġmor": 2142,
      "ancial": 2143,
      "Ġself": 2144,
      "selves": 2145,
      "Ġbad": 2146,
      "Ġrepl": 2147,
      "unch": 2148,
      "ĠPDF": 2149,
      "rain": 2150,
      "Ġminutes": 2151,
      "iday": 2152,
      "mb": 2153,
      "rict": 2154,
      "Ġquestion": 2155,
      "angu": 2156,
      "eral": 2157,
      "Ġseem": 2158,
      "Ġcard": 2159,
      "ĠRep": 2160,
      "Ġproperty": 2161,
      "Ġquestions": 2162,
      "ĠBo": 2163,
      "Ġidea": 2164,
      "ĠDes": 2165,
      "rew": 2166,
      "Ġperformance": 2167,
      "Ġbrand": 2168,
      "Ġsent": 2169,
      "irt": 2170,
      "Ġsimple": 2171,
      "ON": 2172,
      "Ġimprove": 2173,
      "itted": 2174,
      "Ġpaper": 2175,
      "omes": 2176,
      "Ġquite": 2177,
      "ille": 2178,
      "Ġwatch": 2179,
      "ĠSte": 2180,
      "uation": 2181,
      "Ġfurther": 2182,
      "Ġmedia": 2183,
      "come": 2184,
      "Ġenergy": 2185,
      "ĠMe": 2186,
      "ĠNe": 2187,
      "Ġfive": 2188,
      "che": 2189,
      "Ġ2015": 2190,
      "Ġsubject": 2191,
      "ĠOct": 2192,
      "Ġsn": 2193,
      "ĠGu": 2194,
      "Ġago": 2195,
      "ried": 2196,
      "ison": 2197,
      "ruction": 2198,
      "Ġmodel": 2199,
      "Ġmanag": 2200,
      "ĠInst": 2201,
      "imate": 2202,
      "ĠYour": 2203,
      "chie": 2204,
      "abor": 2205,
      "ps": 2206,
      "Ġcharacter": 2207,
      "Ġabs": 2208,
      "Ġentire": 2209,
      "Ġtraining": 2210,
      "astic": 2211,
      "ued": 2212,
      "Ġaud": 2213,
      "ĠChe": 2214,
      "ler": 2215,
      "Ġsignific": 2216,
      "ES": 2217,
      "Ġalmost": 2218,
      "ufact": 2219,
      "Ġcrit": 2220,
      "itchen": 2221,
      "nam": 2222,
      "pro": 2223,
      "Ġfall": 2224,
      "play": 2225,
      "ĠĠ": 2226,
      "Ġcir": 2227,
      "Ġrequired": 2228,
      "11": 2229,
      "Ġrequest": 2230,
      "ĠJan": 2231,
      "Ġansw": 2232,
      "Ġprovided": 2233,
      "aid": 2234,
      "AR": 2235,
      "Ġtold": 2236,
      "AT": 2237,
      "Ġfunction": 2238,
      "ication": 2239,
      "gle": 2240,
      "Ġreading": 2241,
      "ring": 2242,
      "ĠAfter": 2243,
      "Ġeveryone": 2244,
      "ball": 2245,
      "ification": 2246,
      "Ġwhite": 2247,
      "Ġdeterm": 2248,
      "used": 2249,
      "Ġland": 2250,
      "Ġexist": 2251,
      "Ġcook": 2252,
      "There": 2253,
      "AN": 2254,
      "Ġdesigned": 2255,
      "Ġareas": 2256,
      "aur": 2257,
      "Ġglo": 2258,
      "aching": 2259,
      "Ġunique": 2260,
      "Ġdig": 2261,
      "Ġupd": 2262,
      "ators": 2263,
      "ially": 2264,
      "Ġparent": 2265,
      "ovember": 2266,
      "Ġsystems": 2267,
      "Ġhost": 2268,
      "Ġnecess": 2269,
      "ĠJune": 2270,
      "gest": 2271,
      "Ġgames": 2272,
      "Ġeff": 2273,
      "Ġdam": 2274,
      "vent": 2275,
      "iver": 2276,
      "Ġincludes": 2277,
      "Ġpret": 2278,
      "new": 2279,
      "Ġespecially": 2280,
      "ĠEurope": 2281,
      "af": 2282,
      "Ġ13": 2283,
      "ibr": 2284,
      "Ġselect": 2285,
      "Ġhalf": 2286,
      "olution": 2287,
      "Ġcustomers": 2288,
      "ĠSchool": 2289,
      "Ġpdf": 2290,
      "Ġproblems": 2291,
      "Ġtrying": 2292,
      "Ġ/": 2293,
      "Ġneeded": 2294,
      "ĠJu": 2295,
      "Ġassoci": 2296,
      "Ġtaken": 2297,
      "back": 2298,
      "Ġsimply": 2299,
      "Ġshall": 2300,
      "lex": 2301,
      "umb": 2302,
      "Ġdou": 2303,
      "ensive": 2304,
      "Ġagree": 2305,
      "Ġpopular": 2306,
      "itten": 2307,
      "Ġwide": 2308,
      "Ġdocu": 2309,
      "Ġ17": 2310,
      "Ġbooks": 2311,
      "Ġmiss": 2312,
      "Ġred": 2313,
      "ises": 2314,
      "ĠCal": 2315,
      "Ġrepresent": 2316,
      "Ġdeb": 2317,
      "Ġblog": 2318,
      "Ġthird": 2319,
      "ĠState": 2320,
      "ops": 2321,
      "ĠCity": 2322,
      "Ġoffice": 2323,
      "15": 2324,
      "oon": 2325,
      "ober": 2326,
      "Ġ24": 2327,
      "Ġ50": 2328,
      "Ġrespect": 2329,
      "Ġparticip": 2330,
      "Ġhowever": 2331,
      "Ġposition": 2332,
      "Ġaccept": 2333,
      "Ġprobably": 2334,
      "Ġprint": 2335,
      "ires": 2336,
      "obile": 2337,
      "Ġpercent": 2338,
      "Ġwanted": 2339,
      "ression": 2340,
      "elt": 2341,
      "Ġdate": 2342,
      "lu": 2343,
      "Ġelse": 2344,
      "istic": 2345,
      "Ġassist": 2346,
      "Ġfavor": 2347,
      "ung": 2348,
      "itional": 2349,
      "ï¿": 2350,
      "Ġdifficult": 2351,
      "ï¿½": 2352,
      "Ġtable": 2353,
      "Ġupon": 2354,
      "Ġknowledge": 2355,
      "Ġrather": 2356,
      "Ġ25": 2357,
      "Ġsoftware": 2358,
      "Ġfail": 2359,
      "Ġetc": 2360,
      "Ġ2014": 2361,
      "OR": 2362,
      "Ġsites": 2363,
      "Ġdefin": 2364,
      "ysis": 2365,
      "An": 2366,
      "ĠNovember": 2367,
      "ĠCount": 2368,
      "rown": 2369,
      "Ġparty": 2370,
      "ĠSec": 2371,
      "Ġstat": 2372,
      "Ġextra": 2373,
      "Ġregard": 2374,
      "ĠSouth": 2375,
      "atur": 2376,
      "Ġrad": 2377,
      "Ġsimilar": 2378,
      "Ġill": 2379,
      "St": 2380,
      "Ġsend": 2381,
      "Ġsignificant": 2382,
      "Ġnatural": 2383,
      "ĠStates": 2384,
      "Ġpretty": 2385,
      "ĠSept": 2386,
      "ĠMin": 2387,
      "Ġtas": 2388,
      "Ġsoon": 2389,
      "opy": 2390,
      "reme": 2391,
      "where": 2392,
      "Ġnice": 2393,
      "Ġstruct": 2394,
      "Ġgen": 2395,
      "Ġ:": 2396,
      "resh": 2397,
      "face": 2398,
      "Ġtour": 2399,
      "Ġtakes": 2400,
      "ublic": 2401,
      "ĠIm": 2402,
      "Ġissue": 2403,
      "Ġprep": 2404,
      "For": 2405,
      "val": 2406,
      "Ġstyle": 2407,
      "Ġlat": 2408,
      "Ġstaff": 2409,
      "Ġcomfort": 2410,
      "Ġinit": 2411,
      "erg": 2412,
      "ze": 2413,
      "Ġways": 2414,
      "Ġfoot": 2415,
      "ole": 2416,
      "izing": 2417,
      "Ġgeneral": 2418,
      "Ġevents": 2419,
      "Ġachie": 2420,
      "Ġmatter": 2421,
      "ĠHis": 2422,
      "do": 2423,
      "itting": 2424,
      "Ġoriginal": 2425,
      "ĠAug": 2426,
      "ming": 2427,
      "Ġcomputer": 2428,
      "uary": 2429,
      "Ġgra": 2430,
      "Ġwonder": 2431,
      "ĠNorth": 2432,
      "ama": 2433,
      "uge": 2434,
      "anced": 2435,
      "Ġideas": 2436,
      "Ġwords": 2437,
      "iter": 2438,
      "Ġtrue": 2439,
      "Ġfast": 2440,
      "Ġmach": 2441,
      "apt": 2442,
      "Ġyourself": 2443,
      "Ġnetwork": 2444,
      "Ġamaz": 2445,
      "Ġphone": 2446,
      "Ġreceived": 2447,
      "ĠAust": 2448,
      "Ġapplication": 2449,
      "medi": 2450,
      "ĠWorld": 2451,
      "When": 2452,
      "Ġspend": 2453,
      "Ġnothing": 2454,
      "ĠPres": 2455,
      "Ġsecurity": 2456,
      "my": 2457,
      "ules": 2458,
      "oid": 2459,
      "ĠEd": 2460,
      "Ġcreated": 2461,
      "Ġcoming": 2462,
      "Ġinsurance": 2463,
      "Ġrate": 2464,
      "ights": 2465,
      "eth": 2466,
      "Ġeducation": 2467,
      "ĠGo": 2468,
      "itch": 2469,
      "ĠYork": 2470,
      "Ġlikely": 2471,
      "ival": 2472,
      "Ġcolor": 2473,
      "Ġestab": 2474,
      "Ġimage": 2475,
      "Ġele": 2476,
      "Ġlangu": 2477,
      "ada": 2478,
      "Ġmanufact": 2479,
      "nov": 2480,
      "Ġtreatment": 2481,
      "Ġarticle": 2482,
      "Ġhon": 2483,
      "ĠGr": 2484,
      "ables": 2485,
      "Ġaction": 2486,
      "Ġjour": 2487,
      "ĠBar": 2488,
      "Ġfa": 2489,
      "ams": 2490,
      "Ġusually": 2491,
      "Ġlocated": 2492,
      "Ġroad": 2493,
      "Ġshows": 2494,
      "oph": 2495,
      "Ġchanges": 2496,
      "Ġrisk": 2497,
      "ĠApr": 2498,
      "ĠAb": 2499,
      "Ġinside": 2500,
      "itor": 2501,
      "Ġsle": 2502,
      "On": 2503,
      "Ġmodern": 2504,
      "Ġdetails": 2505,
      "Ġfinancial": 2506,
      "Ġadded": 2507,
      "Ġdom": 2508,
      "ĠNational": 2509,
      "Ġseems": 2510,
      "Ġoil": 2511,
      "Ġcoll": 2512,
      "ades": 2513,
      "minist": 2514,
      "time": 2515,
      "Ġveh": 2516,
      "Ġut": 2517,
      "Ġcannot": 2518,
      "Ġlay": 2519,
      "aining": 2520,
      "Ġcollect": 2521,
      "Ġcorre": 2522,
      "ĠSome": 2523,
      "Ġoutside": 2524,
      "ĠBy": 2525,
      "Ġfire": 2526,
      "Ġchoose": 2527,
      "Ġrecogn": 2528,
      "Ġ2013": 2529,
      "AS": 2530,
      "hib": 2531,
      "Ġsong": 2532,
      "Ġdep": 2533,
      "Ġtrack": 2534,
      "Ġanim": 2535,
      "Ġobject": 2536,
      "rie": 2537,
      "Ġforward": 2538,
      "Ġrole": 2539,
      "pper": 2540,
      "16": 2541,
      "mit": 2542,
      "era": 2543,
      "Ġsens": 2544,
      "ological": 2545,
      "Ġtown": 2546,
      "ĠJust": 2547,
      "Ġinde": 2548,
      "ĠAf": 2549,
      "ĠPol": 2550,
      "Ġhappy": 2551,
      "sy": 2552,
      "ience": 2553,
      "ude": 2554,
      "ĠPlease": 2555,
      "Ġple": 2556,
      "Ġkids": 2557,
      "Ġintrodu": 2558,
      "verage": 2559,
      "ĠPe": 2560,
      "ĠJuly": 2561,
      "Ġaccording": 2562,
      "Ġconsum": 2563,
      "Ġfit": 2564,
      "Ġanyone": 2565,
      "Ġkitchen": 2566,
      "ĠOctober": 2567,
      "Ġtou": 2568,
      "Ġbehind": 2569,
      "14": 2570,
      "Ġisn": 2571,
      "Ġda": 2572,
      "Ġlearning": 2573,
      "Ġswe": 2574,
      "Ġmember": 2575,
      "Ġtar": 2576,
      "Ġnorm": 2577,
      "Ġdest": 2578,
      "Ġsix": 2579,
      "ĠMarch": 2580,
      "Ġdepend": 2581,
      "Ġthroughout": 2582,
      "Ġprivate": 2583,
      "Ġfeature": 2584,
      "ĠPer": 2585,
      "Ġhigher": 2586,
      "ipment": 2587,
      "iet": 2588,
      "reg": 2589,
      "Ġready": 2590,
      "Ġdeath": 2591,
      "icles": 2592,
      "Ġheld": 2593,
      "empt": 2594,
      "head": 2595,
      "aced": 2596,
      "Ġclick": 2597,
      "Ġpractice": 2598,
      "Ġautom": 2599,
      "Ġobs": 2600,
      "dd": 2601,
      "Ġincrease": 2602,
      "icro": 2603,
      "Ġmass": 2604,
      "Ġsafe": 2605,
      "Ġcontinue": 2606,
      "ĠTra": 2607,
      "gress": 2608,
      "Ġground": 2609,
      "Ġcoun": 2610,
      "ĠPart": 2611,
      "ĠSeptember": 2612,
      "action": 2613,
      "Ġoptions": 2614,
      "ĠQu": 2615,
      "airs": 2616,
      "ĠGe": 2617,
      "Ġuser": 2618,
      "Ġrelated": 2619,
      "ĠDr": 2620,
      "Ġpers": 2621,
      "na": 2622,
      "Ġensure": 2623,
      "Ġpark": 2624,
      "Ġwood": 2625,
      "Ġcredit": 2626,
      "Ġreceive": 2627,
      "Ġopportunity": 2628,
      "Ġasked": 2629,
      "ĠTw": 2630,
      "Ġcouple": 2631,
      "Ġ2012": 2632,
      "ox": 2633,
      "Ġbi": 2634,
      "Ġtit": 2635,
      "Ġspeak": 2636,
      "Ġpolicy": 2637,
      "atory": 2638,
      "Ġstop": 2639,
      "Ġinsp": 2640,
      "Ġweeks": 2641,
      "ĠRead": 2642,
      "Ġimpact": 2643,
      "Ġterms": 2644,
      "rs": 2645,
      "Ġfig": 2646,
      "Ġpotential": 2647,
      "Ġtotal": 2648,
      "Ġep": 2649,
      "Ġlonger": 2650,
      "Ġversion": 2651,
      "17": 2652,
      "anc": 2653,
      "aving": 2654,
      "ĠMark": 2655,
      "Ġrunning": 2656,
      "Ġfinal": 2657,
      "Ġneg": 2658,
      "Ġsat": 2659,
      "lim": 2660,
      "llent": 2661,
      "bor": 2662,
      "IS": 2663,
      "Ġrecent": 2664,
      "Ġbox": 2665,
      "Ġmedical": 2666,
      "erc": 2667,
      "Ġwritten": 2668,
      "Ġemb": 2669,
      "ana": 2670,
      "Ġexact": 2671,
      "Ġx": 2672,
      "ĠApril": 2673,
      "irit": 2674,
      "ĠDis": 2675,
      "Ġcustomer": 2676,
      "Ġdrive": 2677,
      "gu": 2678,
      "Ġactivities": 2679,
      "iddle": 2680,
      "Ġinj": 2681,
      "ĠPark": 2682,
      "ding": 2683,
      "Ġitems": 2684,
      "ĠDep": 2685,
      "Ġstri": 2686,
      "ground": 2687,
      "Ġprim": 2688,
      "Ġworth": 2689,
      "pose": 2690,
      "Ġcurrently": 2691,
      "Ġbase": 2692,
      "Ġteac": 2693,
      "Ġpoints": 2694,
      "ĠDon": 2695,
      "Ġannoun": 2696,
      "Ġcontract": 2697,
      "Ġloss": 2698,
      "Ġsales": 2699,
      "cember": 2700,
      "Ġwoman": 2701,
      "Ġmultip": 2702,
      "Ġskills": 2703,
      "Ġwrite": 2704,
      "ĠNow": 2705,
      "Ġregular": 2706,
      "Ġdeg": 2707,
      "Ġconcern": 2708,
      "ĠEm": 2709,
      "Ġleave": 2710,
      "oura": 2711,
      "Ġskin": 2712,
      "Ġbuilt": 2713,
      "ham": 2714,
      "ĠWill": 2715,
      "Ġvia": 2716,
      "Ġrele": 2717,
      "Ġinternational": 2718,
      "Ġbott": 2719,
      "Ġlives": 2720,
      "Ġhol": 2721,
      "enced": 2722,
      "ĠHigh": 2723,
      "Ġusers": 2724,
      "Ġsense": 2725,
      "ĠAugust": 2726,
      "Ġadditional": 2727,
      "idge": 2728,
      "Ġcontrib": 2729,
      "Ġcy": 2730,
      "Ġrecently": 2731,
      "ĠHar": 2732,
      "inary": 2733,
      "Ġimm": 2734,
      "Ġmatch": 2735,
      "ĠAct": 2736,
      "ned": 2737,
      "Ġconditions": 2738,
      "ached": 2739,
      "Ġcam": 2740,
      "Ġhair": 2741,
      "Ġcele": 2742,
      "Ġlocation": 2743,
      "ĠInc": 2744,
      "Ġdeep": 2745,
      "ĠKe": 2746,
      "Ġintegr": 2747,
      "ux": 2748,
      "13": 2749,
      "ĠFeb": 2750,
      "adem": 2751,
      "ese": 2752,
      "Ġamazing": 2753,
      "Ġincluded": 2754,
      "aging": 2755,
      "Ġproduction": 2756,
      ".)": 2757,
      "Ġcause": 2758,
      "imum": 2759,
      "ĠEnglish": 2760,
      "Ġprior": 2761,
      "ĠHere": 2762,
      "Ġmoment": 2763,
      "ffe": 2764,
      "Ġstandard": 2765,
      "Ġmarketing": 2766,
      "Ġpatients": 2767,
      "eter": 2768,
      "hood": 2769,
      "ED": 2770,
      "So": 2771,
      "Ġapproach": 2772,
      "izes": 2773,
      "ief": 2774,
      "oud": 2775,
      "ĠStud": 2776,
      "ĠJanuary": 2777,
      "Ġlatest": 2778,
      "Ġbath": 2779,
      "Ġlooks": 2780,
      "Ġgrad": 2781,
      "Ġbal": 2782,
      "Ġdraw": 2783,
      "oogle": 2784,
      "Ġvariety": 2785,
      "ĠSm": 2786,
      "str": 2787,
      "Ġstock": 2788,
      "urg": 2789,
      "ĠReg": 2790,
      "Ġsaw": 2791,
      "Ġanalysis": 2792,
      "Ġnational": 2793,
      "Ġmyself": 2794,
      "Ġparts": 2795,
      "Ch": 2796,
      "ees": 2797,
      "king": 2798,
      "Ġattend": 2799,
      "Ġgrowth": 2800,
      "25": 2801,
      "put": 2802,
      "fficient": 2803,
      "Ġeasily": 2804,
      "year": 2805,
      "ĠCor": 2806,
      "EN": 2807,
      "AL": 2808,
      "iction": 2809,
      "like": 2810,
      "Ġdel": 2811,
      "Ġthemselves": 2812,
      "Ġchoice": 2813,
      "ĠAg": 2814,
      "uth": 2815,
      "Ġarri": 2816,
      "Ġattack": 2817,
      "duct": 2818,
      "based": 2819,
      "Ġbab": 2820,
      "âĢĵ": 2821,
      "Ġfurn": 2822,
      "ening": 2823,
      "ĠAmerica": 2824,
      "ters": 2825,
      "ĠMc": 2826,
      "Ġweight": 2827,
      "Ġquickly": 2828,
      "Ġcool": 2829,
      "ciety": 2830,
      "iber": 2831,
      "Ġitself": 2832,
      "Ġmother": 2833,
      "Ġ40": 2834,
      "Ġoption": 2835,
      "cil": 2836,
      "ĠWest": 2837,
      "Ġlate": 2838,
      "irth": 2839,
      "Ġcollection": 2840,
      "ales": 2841,
      "ma": 2842,
      "ms": 2843,
      "ĠSpe": 2844,
      "Ġsell": 2845,
      "Ġsqu": 2846,
      "Ġsun": 2847,
      "Ġspeed": 2848,
      "Ġstudent": 2849,
      "ha": 2850,
      "Ġaffect": 2851,
      "ĠDecember": 2852,
      "Ġ198": 2853,
      "sc": 2854,
      "Ġri": 2855,
      "pri": 2856,
      "Ġaw": 2857,
      "Ġpan": 2858,
      "Ġsource": 2859,
      "Ġleaders": 2860,
      "nes": 2861,
      "icated": 2862,
      "Ġprotect": 2863,
      "Ġguide": 2864,
      "IT": 2865,
      "Ġfirm": 2866,
      "ĠBu": 2867,
      "Ġapply": 2868,
      "Ġones": 2869,
      "Ġtarget": 2870,
      "ray": 2871,
      "Ġmix": 2872,
      "Ġarch": 2873,
      "ky": 2874,
      "Ġregist": 2875,
      "Ġfeed": 2876,
      "ĠHouse": 2877,
      "Ġprojects": 2878,
      "Ġsepar": 2879,
      "Ġhands": 2880,
      "Ġability": 2881,
      "rem": 2882,
      "atform": 2883,
      "Ġworked": 2884,
      "Ġofficial": 2885,
      "Ġleading": 2886,
      "Ġsale": 2887,
      "nal": 2888,
      "ĠWar": 2889,
      "Ġmaintain": 2890,
      "'d": 2891,
      "earch": 2892,
      "Ġflow": 2893,
      "cious": 2894,
      "Ġplans": 2895,
      "iff": 2896,
      "Ġsett": 2897,
      "And": 2898,
      "Ġsil": 2899,
      "Ġlost": 2900,
      "Ġscreen": 2901,
      "Ġstra": 2902,
      "Ġprograms": 2903,
      "Ġclos": 2904,
      "ram": 2905,
      "Ġclients": 2906,
      "Ġprin": 2907,
      "erve": 2908,
      "Ġge": 2909,
      "Ġimmedi": 2910,
      "Ġsaf": 2911,
      "just": 2912,
      "Ġlower": 2913,
      "Ġrev": 2914,
      "Ġlevels": 2915,
      "Ġnecessary": 2916,
      "Ġremember": 2917,
      "Ġcomment": 2918,
      "Ġboard": 2919,
      "Ġcode": 2920,
      "Ġcat": 2921,
      "Ġproviding": 2922,
      "iture": 2923,
      "IC": 2924,
      "Ġmeeting": 2925,
      "lier": 2926,
      "AC": 2927,
      "Ġcondition": 2928,
      "ging": 2929,
      "Ġdise": 2930,
      "ĠCounty": 2931,
      "Ġblood": 2932,
      "Ġinvestig": 2933,
      "Ġrights": 2934,
      "Ġmorning": 2935,
      "Ġtypes": 2936,
      "ĠArt": 2937,
      "Ġ2011": 2938,
      "Ġcases": 2939,
      "now": 2940,
      "Ġrent": 2941,
      "ressed": 2942,
      "Ġmention": 2943,
      "Ġeffective": 2944,
      "Ġord": 2945,
      "Ġsection": 2946,
      "Ġpred": 2947,
      "Ġlegal": 2948,
      "cast": 2949,
      "Ġmount": 2950,
      "OC": 2951,
      "Ġlanguage": 2952,
      "ĠPar": 2953,
      "Ġviol": 2954,
      "erous": 2955,
      "Ġhighly": 2956,
      "Ġallows": 2957,
      "ĠPresident": 2958,
      "Ġinstead": 2959,
      "partment": 2960,
      "Ġremov": 2961,
      "ruary": 2962,
      "But": 2963,
      "ivity": 2964,
      "ĠFin": 2965,
      "Ġsolution": 2966,
      "hern": 2967,
      "Ġhuge": 2968,
      "60": 2969,
      "Ġmat": 2970,
      "Ġinteresting": 2971,
      "Ġpurchase": 2972,
      "ĠSw": 2973,
      "ĠAfric": 2974,
      "ĠUs": 2975,
      "oke": 2976,
      "Ġcross": 2977,
      "ishing": 2978,
      "ĠGerm": 2979,
      "iles": 2980,
      "eal": 2981,
      "Ġmaterials": 2982,
      "Ġdoor": 2983,
      "ny": 2984,
      "Ġexcellent": 2985,
      "Ġfloor": 2986,
      "ĠCenter": 2987,
      "Ġpolitical": 2988,
      "itely": 2989,
      "Ġformer": 2990,
      "ĠAustral": 2991,
      "Ġcountries": 2992,
      "hold": 2993,
      "wood": 2994,
      "Ġsummer": 2995,
      "lled": 2996,
      "Ġglobal": 2997,
      "atives": 2998,
      "Ġball": 2999,
      "cip": 3000,
      "ĠHealth": 3001,
      "Ġlif": 3002,
      "reng": 3003,
      "onse": 3004,
      "Ġgoes": 3005,
      "Ġbud": 3006,
      "haps": 3007,
      "Ġplaying": 3008,
      "Ġparents": 3009,
      "ĠHer": 3010,
      "Ġdevice": 3011,
      "Ġchalleng": 3012,
      "usion": 3013,
      "ought": 3014,
      "ĠWhile": 3015,
      "Ġinvolved": 3016,
      "ography": 3017,
      "Ġdisplay": 3018,
      "Ġdru": 3019,
      "verse": 3020,
      "Ġdecision": 3021,
      "Ġdecided": 3022,
      "ĠBrit": 3023,
      "iring": 3024,
      "Ġattempt": 3025,
      "apan": 3026,
      "Ġcompletely": 3027,
      "Ġround": 3028,
      "Ġpath": 3029,
      "urb": 3030,
      "ule": 3031,
      "chan": 3032,
      "Ġgroups": 3033,
      "Ġbecame": 3034,
      "Ġlab": 3035,
      "Ġhor": 3036,
      "Ġgives": 3037,
      "ecut": 3038,
      "ĠOff": 3039,
      "Ġtrust": 3040,
      "Ġequipment": 3041,
      "Ġchance": 3042,
      "idered": 3043,
      "RE": 3044,
      "Ġrout": 3045,
      "hel": 3046,
      "Ġcareer": 3047,
      "Ġdiv": 3048,
      "Ġ2010": 3049,
      "Ġbank": 3050,
      "Ġattention": 3051,
      "Ġwrong": 3052,
      "rows": 3053,
      "ĠUK": 3054,
      "ests": 3055,
      "Ġfavorite": 3056,
      "Ġgets": 3057,
      "Ġobtain": 3058,
      "illing": 3059,
      "Ġphotos": 3060,
      "Ġcand": 3061,
      "What": 3062,
      "ĠFrom": 3063,
      "zy": 3064,
      "Ġinflu": 3065,
      "enty": 3066,
      "inc": 3067,
      "oll": 3068,
      "Ġappl": 3069,
      "Ġsave": 3070,
      "aign": 3071,
      "ension": 3072,
      "Ġcas": 3073,
      "Ġextreme": 3074,
      "ĠThen": 3075,
      "Ġdaily": 3076,
      "wise": 3077,
      "itation": 3078,
      "Ġpublished": 3079,
      "Ġsold": 3080,
      "Ġthinking": 3081,
      "het": 3082,
      "Ġsurpr": 3083,
      "ession": 3084,
      "Ġfight": 3085,
      "ondon": 3086,
      "uel": 3087,
      "Ġconcept": 3088,
      "mission": 3089,
      "Ġmobile": 3090,
      "Ġimages": 3091,
      "ĠAcc": 3092,
      "artment": 3093,
      "amb": 3094,
      "iding": 3095,
      "cul": 3096,
      "Ġtools": 3097,
      "Ġhear": 3098,
      "ĠTV": 3099,
      "orage": 3100,
      "Ġsafety": 3101,
      "Ġstuff": 3102,
      "Ġcomplex": 3103,
      "rought": 3104,
      "arter": 3105,
      "ibly": 3106,
      "Ġdistrib": 3107,
      "ĠEl": 3108,
      "ederal": 3109,
      "OT": 3110,
      "Ġexpert": 3111,
      "aves": 3112,
      "Ġnature": 3113,
      "amed": 3114,
      "Ġplayers": 3115,
      "Ġenter": 3116,
      "Ġfresh": 3117,
      "Ġplant": 3118,
      "Ġqual": 3119,
      "Ġbegan": 3120,
      "Ġanswer": 3121,
      "ĠMus": 3122,
      "Ġaverage": 3123,
      "Ġinterested": 3124,
      "ĠInt": 3125,
      "right": 3126,
      "Ġgoal": 3127,
      "Ġresources": 3128,
      "Ġfix": 3129,
      "aged": 3130,
      "To": 3131,
      "Ġcenter": 3132,
      "Ġcommer": 3133,
      "asons": 3134,
      "Ġplatform": 3135,
      "Ġpiece": 3136,
      "nds": 3137,
      "ris": 3138,
      "ags": 3139,
      "Ġadult": 3140,
      "Ġgiving": 3141,
      "avy": 3142,
      "\".": 3143,
      "ĠMr": 3144,
      "Ġdocument": 3145,
      "Ġcosts": 3146,
      "Ġdark": 3147,
      "40": 3148,
      "band": 3149,
      "Ġdeveloped": 3150,
      "...]": 3151,
      "Ġvac": 3152,
      "Ġdrink": 3153,
      "ĠMon": 3154,
      "Ġhit": 3155,
      "Ġfair": 3156,
      "mark": 3157,
      "uses": 3158,
      "aul": 3159,
      "Ġpicture": 3160,
      "Ġdigital": 3161,
      "ĠFebruary": 3162,
      "sych": 3163,
      "Ġapplications": 3164,
      "Our": 3165,
      "Ġjud": 3166,
      "ĠAut": 3167,
      "ĠDav": 3168,
      "Al": 3169,
      "ties": 3170,
      "Ġfully": 3171,
      "Ġfelt": 3172,
      "Ġmultiple": 3173,
      "Ġdirectly": 3174,
      "aly": 3175,
      "ashion": 3176,
      "Ġsometimes": 3177,
      "Ġeyes": 3178,
      "Ġrestaur": 3179,
      "Ã©": 3180,
      "itary": 3181,
      "su": 3182,
      "Ġimplement": 3183,
      "Ġsolutions": 3184,
      "Ġconsidered": 3185,
      "attle": 3186,
      "Ġencoura": 3187,
      "agn": 3188,
      "oul": 3189,
      "Ġrelease": 3190,
      "Ġbra": 3191,
      "Ġinternet": 3192,
      "arden": 3193,
      "Ġstreng": 3194,
      "oting": 3195,
      "Ġdream": 3196,
      "Ġmovie": 3197,
      "ville": 3198,
      "Ġblock": 3199,
      "aries": 3200,
      "Ġbenefits": 3201,
      "Ġtouch": 3202,
      "Ġpropos": 3203,
      "Ġphysical": 3204,
      "Ġadminist": 3205,
      "ĠInternational": 3206,
      "Ġcopy": 3207,
      "Ġsubst": 3208,
      "Ġactivity": 3209,
      "Ġwasn": 3210,
      "olute": 3211,
      "usiness": 3212,
      "Ġ21": 3213,
      "Ġgave": 3214,
      "antly": 3215,
      "Ġconnect": 3216,
      "Ġcourt": 3217,
      "mon": 3218,
      "Ġded": 3219,
      "Ġlimited": 3220,
      "Ġcommit": 3221,
      "iforn": 3222,
      "Ġtal": 3223,
      "ĠVal": 3224,
      "ĠDay": 3225,
      "Ġeffects": 3226,
      "aches": 3227,
      "My": 3228,
      "Ġreve": 3229,
      "Ġcelebr": 3230,
      "imately": 3231,
      "bit": 3232,
      "Ġfine": 3233,
      "ek": 3234,
      "Ġbehav": 3235,
      "Ġpurpose": 3236,
      "Ġsche": 3237,
      "Ġsus": 3238,
      "Ġinstru": 3239,
      "Ġpositive": 3240,
      "Ġtowards": 3241,
      "vey": 3242,
      "ĠFree": 3243,
      "Ġprem": 3244,
      "Ġband": 3245,
      "board": 3246,
      "Ġoffe": 3247,
      "ength": 3248,
      "mas": 3249,
      "Ġload": 3250,
      "ĠGener": 3251,
      "Ġpull": 3252,
      "Ġcert": 3253,
      "uate": 3254,
      "ĠAir": 3255,
      "iam": 3256,
      "more": 3257,
      "Ġfem": 3258,
      "yond": 3259,
      "With": 3260,
      "Ġplaces": 3261,
      "Ġstories": 3262,
      "Ġneigh": 3263,
      "Ġanaly": 3264,
      "Ġlic": 3265,
      "Ġprevent": 3266,
      "Ġconsist": 3267,
      "ĠBlack": 3268,
      "Ġposted": 3269,
      "Ġheard": 3270,
      "ĠWas": 3271,
      "ST": 3272,
      "ester": 3273,
      "Ġculture": 3274,
      "rences": 3275,
      "ifornia": 3276,
      "omen": 3277,
      "Ġhimself": 3278,
      "itable": 3279,
      "Ġorganization": 3280,
      "Ġ22": 3281,
      "Ġmid": 3282,
      "Ġhistor": 3283,
      "Ġnote": 3284,
      "Ġgold": 3285,
      "etic": 3286,
      "ores": 3287,
      "Ġliter": 3288,
      "Ġtraditional": 3289,
      "Ġbur": 3290,
      "error": 3291,
      "Ġsaying": 3292,
      "off": 3293,
      "rench": 3294,
      "orge": 3295,
      "ĠCour": 3296,
      "Ġresponse": 3297,
      "Ġindividuals": 3298,
      "Ġunderstanding": 3299,
      "ĠSan": 3300,
      "Ġborn": 3301,
      "Ġcapt": 3302,
      "sequ": 3303,
      "cription": 3304,
      "ĠBro": 3305,
      "How": 3306,
      "body": 3307,
      "lation": 3308,
      "ica": 3309,
      "Ġfrequ": 3310,
      "Ġcorrect": 3311,
      "reci": 3312,
      "itution": 3313,
      "ĠEvery": 3314,
      "Ġhotel": 3315,
      "Ġgreen": 3316,
      "ĠChar": 3317,
      "ĠLondon": 3318,
      "isions": 3319,
      "Ġwish": 3320,
      "Ġrelig": 3321,
      "ĠIndia": 3322,
      "cies": 3323,
      "Ġprices": 3324,
      "Ġassess": 3325,
      "Ġtrip": 3326,
      "Ġfather": 3327,
      "itute": 3328,
      "Ġcollege": 3329,
      "Ġhelps": 3330,
      "Ġcampaign": 3331,
      "Ġson": 3332,
      "Ġdire": 3333,
      "Ġpictures": 3334,
      "Ġcirc": 3335,
      "Ġplanning": 3336,
      "ari": 3337,
      "ĠService": 3338,
      "Ġsubs": 3339,
      "Ġwarm": 3340,
      "Ġ197": 3341,
      "Ġsuccessful": 3342,
      "Ġimag": 3343,
      "arily": 3344,
      "Ġinnov": 3345,
      "Ġbroad": 3346,
      "ĠOf": 3347,
      "Ġaltern": 3348,
      "Ġacqu": 3349,
      "isf": 3350,
      "Ġstudies": 3351,
      "Ġcarry": 3352,
      "ĠRuss": 3353,
      "Ġwonderful": 3354,
      "ĠAssoci": 3355,
      "ĠJes": 3356,
      "Ġeye": 3357,
      "Ġachieve": 3358,
      "Ġult": 3359,
      "ĠDepartment": 3360,
      "ube": 3361,
      "Ġdefinitely": 3362,
      "ĠJapan": 3363,
      "At": 3364,
      "AM": 3365,
      "Ġbirth": 3366,
      "Ġpen": 3367,
      "Ġaim": 3368,
      "Ġscience": 3369,
      "Ġaware": 3370,
      "Ġslow": 3371,
      "ĠGoogle": 3372,
      "Ġassociated": 3373,
      "oms": 3374,
      "Ġhous": 3375,
      "Ġstates": 3376,
      "ague": 3377,
      "ĠSer": 3378,
      "ously": 3379,
      "ancy": 3380,
      "ĠAc": 3381,
      "ivil": 3382,
      "Ġhour": 3383,
      "Ġprevious": 3384,
      "Ġdy": 3385,
      "ilies": 3386,
      "Ġwel": 3387,
      "ĠAlso": 3388,
      "Ġsituation": 3389,
      "Ġglass": 3390,
      "enge": 3391,
      "Ġdemon": 3392,
      "Ġdead": 3393,
      "Ġthous": 3394,
      "Ġexactly": 3395,
      "ĠDirect": 3396,
      "ications": 3397,
      "Ġten": 3398,
      "Re": 3399,
      "Ġreleased": 3400,
      "Ġdeliver": 3401,
      "Ġtried": 3402,
      "Ġshown": 3403,
      "rote": 3404,
      "Ġrequirements": 3405,
      "Ġcab": 3406,
      "Ġindepend": 3407,
      "Ġregul": 3408,
      "Ġowners": 3409,
      "Ġpattern": 3410,
      "Ġpartners": 3411,
      "ĠChina": 3412,
      "Ġled": 3413,
      "Ġadvert": 3414,
      "Ġstru": 3415,
      "Ġstarting": 3416,
      "Ġmessage": 3417,
      "200": 3418,
      "oly": 3419,
      "Ġspirit": 3420,
      "unt": 3421,
      "Ġvehicle": 3422,
      "Ġbrought": 3423,
      "Ġreported": 3424,
      "Ġexpected": 3425,
      "ĠDist": 3426,
      "Ġter": 3427,
      "Ġsleep": 3428,
      "Ġtemper": 3429,
      "Ġpaid": 3430,
      "raft": 3431,
      "Ġwife": 3432,
      "ĠAdd": 3433,
      "Ġknew": 3434,
      "aker": 3435,
      "ronic": 3436,
      "rast": 3437,
      "ara": 3438,
      "Ġuses": 3439,
      "Ġgirls": 3440,
      "ĠCommun": 3441,
      "Ġreach": 3442,
      "Ġappropri": 3443,
      "Ġgrowing": 3444,
      "wor": 3445,
      "Ġweeke": 3446,
      "Ġmax": 3447,
      "ĠKing": 3448,
      "ĀĀ": 3449,
      "ĠFace": 3450,
      "Ġcreating": 3451,
      "oming": 3452,
      "ĠCons": 3453,
      "Ġconvers": 3454,
      "Ġinterview": 3455,
      "Ġmis": 3456,
      "ÂŃ": 3457,
      "Ġvict": 3458,
      "Ġmachine": 3459,
      "Ġexerc": 3460,
      "Ġoccur": 3461,
      "ĠRed": 3462,
      "Ġcommercial": 3463,
      "Ġstage": 3464,
      "ĠHome": 3465,
      "Ġregion": 3466,
      "Ġgar": 3467,
      "ĠMost": 3468,
      "Ġaccom": 3469,
      "pre": 3470,
      "Ġdifference": 3471,
      "aught": 3472,
      "aughter": 3473,
      "Ġenh": 3474,
      "Ġplayed": 3475,
      "wide": 3476,
      "rel": 3477,
      "arant": 3478,
      "ĠServices": 3479,
      "ceed": 3480,
      "Ġmaybe": 3481,
      "itter": 3482,
      "uted": 3483,
      "Ġgas": 3484,
      "idents": 3485,
      "Ġshop": 3486,
      "Ġcertainly": 3487,
      "Ġfinally": 3488,
      "Ġturned": 3489,
      "Ġstorage": 3490,
      "Ġstrateg": 3491,
      "Ġrock": 3492,
      "ibrary": 3493,
      "ĠCoun": 3494,
      "Ġclub": 3495,
      "aint": 3496,
      "ĠDesign": 3497,
      "ĠSim": 3498,
      "zz": 3499,
      "bum": 3500,
      "urt": 3501,
      "key": 3502,
      "Ġfeeling": 3503,
      "ares": 3504,
      "ospital": 3505,
      "ett": 3506,
      "Ġver": 3507,
      "bert": 3508,
      "Ġavoid": 3509,
      "mm": 3510,
      "pite": 3511,
      "iment": 3512,
      "Ġlog": 3513,
      "ĠCalifornia": 3514,
      "Ġmeasure": 3515,
      "Ġadvant": 3516,
      "Ġphoto": 3517,
      "ĠSci": 3518,
      "hest": 3519,
      "Ġpressure": 3520,
      "Ġwed": 3521,
      "ĠMich": 3522,
      "Ġcompon": 3523,
      "Ġaspect": 3524,
      "Ġdefe": 3525,
      "ĠTH": 3526,
      "erved": 3527,
      "unk": 3528,
      "Ġmoving": 3529,
      "formation": 3530,
      "Ġlack": 3531,
      "ford": 3532,
      "Ġloved": 3533,
      "sp": 3534,
      "Ġconsult": 3535,
      "olic": 3536,
      "itect": 3537,
      "ĠSund": 3538,
      "Ġmechan": 3539,
      "mitted": 3540,
      "ĠLaw": 3541,
      "ĠCollege": 3542,
      "istics": 3543,
      "estern": 3544,
      "ĠFriday": 3545,
      "ĠPri": 3546,
      "Ġmanual": 3547,
      "Ġorganiz": 3548,
      "Ġfarm": 3549,
      "Ġsort": 3550,
      "sec": 3551,
      "Ġfurniture": 3552,
      "ĠBook": 3553,
      "Ġeffort": 3554,
      "ĠPat": 3555,
      "ĠFirst": 3556,
      "22": 3557,
      "Ġ23": 3558,
      "Ġdry": 3559,
      "Ġeconomic": 3560,
      "ened": 3561,
      "lam": 3562,
      "ĠPre": 3563,
      "Ġconstruction": 3564,
      "ipping": 3565,
      "Ġspent": 3566,
      "Ġbeginning": 3567,
      "Ġtick": 3568,
      "anch": 3569,
      "Ġabsolute": 3570,
      "ww": 3571,
      "Ġindic": 3572,
      "ĠNet": 3573,
      "ĠWind": 3574,
      "Ġtruly": 3575,
      "Ġsupply": 3576,
      "ĠGroup": 3577,
      "Ġsurface": 3578,
      "undred": 3579,
      "ĠInternet": 3580,
      "uk": 3581,
      "Ġprofession": 3582,
      "rial": 3583,
      "ustr": 3584,
      "AP": 3585,
      "Ġjoin": 3586,
      "Ġ2009": 3587,
      "Ġfab": 3588,
      "Ġpool": 3589,
      "Ġadvice": 3590,
      "ĠGreat": 3591,
      "tee": 3592,
      "Ġevidence": 3593,
      "Ġprefer": 3594,
      "gar": 3595,
      "Ġbasic": 3596,
      "Ġspot": 3597,
      "dom": 3598,
      "lin": 3599,
      "aturday": 3600,
      "Ġemot": 3601,
      "Ġwait": 3602,
      "Ġbaby": 3603,
      "Ġproced": 3604,
      "Ġheat": 3605,
      "Ġtransfer": 3606,
      "ĠTrans": 3607,
      "Ġwants": 3608,
      "Ġcharge": 3609,
      "Ġmethods": 3610,
      "cript": 3611,
      "add": 3612,
      "Ġfant": 3613,
      "ĠEar": 3614,
      "mat": 3615,
      "Ġappreci": 3616,
      "iable": 3617,
      "Ġpages": 3618,
      "Ġeat": 3619,
      "Ġnormal": 3620,
      "Ġmeaning": 3621,
      "Ġbeyond": 3622,
      "change": 3623,
      "Ġhealthy": 3624,
      "Ġund": 3625,
      "Ġdog": 3626,
      "Ġextend": 3627,
      "Ġchem": 3628,
      "duc": 3629,
      "ida": 3630,
      "ĠJesus": 3631,
      "Ġedition": 3632,
      "Ġrates": 3633,
      "OS": 3634,
      "Ġtrade": 3635,
      "Ġ60": 3636,
      "Ġcateg": 3637,
      "Ġprogress": 3638,
      "ald": 3639,
      "Ġactive": 3640,
      "Ġpolice": 3641,
      "Ġbasis": 3642,
      "istry": 3643,
      "Ġbedroom": 3644,
      "Ġlooked": 3645,
      "iced": 3646,
      "Ġscient": 3647,
      "Ġfamilies": 3648,
      "Ġcorpor": 3649,
      "Ġfeet": 3650,
      "Ġlots": 3651,
      "Ġchurch": 3652,
      "ĠBusiness": 3653,
      "Ġdisease": 3654,
      "Ġessential": 3655,
      "Ġnation": 3656,
      "enior": 3657,
      "Ġ[...]": 3658,
      "Ġfra": 3659,
      "Ġdecor": 3660,
      "atever": 3661,
      "Ġclient": 3662,
      "Ġincreased": 3663,
      "rael": 3664,
      "ĠThanks": 3665,
      "Ġframe": 3666,
      "Ġlargest": 3667,
      "Ġsurround": 3668,
      "All": 3669,
      "Ġmiddle": 3670,
      "Ġnovel": 3671,
      "Ġopin": 3672,
      "Ġstraight": 3673,
      "Ġschools": 3674,
      "ĠAre": 3675,
      "Ġdegree": 3676,
      "Ġmodels": 3677,
      "âĢĿ.": 3678,
      "ĠEast": 3679,
      "Ġplayer": 3680,
      "Ġhus": 3681,
      "ĠEven": 3682,
      "Ġdamage": 3683,
      "Ġaward": 3684,
      "olf": 3685,
      "Ġstar": 3686,
      "inated": 3687,
      "aling": 3688,
      "24": 3689,
      "Ġtransport": 3690,
      "ruit": 3691,
      "Ġalone": 3692,
      "Ġresponsible": 3693,
      "ĠTechn": 3694,
      "Ġeval": 3695,
      "Ġalthough": 3696,
      "Ġimmediately": 3697,
      "Ġcells": 3698,
      "Ġdemand": 3699,
      "Ġclin": 3700,
      "Ġsmart": 3701,
      "place": 3702,
      "ĠJe": 3703,
      "ĠProf": 3704,
      "Ġâ": 3705,
      "Ġaccur": 3706,
      "Ġstructure": 3707,
      "Ġalbum": 3708,
      "Ġfat": 3709,
      "TM": 3710,
      "Ġ28": 3711,
      "ategy": 3712,
      "vis": 3713,
      "ĠGl": 3714,
      "Ġoffered": 3715,
      "Ġunit": 3716,
      "Ġcash": 3717,
      "oday": 3718,
      "vest": 3719,
      "Ġnearly": 3720,
      "Ġcapital": 3721,
      "Ġrespond": 3722,
      "Ġincreasing": 3723,
      "gen": 3724,
      "Ġuseful": 3725,
      "Ġemployees": 3726,
      "Ġsurv": 3727,
      "One": 3728,
      "hens": 3729,
      "OU": 3730,
      "Ġrace": 3731,
      "nded": 3732,
      "Ġ=": 3733,
      "Ġfashion": 3734,
      "Ġinvestment": 3735,
      "ĠFacebook": 3736,
      "Ġrules": 3737,
      "Ġparticularly": 3738,
      "ĠWell": 3739,
      "porary": 3740,
      "Ġvill": 3741,
      "Ġarr": 3742,
      "ses": 3743,
      "Ġden": 3744,
      "Ġbusinesses": 3745,
      "Ġwhose": 3746,
      "ĠChurch": 3747,
      "ĠMet": 3748,
      "Ġopportunities": 3749,
      "ani": 3750,
      "ĠOb": 3751,
      "Ġpresident": 3752,
      "iation": 3753,
      "alt": 3754,
      "Ġlik": 3755,
      "Ġcry": 3756,
      "iques": 3757,
      "Ġplus": 3758,
      "field": 3759,
      "ĠWed": 3760,
      "arr": 3761,
      "house": 3762,
      "ĠChristian": 3763,
      "vin": 3764,
      "Ġbudget": 3765,
      "Ġoffering": 3766,
      "Ġattract": 3767,
      "Ġreviews": 3768,
      "ager": 3769,
      "Ġdress": 3770,
      "Ġexperienced": 3771,
      "ĠAny": 3772,
      "Ġlines": 3773,
      "Ġpet": 3774,
      "Ġdevices": 3775,
      "Ġhop": 3776,
      "Ġir": 3777,
      "Ġcomfortable": 3778,
      "set": 3779,
      "Ġcontain": 3780,
      "usive": 3781,
      "Ġserious": 3782,
      "Ġhundred": 3783,
      "Ġforce": 3784,
      "ament": 3785,
      "ĠCompany": 3786,
      "door": 3787,
      "que": 3788,
      "Ġpowerful": 3789,
      "Ġbenefit": 3790,
      "atively": 3791,
      "Ġsatisf": 3792,
      "Ġthreat": 3793,
      "Ġguys": 3794,
      "ET": 3795,
      "ĠGet": 3796,
      "Ġchanged": 3797,
      "Ġdelivery": 3798,
      "Ġwrote": 3799,
      "Ġweekend": 3800,
      "ĠLa": 3801,
      "ils": 3802,
      "ĠSaturday": 3803,
      "friend": 3804,
      "EC": 3805,
      "Ġcancer": 3806,
      "Ġdoll": 3807,
      "Ġadjust": 3808,
      "Ġtalking": 3809,
      "Ġtitle": 3810,
      "ker": 3811,
      "23": 3812,
      "Ġgrand": 3813,
      "ĠSunday": 3814,
      "Ġcentury": 3815,
      "Ġcheap": 3816,
      "ĠLet": 3817,
      "org": 3818,
      "Ġdouble": 3819,
      "ĠEuropean": 3820,
      "Ġ2008": 3821,
      "inner": 3822,
      "Ġnumbers": 3823,
      "Ġlength": 3824,
      "Ġgraph": 3825,
      "ĠÂ£": 3826,
      "asc": 3827,
      "oot": 3828,
      "Ġselection": 3829,
      "ĠBest": 3830,
      "After": 3831,
      "Ġ27": 3832,
      "ĠIndian": 3833,
      "iant": 3834,
      "Ph": 3835,
      "otes": 3836,
      "order": 3837,
      "Ġclot": 3838,
      "ĠMany": 3839,
      "Ġreflect": 3840,
      "ĠWeb": 3841,
      "Ġregarding": 3842,
      "rapy": 3843,
      "Ġguy": 3844,
      "ĠOut": 3845,
      "Ġmanufacture": 3846,
      "Ġmer": 3847,
      "agra": 3848,
      "Ġreplace": 3849,
      "Ġafford": 3850,
      "Ġmiles": 3851,
      "Ġsetting": 3852,
      "Ġpsych": 3853,
      "Ġoverall": 3854,
      "bon": 3855,
      "Ġextremely": 3856,
      "Ġpow": 3857,
      "ask": 3858,
      "99": 3859,
      "Ġble": 3860,
      "ĠCanada": 3861,
      "EO": 3862,
      "Ġstress": 3863,
      "Ġcompared": 3864,
      "Ġnut": 3865,
      "Ġpeace": 3866,
      "well": 3867,
      "word": 3868,
      "ocr": 3869,
      "Ġemerg": 3870,
      "ĠUp": 3871,
      "Ġpatient": 3872,
      "Ġnotice": 3873,
      "lock": 3874,
      "ipped": 3875,
      "Ġgreater": 3876,
      "iny": 3877,
      "Ġcru": 3878,
      "Ġ26": 3879,
      "ĠOther": 3880,
      "Ġreports": 3881,
      "ĠPort": 3882,
      "Ġoccas": 3883,
      "80": 3884,
      "Ġwild": 3885,
      "isc": 3886,
      "Ġeasier": 3887,
      "IG": 3888,
      "Be": 3889,
      "ĠÐ": 3890,
      "Ġfear": 3891,
      "Ġcontinu": 3892,
      "Ġserve": 3893,
      "Ġguarant": 3894,
      "Ġviews": 3895,
      "inate": 3896,
      "Ġdrop": 3897,
      "roll": 3898,
      "ifying": 3899,
      "Ġhomes": 3900,
      "Ġdoub": 3901,
      "Ġthank": 3902,
      "reed": 3903,
      "Ġblue": 3904,
      "Ġbackground": 3905,
      "Ġmaster": 3906,
      "ĠStreet": 3907,
      "itude": 3908,
      "ĠIr": 3909,
      "PS": 3910,
      "ooth": 3911,
      "__": 3912,
      "ulf": 3913,
      "Ġtruth": 3914,
      "Ġappropriate": 3915,
      "ĠGood": 3916,
      "Ġtrain": 3917,
      "Ġfiles": 3918,
      "OM": 3919,
      "rant": 3920,
      "fl": 3921,
      "ID": 3922,
      "Ġbathroom": 3923,
      "ault": 3924,
      "Ġelectric": 3925,
      "ael": 3926,
      "Ġcharacters": 3927,
      "cont": 3928,
      "col": 3929,
      "Ġbrows": 3930,
      "Ġsociety": 3931,
      "Ġideal": 3932,
      "Ġearlier": 3933,
      "ĠPal": 3934,
      "hington": 3935,
      "ĠMod": 3936,
      ".[": 3937,
      "Ġfaith": 3938,
      "Ġproduce": 3939,
      "ĠIsrael": 3940,
      "Ġhusband": 3941,
      "ĠChristmas": 3942,
      "encies": 3943,
      "ls": 3944,
      "Ġvideos": 3945,
      "ancing": 3946,
      "ĠSystem": 3947,
      "Ġcold": 3948,
      "aled": 3949,
      "anging": 3950,
      "Ġmoved": 3951,
      "\",": 3952,
      "ĠEduc": 3953,
      "Ġvoice": 3954,
      "Ġcast": 3955,
      "Ġgenerally": 3956,
      "Ġpartner": 3957,
      "ologies": 3958,
      "see": 3959,
      "Ġreasons": 3960,
      "Ġthanks": 3961,
      "ĠBritish": 3962,
      "Ġprotection": 3963,
      "Ġcandid": 3964,
      "imal": 3965,
      "nown": 3966,
      "paper": 3967,
      "Ġentertain": 3968,
      "ĠII": 3969,
      "Ġestate": 3970,
      "Ġdat": 3971,
      "Ġcreative": 3972,
      "hy": 3973,
      "Ġestablished": 3974,
      "Ġdescribed": 3975,
      "oted": 3976,
      "iling": 3977,
      "onday": 3978,
      "Ġreduce": 3979,
      "Ġcove": 3980,
      "Ġjobs": 3981,
      "ico": 3982,
      "itar": 3983,
      "ĠDown": 3984,
      "Ġincome": 3985,
      "Ġpayment": 3986,
      "Ġboy": 3987,
      "ĠNews": 3988,
      "ĠWhite": 3989,
      "Ġmilitary": 3990,
      "force": 3991,
      "rim": 3992,
      "Sh": 3993,
      "Ġperhaps": 3994,
      "Ġfinish": 3995,
      "LL": 3996,
      "ING": 3997,
      "Ġallowed": 3998,
      "ĠCourt": 3999,
      "Ġ+": 4000,
      "Ġexisting": 4001,
      "overed": 4002,
      "ship": 4003,
      "Ġcouldn": 4004,
      "ĠDem": 4005,
      "Ġtrou": 4006,
      "Ġentry": 4007,
      "Ġpoor": 4008,
      "Ġessay": 4009,
      "Ġdemonstr": 4010,
      "Ġstatement": 4011,
      "Ġrepair": 4012,
      "ĠDOC": 4013,
      "Ġprimary": 4014,
      "Ġweather": 4015,
      "Ġchallenge": 4016,
      "esome": 4017,
      "cause": 4018,
      "lands": 4019,
      "lear": 4020,
      "Ġpopulation": 4021,
      "riage": 4022,
      "Ġowner": 4023,
      "BC": 4024,
      "Ġremain": 4025,
      "Ġwear": 4026,
      "Ġsports": 4027,
      "ĠSee": 4028,
      "urning": 4029,
      "Ġgoals": 4030,
      "Ġproduced": 4031,
      "Ġtips": 4032,
      "umn": 4033,
      "ĠĠĠĠ": 4034,
      "bing": 4035,
      "ĠPaul": 4036,
      "ĠAss": 4037,
      "Ġstrugg": 4038,
      "Ġexecut": 4039,
      "Ġresist": 4040,
      "Ġannual": 4041,
      "Ġincred": 4042,
      "Ġolder": 4043,
      "icip": 4044,
      "apter": 4045,
      "Ġstrength": 4046,
      "ĠSch": 4047,
      "Ġearth": 4048,
      "ĠInter": 4049,
      "Ġutil": 4050,
      "arc": 4051,
      "ĠHot": 4052,
      "inese": 4053,
      "Ġconnection": 4054,
      "ĠFrench": 4055,
      "Ġfinding": 4056,
      "Ġrefer": 4057,
      "levant": 4058,
      "Ġpleas": 4059,
      "rief": 4060,
      "Ġdang": 4061,
      "Ġtherefore": 4062,
      "Ġchann": 4063,
      "ĠDel": 4064,
      "Ġgift": 4065,
      "Ġcit": 4066,
      "Ġstick": 4067,
      "Ġhelping": 4068,
      "ounds": 4069,
      "Ġcommunication": 4070,
      "ĠPost": 4071,
      "ĠTrump": 4072,
      "Ġlinks": 4073,
      "Ġsym": 4074,
      "ĠDavid": 4075,
      "Ġbottom": 4076,
      "coming": 4077,
      "Ġhighest": 4078,
      "Ġitem": 4079,
      "Ġannounced": 4080,
      "Ġexcl": 4081,
      "ĠBel": 4082,
      "Ġesc": 4083,
      "pective": 4084,
      "Ġpresented": 4085,
      "Ġsteps": 4086,
      "Ġdied": 4087,
      "Ġbrother": 4088,
      "Ġactual": 4089,
      "Ġfollowed": 4090,
      "ken": 4091,
      "apers": 4092,
      "Ġmovement": 4093,
      "Ġhelped": 4094,
      "Ġappoint": 4095,
      "Ġsty": 4096,
      "Ġflu": 4097,
      "Ġstrategy": 4098,
      "ĠEach": 4099,
      "Ġcamera": 4100,
      "Ġnamed": 4101,
      "Ġgone": 4102,
      "Ġspread": 4103,
      "IP": 4104,
      "rupt": 4105,
      "Ġcabin": 4106,
      "ĠLord": 4107,
      "Ġteaching": 4108,
      "Ġtim": 4109,
      "ĠProgram": 4110,
      "yn": 4111,
      "venue": 4112,
      "inger": 4113,
      "ooking": 4114,
      "xas": 4115,
      "useum": 4116,
      "lying": 4117,
      "Ġletter": 4118,
      "ĠCouncil": 4119,
      "Ġstation": 4120,
      "Ġconven": 4121,
      "Ġsweet": 4122,
      "Ġlands": 4123,
      "odes": 4124,
      "ĠWhe": 4125,
      "eria": 4126,
      "Ġbrain": 4127,
      "text": 4128,
      "fast": 4129,
      "Ġcompleted": 4130,
      "Ġsingles": 4131,
      "Ġwedding": 4132,
      "Ġharm": 4133,
      "Ġhappened": 4134,
      "Ġcritical": 4135,
      "ĠOp": 4136,
      "Ġacadem": 4137,
      "Ġshot": 4138,
      "Ġexhib": 4139,
      "Ġcomments": 4140,
      "Ġcolle": 4141,
      "orrow": 4142,
      "Ġforget": 4143,
      "using": 4144,
      "ĠMarket": 4145,
      "Ġserver": 4146,
      "Ġslight": 4147,
      "atically": 4148,
      "ffee": 4149,
      "US": 4150,
      "ĠJew": 4151,
      "Ġprec": 4152,
      "Ġye": 4153,
      "Ġmemory": 4154,
      "ĠJack": 4155,
      "Ġhom": 4156,
      "Ġapprox": 4157,
      "Ġcontains": 4158,
      "Ġsuff": 4159,
      "Ġunf": 4160,
      "oices": 4161,
      "uated": 4162,
      "ĠBra": 4163,
      "ying": 4164,
      "Ġdriving": 4165,
      "Ġcards": 4166,
      "35": 4167,
      "Ġexperiences": 4168,
      "Ġrooms": 4169,
      "Ġrelax": 4170,
      "ĠResearch": 4171,
      "roid": 4172,
      "Ġhaven": 4173,
      "gal": 4174,
      "ĠDevelop": 4175,
      "ĠSince": 4176,
      "ĠAustralia": 4177,
      "AD": 4178,
      "Ġhar": 4179,
      "Ġwat": 4180,
      "Ġorigin": 4181,
      "oman": 4182,
      "osing": 4183,
      "Ġahead": 4184,
      "Ġsust": 4185,
      "Ġassign": 4186,
      "ĠMonday": 4187,
      "ĠWashington": 4188,
      "Ġelements": 4189,
      "Ġobv": 4190,
      "term": 4191,
      "ĠSuper": 4192,
      "Ġcollabor": 4193,
      "Ġcraft": 4194,
      "Ġkept": 4195,
      "Ġopening": 4196,
      "oos": 4197,
      "Ġmill": 4198,
      "Ġpray": 4199,
      "Ġseeing": 4200,
      "ady": 4201,
      "Ġexpand": 4202,
      "acity": 4203,
      "Ġvirt": 4204,
      "la": 4205,
      "Ġdiscover": 4206,
      "That": 4207,
      "Ġsolid": 4208,
      "Ġlarger": 4209,
      "Ġgarden": 4210,
      "ston": 4211,
      "phone": 4212,
      "Ġrich": 4213,
      "Ġarchitect": 4214,
      "bu": 4215,
      "standing": 4216,
      "ym": 4217,
      "Ġnames": 4218,
      "Ġpaint": 4219,
      "Ġrepe": 4220,
      "Ġbreat": 4221,
      "Ġfriendly": 4222,
      "down": 4223,
      "Ġfactors": 4224,
      "Ġpros": 4225,
      "Ġaren": 4226,
      "care": 4227,
      "Ġanti": 4228,
      "Ġcovered": 4229,
      "rig": 4230,
      "Ġeight": 4231,
      "Ġwindow": 4232,
      "32": 4233,
      "rey": 4234,
      "ĠMor": 4235,
      "Ġpieces": 4236,
      "ĠBoard": 4237,
      "Ġserved": 4238,
      "ĠAnt": 4239,
      "works": 4240,
      "Ġparties": 4241,
      "ĠThank": 4242,
      "Â®": 4243,
      "Ġdecl": 4244,
      "Ġcoffee": 4245,
      "ago": 4246,
      "Ġcentral": 4247,
      "45": 4248,
      "Ġshopping": 4249,
      "Ġjourney": 4250,
      "ĠManagement": 4251,
      "orial": 4252,
      "Ġing": 4253,
      "Ġrecords": 4254,
      "Ġforms": 4255,
      "Ġfinished": 4256,
      "Ġtechnical": 4257,
      "ĠAv": 4258,
      "Ġfigure": 4259,
      "icing": 4260,
      "ae": 4261,
      "Ġteams": 4262,
      "Ġdisapp": 4263,
      "Ġstandards": 4264,
      "Ġexpress": 4265,
      "ĠRepublic": 4266,
      "Ġthousands": 4267,
      "men": 4268,
      "Ġrelationships": 4269,
      "Ġsecure": 4270,
      "Ġdaughter": 4271,
      "Ġdirection": 4272,
      "Ġseven": 4273,
      "Ġdro": 4274,
      "Ġcompl": 4275,
      "Ġheavy": 4276,
      "Ġrequires": 4277,
      "Ġtend": 4278,
      "omb": 4279,
      "Ġvalues": 4280,
      "ĠOver": 4281,
      "ĠWork": 4282,
      "Ġtechniques": 4283,
      "Ġstream": 4284,
      "Ġeth": 4285,
      "Ġadvantage": 4286,
      "ĠPC": 4287,
      "Ġonto": 4288,
      "Ġcivil": 4289,
      "ĠÃ": 4290,
      "Ġmetal": 4291,
      "semb": 4292,
      "Ġlearned": 4293,
      "Ġselected": 4294,
      "hol": 4295,
      "rol": 4296,
      "Ġchat": 4297,
      "ĠFlor": 4298,
      "Ġsecret": 4299,
      "Ġpassion": 4300,
      "eds": 4301,
      "Ġdetermine": 4302,
      "Ġefficient": 4303,
      "Ġcounter": 4304,
      "Ġ2007": 4305,
      "ĠGeneral": 4306,
      "Ġknows": 4307,
      "icine": 4308,
      "ĠRec": 4309,
      "tt": 4310,
      "Ex": 4311,
      "ails": 4312,
      "Ġadop": 4313,
      "Ġfederal": 4314,
      "Ġfans": 4315,
      "ĠAssociation": 4316,
      "Ġreality": 4317,
      "Ġmicro": 4318,
      "asy": 4319,
      "Ġroll": 4320,
      "ero": 4321,
      "ĠOnline": 4322,
      "Ġscen": 4323,
      "ĠSol": 4324,
      "Ġleader": 4325,
      "Ġmission": 4326,
      "Ġstreet": 4327,
      "ĠSub": 4328,
      "Ġefforts": 4329,
      "rab": 4330,
      "Ġguess": 4331,
      "ĠGold": 4332,
      "ios": 4333,
      "ĠGreen": 4334,
      "Ġstatus": 4335,
      "Ġwebsites": 4336,
      "Ġtraffic": 4337,
      "Ġbillion": 4338,
      "100": 4339,
      "Ġwhatever": 4340,
      "Ġmanage": 4341,
      "ĠOffice": 4342,
      "Ġbatter": 4343,
      "ĠCong": 4344,
      "ĠAnge": 4345,
      "Ġ29": 4346,
      "ĠMac": 4347,
      "ech": 4348,
      "Ġthus": 4349,
      "Ġdoc": 4350,
      "Ġimpl": 4351,
      "Ġincor": 4352,
      "aven": 4353,
      "Ġshared": 4354,
      "enture": 4355,
      "inct": 4356,
      "ĠPlay": 4357,
      "Ġestablish": 4358,
      "Ġdrug": 4359,
      "Ġsharing": 4360,
      "Ġguid": 4361,
      "Ġfan": 4362,
      "Ġspect": 4363,
      "icon": 4364,
      "pm": 4365,
      "70": 4366,
      "azine": 4367,
      "ĠWhy": 4368,
      "Ġshape": 4369,
      "osure": 4370,
      "ĠSupp": 4371,
      "ĠHall": 4372,
      "Ġmist": 4373,
      "roud": 4374,
      "ommod": 4375,
      "Ġforeign": 4376,
      "Ġadvanced": 4377,
      "Ġproperties": 4378,
      "Ġotherwise": 4379,
      "gn": 4380,
      "rely": 4381,
      "ss": 4382,
      "Ġluck": 4383,
      "Ġorganizations": 4384,
      "Ġplaced": 4385,
      "tenance": 4386,
      "lig": 4387,
      "rehens": 4388,
      "Ġscene": 4389,
      "Ġdeveloping": 4390,
      "aming": 4391,
      "Ġsouth": 4392,
      "ij": 4393,
      "Ġmotor": 4394,
      "Ġbill": 4395,
      "Ġmentioned": 4396,
      "Ġretail": 4397,
      "Ġloan": 4398,
      "EM": 4399,
      "NA": 4400,
      "oma": 4401,
      "Ġflex": 4402,
      "Ġfamous": 4403,
      "ĠOnce": 4404,
      "Ġcompar": 4405,
      "Ġbeg": 4406,
      "ĠTexas": 4407,
      "Ġdirector": 4408,
      "ĠRem": 4409,
      "Ġsexual": 4410,
      "Ġpassed": 4411,
      "Ġbeach": 4412,
      "Ġbecomes": 4413,
      "Ġhonest": 4414,
      "ads": 4415,
      "ĠJer": 4416,
      "ĠMem": 4417,
      "Ġlimit": 4418,
      "Ġrob": 4419,
      "ursday": 4420,
      "Ġap": 4421,
      "ĠJames": 4422,
      "ĠAN": 4423,
      "Ġgovern": 4424,
      "Ġholiday": 4425,
      "Ġwaiting": 4426,
      "iled": 4427,
      "Ġsto": 4428,
      "ented": 4429,
      "raw": 4430,
      "Ġbag": 4431,
      "Ġrat": 4432,
      "Ġlisted": 4433,
      "Ġmagn": 4434,
      "oes": 4435,
      "26": 4436,
      "ĠPlan": 4437,
      "leg": 4438,
      "actions": 4439,
      "Ġsources": 4440,
      "Ġwouldn": 4441,
      "ection": 4442,
      "uesday": 4443,
      "dule": 4444,
      "acing": 4445,
      "Ġhandle": 4446,
      "akers": 4447,
      "ĠEducation": 4448,
      "Ġcars": 4449,
      "Ġdedicated": 4450,
      "ĠSpr": 4451,
      "enses": 4452,
      "Ġrap": 4453,
      "Ġrelevant": 4454,
      "ollow": 4455,
      "Ġarticles": 4456,
      "Ġcontem": 4457,
      "ĠPhot": 4458,
      "osis": 4459,
      "ĠSk": 4460,
      "Ġwine": 4461,
      "nding": 4462,
      "Ġconcent": 4463,
      "ĠIT": 4464,
      "Ġbiggest": 4465,
      "Ġ80": 4466,
      "ror": 4467,
      "Ġeconomy": 4468,
      "log": 4469,
      "ĠSing": 4470,
      "Ġsand": 4471,
      "Ġartist": 4472,
      "Ġexcept": 4473,
      "Ġsch": 4474,
      "Ġclassic": 4475,
      "itors": 4476,
      "yer": 4477,
      "Ġindependent": 4478,
      "Ġ196": 4479,
      "Ġperformed": 4480,
      "Ġbeauty": 4481,
      "Ġevening": 4482,
      "ĠClass": 4483,
      "Ġchallenges": 4484,
      "antic": 4485,
      "Ġargu": 4486,
      "ĠAnn": 4487,
      "Ġshowed": 4488,
      "Ġquarter": 4489,
      "ading": 4490,
      "Ġapplied": 4491,
      "ortunately": 4492,
      "ervation": 4493,
      "Ġabsolutely": 4494,
      "iency": 4495,
      "nesday": 4496,
      "rees": 4497,
      "Ġiniti": 4498,
      "Ġdesigns": 4499,
      "gment": 4500,
      "Ġdoctor": 4501,
      "Ġoperations": 4502,
      "entially": 4503,
      "pet": 4504,
      "ĠChinese": 4505,
      "estival": 4506,
      "Ġsurg": 4507,
      "39": 4508,
      "Ġprinci": 4509,
      "Ġfish": 4510,
      "Ġfill": 4511,
      "ipe": 4512,
      "ulated": 4513,
      "uman": 4514,
      "Ġcontinued": 4515,
      "27": 4516,
      "ĠBank": 4517,
      "**": 4518,
      "Ġepis": 4519,
      "rd": 4520,
      "Pro": 4521,
      "Ġtoward": 4522,
      "Ġmeant": 4523,
      "Ġremove": 4524,
      "Ġreference": 4525,
      "Ġestim": 4526,
      "Ġexplore": 4527,
      "udd": 4528,
      "fit": 4529,
      "sey": 4530,
      "Ġprepared": 4531,
      "ĠFind": 4532,
      "ĠLife": 4533,
      "Ĥ¬": 4534,
      "ĠBecause": 4535,
      "Ġbehavior": 4536,
      "Ġoperating": 4537,
      "Ġconference": 4538,
      "ĠWindows": 4539,
      "âĢĿ,": 4540,
      "Ġfol": 4541,
      "Ġcalls": 4542,
      "Ġinfo": 4543,
      "Ġbow": 4544,
      "Ġworkers": 4545,
      "ĠRich": 4546,
      "Ġtheory": 4547,
      "Ġposts": 4548,
      "tered": 4549,
      "ĠYear": 4550,
      "Ġhelpful": 4551,
      "Ġtemperature": 4552,
      "osition": 4553,
      "Ġbalance": 4554,
      "Ġremind": 4555,
      "Ġgain": 4556,
      "Ġadvance": 4557,
      "ĠAfrica": 4558,
      "ĠMag": 4559,
      "ĠRel": 4560,
      "ternal": 4561,
      "Ġgrant": 4562,
      "Ġaccommod": 4563,
      "Ġhighlight": 4564,
      "miss": 4565,
      "Ġcaused": 4566,
      "Ġpoly": 4567,
      "21": 4568,
      "ishes": 4569,
      "Ġnorth": 4570,
      "Ġnumerous": 4571,
      "OL": 4572,
      "uty": 4573,
      "Ġearn": 4574,
      "Ġdistance": 4575,
      "ĠPeople": 4576,
      "unte": 4577,
      "Ġkeeping": 4578,
      "Ġplenty": 4579,
      "ĠAlthough": 4580,
      "ĠEngland": 4581,
      "Ġbought": 4582,
      "Ġwaste": 4583,
      "Ġlaws": 4584,
      "Ġfacilities": 4585,
      "Ġprot": 4586,
      "Ġrom": 4587,
      "ĠSam": 4588,
      "ĠClub": 4589,
      "28": 4590,
      "Ġupdate": 4591,
      "free": 4592,
      "ctors": 4593,
      "Ġscore": 4594,
      "Ġtask": 4595,
      "state": 4596,
      "oop": 4597,
      "Ġconnected": 4598,
      "Ġdiet": 4599,
      "Ġclasses": 4600,
      "Ġwelcome": 4601,
      "Ġcommunities": 4602,
      "Ġbuying": 4603,
      "Ġseparate": 4604,
      "Ġaudience": 4605,
      "Ġwatching": 4606,
      "icks": 4607,
      "oe": 4608,
      "Ġcore": 4609,
      "Ġexercise": 4610,
      "overy": 4611,
      "Ġexperts": 4612,
      "idential": 4613,
      "Ġteacher": 4614,
      "Ġhappens": 4615,
      "ixt": 4616,
      "Ġ90": 4617,
      "Ġign": 4618,
      "ĠEv": 4619,
      "Ġdriver": 4620,
      "Ġship": 4621,
      "Ġquant": 4622,
      "ĠAmaz": 4623,
      "Ġflat": 4624,
      "Ġprofessionals": 4625,
      "Ġfemale": 4626,
      "Ð¾": 4627,
      "Ġcolors": 4628,
      "Ġsteel": 4629,
      "ula": 4630,
      "Ġopinion": 4631,
      "resp": 4632,
      "Ġmatt": 4633,
      "ĠIns": 4634,
      "Ġappears": 4635,
      "Ġprocessing": 4636,
      "how": 4637,
      "Ġgun": 4638,
      "No": 4639,
      "vention": 4640,
      "Ġsem": 4641,
      "Ġdim": 4642,
      "Ġoperation": 4643,
      "Ġemp": 4644,
      "Ġvisual": 4645,
      "Ġshowing": 4646,
      "Ġchair": 4647,
      "active": 4648,
      "Ġwire": 4649,
      "ĠMary": 4650,
      "ĠThursday": 4651,
      "Ġdesk": 4652,
      "mar": 4653,
      "Ġbecoming": 4654,
      "ipp": 4655,
      "Ġvolume": 4656,
      "Ġsets": 4657,
      "cient": 4658,
      "Ġlock": 4659,
      "ĠPublic": 4660,
      "Ġthoughts": 4661,
      "Ġdiagn": 4662,
      "Ġoutdoor": 4663,
      "Ġvision": 4664,
      "rad": 4665,
      "Ġsequ": 4666,
      "iers": 4667,
      "reek": 4668,
      "Ġmanner": 4669,
      "Ġcleaning": 4670,
      "ION": 4671,
      "Ġsea": 4672,
      "Ġanimals": 4673,
      "ĠRiver": 4674,
      "ĠCare": 4675,
      "ĠFore": 4676,
      "Ġlose": 4677,
      "EL": 4678,
      "mail": 4679,
      "ï¿½ï¿½": 4680,
      "Ġapart": 4681,
      "llig": 4682,
      "ups": 4683,
      "Ġconduct": 4684,
      "ĠMal": 4685,
      "While": 4686,
      "ĠFlorida": 4687,
      "ĠLear": 4688,
      "They": 4689,
      "Ġpractices": 4690,
      "Ġ70": 4691,
      "Ġcitiz": 4692,
      "ĠIS": 4693,
      "outhern": 4694,
      "unning": 4695,
      "Ġinitial": 4696,
      "Ġrestaurant": 4697,
      "Ġpolic": 4698,
      "ĠUSA": 4699,
      "Ġclearly": 4700,
      "Ġmajority": 4701,
      "Ġhyd": 4702,
      "Ġtree": 4703,
      "Ġcombination": 4704,
      "Ġbright": 4705,
      "ĠTuesday": 4706,
      "ilos": 4707,
      "ĠLoc": 4708,
      "Ġflav": 4709,
      "Ġjump": 4710,
      "Ġrank": 4711,
      "Ġpredict": 4712,
      "Ġmap": 4713,
      "ette": 4714,
      "amily": 4715,
      "ĠFound": 4716,
      "Ġgall": 4717,
      "rical": 4718,
      "These": 4719,
      "Ġtesting": 4720,
      "pan": 4721,
      "Ġpresence": 4722,
      "ota": 4723,
      "Ġ31": 4724,
      "Ġspl": 4725,
      "Ġoptim": 4726,
      "Ġmo": 4727,
      "Ġclaims": 4728,
      "ĠEngine": 4729,
      "Ġprofile": 4730,
      "Ġupload": 4731,
      "ĠUse": 4732,
      "Ġchanging": 4733,
      "craft": 4734,
      "box": 4735,
      "Ġspring": 4736,
      "ĠWednesday": 4737,
      "Ġder": 4738,
      "Ġremains": 4739,
      "Ġvote": 4740,
      "rian": 4741,
      "Ġdetect": 4742,
      "Ġjournal": 4743,
      "Ġprocesses": 4744,
      "ĠBay": 4745,
      "Ġarm": 4746,
      "500": 4747,
      "eed": 4748,
      "Ġnor": 4749,
      "Ġneighbor": 4750,
      "ĠCam": 4751,
      "CC": 4752,
      "Ġtopic": 4753,
      "Ġalternative": 4754,
      "Ġopened": 4755,
      "ĠLove": 4756,
      "itness": 4757,
      "unction": 4758,
      "Ġcapacity": 4759,
      "Ġwinter": 4760,
      "ĠCommission": 4761,
      "Ġmarried": 4762,
      "Ġton": 4763,
      "poses": 4764,
      "ĠBill": 4765,
      "arge": 4766,
      "icate": 4767,
      "Ġidentify": 4768,
      "MS": 4769,
      "ado": 4770,
      "Ġadding": 4771,
      "hips": 4772,
      "Ġdelic": 4773,
      "bl": 4774,
      "race": 4775,
      "Ġlux": 4776,
      "aked": 4777,
      "Ġcalcul": 4778,
      "ĠSocial": 4779,
      "Ġdiscount": 4780,
      "Ġradio": 4781,
      "90": 4782,
      "Ġplants": 4783,
      "Ġmulti": 4784,
      "Ġagreement": 4785,
      "Ġproud": 4786,
      "Ġwww": 4787,
      "isation": 4788,
      "Ġcatch": 4789,
      "eared": 4790,
      "Ġmanager": 4791,
      "Ġdecide": 4792,
      "Ġsounds": 4793,
      "ĠAP": 4794,
      "IV": 4795,
      "De": 4796,
      "Ġhospital": 4797,
      "ĠCheck": 4798,
      "otic": 4799,
      "Ġbutton": 4800,
      "Ġdiscussion": 4801,
      "abilities": 4802,
      "Ġexception": 4803,
      "Ġmarriage": 4804,
      "Ġcoverage": 4805,
      "Ġcompetition": 4806,
      "ĠSal": 4807,
      "ĠInstitute": 4808,
      "Now": 4809,
      "Ġdynam": 4810,
      "ĠBig": 4811,
      "ograp": 4812,
      "Ġwilling": 4813,
      "Ġunc": 4814,
      "Ġwalking": 4815,
      "Ġmovies": 4816,
      "ĠMicro": 4817,
      "Ġsongs": 4818,
      "ugg": 4819,
      "ĠIN": 4820,
      "Ġdatab": 4821,
      "Ġsession": 4822,
      "Ġer": 4823,
      "Ðµ": 4824,
      "Ġboo": 4825,
      "ĠPet": 4826,
      "Ġunless": 4827,
      "ĠDec": 4828,
      "ĠOh": 4829,
      "ferences": 4830,
      "Ġbul": 4831,
      "ĠCr": 4832,
      "Ġadapt": 4833,
      "za": 4834,
      "Ġsmooth": 4835,
      "Ġended": 4836,
      "but": 4837,
      "Ġdisp": 4838,
      "Ġsuppl": 4839,
      "ĠRock": 4840,
      "Ġdetailed": 4841,
      "anta": 4842,
      "top": 4843,
      "Ġselling": 4844,
      "Ġlovely": 4845,
      "ĠSen": 4846,
      "Ġsmaller": 4847,
      "soft": 4848,
      "Ġdistrict": 4849,
      "ĠChild": 4850,
      "iliar": 4851,
      "Ġawesome": 4852,
      "Ġleaving": 4853,
      "Ġvalid": 4854,
      "Ġcomprehens": 4855,
      "ĠSur": 4856,
      "Ġexcited": 4857,
      "Ġcommand": 4858,
      "Ġmail": 4859,
      "Ġcontext": 4860,
      "Ġdur": 4861,
      "Ġreaders": 4862,
      "estic": 4863,
      "ĠArch": 4864,
      "Ġkill": 4865,
      "Ġfantastic": 4866,
      "Ġrid": 4867,
      "Ġtheme": 4868,
      "roy": 4869,
      "Ġartists": 4870,
      "Ġsenior": 4871,
      "Ġenjoyed": 4872,
      "Ġelement": 4873,
      "ĠLake": 4874,
      "Ġminute": 4875,
      "Ġthr": 4876,
      "Ġpreviously": 4877,
      "ĠRoad": 4878,
      "Ġmedium": 4879,
      "Ġmostly": 4880,
      "ĠMo": 4881,
      "cket": 4882,
      "Ġactions": 4883,
      "Ġruns": 4884,
      "ĠGerman": 4885,
      "Ġcloud": 4886,
      "Ġcircum": 4887,
      "press": 4888,
      "oles": 4889,
      "Ġpair": 4890,
      "Ġrestrict": 4891,
      "Ġcontinues": 4892,
      "Ġspecies": 4893,
      "ona": 4894,
      "ooper": 4895,
      "Ġengineering": 4896,
      "ĠVol": 4897,
      "75": 4898,
      "??": 4899,
      "Ġguests": 4900,
      "Ġmort": 4901,
      "ĠMichael": 4902,
      "Ġcorner": 4903,
      "Un": 4904,
      "Ġtrail": 4905,
      "Ġpurposes": 4906,
      "ĠMart": 4907,
      "Ġdocuments": 4908,
      "Ġtransform": 4909,
      "Ġformat": 4910,
      "ĠIts": 4911,
      "Ġpolicies": 4912,
      "Ġexciting": 4913,
      "Ġteachers": 4914,
      "Ġpal": 4915,
      "Ġpackage": 4916,
      "tra": 4917,
      "ĠRet": 4918,
      "Ġgeneration": 4919,
      "Ġmaintenance": 4920,
      "Ġintellig": 4921,
      "Ġgrade": 4922,
      "ĠDirector": 4923,
      "ĠLou": 4924,
      "Ġmanaged": 4925,
      "ulate": 4926,
      "with": 4927,
      "Ġseemed": 4928,
      "ican": 4929,
      "Ġillustr": 4930,
      "Ġenvironmental": 4931,
      "win": 4932,
      "Ġtotally": 4933,
      "Ġagency": 4934,
      "bes": 4935,
      "ĠHist": 4936,
      "Ġvir": 4937,
      "Ġsoul": 4938,
      "ĠWin": 4939,
      "ĠPM": 4940,
      "Ġstarts": 4941,
      "Ġbrief": 4942,
      "Com": 4943,
      "ĠGovernment": 4944,
      "Ġconfig": 4945,
      "Ġkid": 4946,
      "Ġlaunch": 4947,
      "Ġ@": 4948,
      "ĠSun": 4949,
      "going": 4950,
      "vere": 4951,
      "anish": 4952,
      "Ġfuck": 4953,
      "Ġsample": 4954,
      "Ġwhom": 4955,
      "29": 4956,
      "Ġbrings": 4957,
      "ĠTop": 4958,
      "Ġcultural": 4959,
      "Ġquiet": 4960,
      "Ġbound": 4961,
      "ĠMex": 4962,
      "Ġfuel": 4963,
      "Ġdu": 4964,
      "Ġeating": 4965,
      "Ġice": 4966,
      "Ġleadership": 4967,
      "icians": 4968,
      "Ġcrow": 4969,
      "Ġinfluence": 4970,
      "Ġtaste": 4971,
      "Ġlandsc": 4972,
      "Ġ2006": 4973,
      "ĠCommit": 4974,
      "ĠBre": 4975,
      "ĠDownload": 4976,
      "point": 4977,
      "ĠMount": 4978,
      "hi": 4979,
      "Ġrule": 4980,
      "Ġmir": 4981,
      "Ġfilled": 4982,
      "Ġregistered": 4983,
      "Ġcities": 4984,
      "Ġteach": 4985,
      "lor": 4986,
      "Ġfocused": 4987,
      "iration": 4988,
      "Ġclosed": 4989,
      "Ġexchange": 4990,
      "ĠUnder": 4991,
      "Ġcomponents": 4992,
      "ĠCur": 4993,
      "Ġseeking": 4994,
      "Ġbird": 4995,
      "Ġschedule": 4996,
      "Ġcart": 4997,
      "ums": 4998,
      "DA": 4999,
      "Ġexpensive": 5000,
      "Ġfunds": 5001,
      "known": 5002,
      "ports": 5003,
      "Ġtow": 5004,
      "Ġmaximum": 5005,
      "edy": 5006,
      "ðŁ": 5007,
      "isco": 5008,
      "ront": 5009,
      "Ġride": 5010,
      "Ġunits": 5011,
      "ĠProfess": 5012,
      "Ġvisitors": 5013,
      "Ġdepartment": 5014,
      "no": 5015,
      "Ġresponsibility": 5016,
      "Ġwriter": 5017,
      "Ġtele": 5018,
      "ĠST": 5019,
      "Ġsam": 5020,
      "ius": 5021,
      "ĠVis": 5022,
      "ĠWord": 5023,
      "ĠCle": 5024,
      "ifts": 5025,
      "Ġpossibly": 5026,
      "night": 5027,
      "cel": 5028,
      "Ġraised": 5029,
      "Ġchemical": 5030,
      "ĠRob": 5031,
      "Ġaspects": 5032,
      "Ġisland": 5033,
      "ĠToday": 5034,
      "Ġarrange": 5035,
      "alls": 5036,
      "hab": 5037,
      "Ġapartment": 5038,
      "36": 5039,
      "ĠLike": 5040,
      "Ġapproximately": 5041,
      "Ġmur": 5042,
      "Ġjoint": 5043,
      "IM": 5044,
      "Ġpromot": 5045,
      "Cl": 5046,
      "spe": 5047,
      "Ġlabor": 5048,
      "Ġseat": 5049,
      "Ġshipping": 5050,
      "Ġsnow": 5051,
      "Ġfee": 5052,
      "orney": 5053,
      "Ġmouth": 5054,
      "inating": 5055,
      "Ġresolution": 5056,
      "bour": 5057,
      "Ġupgr": 5058,
      "Ġpractical": 5059,
      "Ġfreed": 5060,
      "tion": 5061,
      "Ġfootball": 5062,
      "Ġ35": 5063,
      "Ġmarkets": 5064,
      "Ġrain": 5065,
      "ĠPower": 5066,
      "ller": 5067,
      "kes": 5068,
      "Ġsustain": 5069,
      "AA": 5070,
      "Ġnotes": 5071,
      "Ġfunctions": 5072,
      "Ġplastic": 5073,
      "Ġbrowser": 5074,
      "ĠMake": 5075,
      "Ġsector": 5076,
      "ĠIsland": 5077,
      "Ġmental": 5078,
      "Ġroof": 5079,
      "?âĢĿ": 5080,
      "Ġworry": 5081,
      "ĠSum": 5082,
      "Ġhook": 5083,
      "Ġpump": 5084,
      "ĠStar": 5085,
      "Ġeffic": 5086,
      "Ġmale": 5087,
      "ĠScience": 5088,
      "ĠVi": 5089,
      "ga": 5090,
      "levision": 5091,
      "ĠMaster": 5092,
      "een": 5093,
      "Ġlisten": 5094,
      "Ġcorporate": 5095,
      "Ġconsid": 5096,
      "LE": 5097,
      "ĠCD": 5098,
      "Ġthick": 5099,
      "uries": 5100,
      "orthern": 5101,
      "Ġdespite": 5102,
      "Is": 5103,
      "Ġbeat": 5104,
      "ka": 5105,
      "idden": 5106,
      "ya": 5107,
      "ĠStr": 5108,
      "odies": 5109,
      "Ġresidents": 5110,
      "itz": 5111,
      "life": 5112,
      "ĠDevelopment": 5113,
      "ĠLat": 5114,
      "Ġseek": 5115,
      "Ġscale": 5116,
      "Ġspending": 5117,
      "Ġinjury": 5118,
      "Ġdinner": 5119,
      "orry": 5120,
      "ĠTheir": 5121,
      "Ġrub": 5122,
      "Ġnegative": 5123,
      "Ġtrading": 5124,
      "Ġassum": 5125,
      "ĠThom": 5126,
      "Ġking": 5127,
      "Ġdecisions": 5128,
      "ĠMil": 5129,
      "Ġslightly": 5130,
      "Ġdebt": 5131,
      "Ġanswers": 5132,
      "33": 5133,
      "Ġassistance": 5134,
      "uations": 5135,
      "Ġcourses": 5136,
      "ĠHel": 5137,
      "Ġaccompl": 5138,
      "Ġinternal": 5139,
      "icago": 5140,
      "Ġputting": 5141,
      "New": 5142,
      "ĠHy": 5143,
      "Ġspecifically": 5144,
      "ĠVir": 5145,
      "Ġoccup": 5146,
      "Ġprop": 5147,
      "Ġexamples": 5148,
      "Ġthrow": 5149,
      "Ġcrim": 5150,
      "iance": 5151,
      "Ġenhance": 5152,
      "ĠCommunity": 5153,
      "Ġleaves": 5154,
      "Ġcommitted": 5155,
      "Ġedge": 5156,
      "Ġexplain": 5157,
      "Ġaccident": 5158,
      "Ġacademic": 5159,
      "Ġfold": 5160,
      "ĠSecurity": 5161,
      "Ġupdated": 5162,
      "ulations": 5163,
      "Ġfabric": 5164,
      "Ġrecommended": 5165,
      "Ġcovers": 5166,
      "Ġfees": 5167,
      "ĠSil": 5168,
      "Ġswitch": 5169,
      "Ġbusy": 5170,
      "ĠApple": 5171,
      "Ġencourage": 5172,
      "Ġsympt": 5173,
      "Ġintended": 5174,
      "osen": 5175,
      "Ġbattle": 5176,
      "Ġvictim": 5177,
      "uled": 5178,
      "Ġphotograph": 5179,
      "Ġswim": 5180,
      "mes": 5181,
      "ĠConst": 5182,
      "which": 5183,
      "Ġminimum": 5184,
      "ampions": 5185,
      "ushing": 5186,
      "Ġproperly": 5187,
      "Ġdoubt": 5188,
      "uable": 5189,
      "what": 5190,
      "ĠCamp": 5191,
      "ĠMiss": 5192,
      "Ġur": 5193,
      "ĠDet": 5194,
      "Ġproceed": 5195,
      "Ġscri": 5196,
      "Ġdetermined": 5197,
      "ĠSa": 5198,
      "Ġvolunte": 5199,
      "ĠCentral": 5200,
      "Ġdecre": 5201,
      "Ġincorpor": 5202,
      "Ġsymb": 5203,
      "Ġsport": 5204,
      "ructure": 5205,
      "agram": 5206,
      "Ð°": 5207,
      "She": 5208,
      "Ġstrategies": 5209,
      "Ġlegis": 5210,
      "Ġleads": 5211,
      "Ġallowing": 5212,
      "Ġdining": 5213,
      "ĠCongress": 5214,
      "Ġadvertising": 5215,
      "Ġreturned": 5216,
      "ĠHD": 5217,
      "Ġsav": 5218,
      "Ġforg": 5219,
      "ĠBen": 5220,
      "rete": 5221,
      "Ġdesire": 5222,
      "Ġmine": 5223,
      "ĠSl": 5224,
      "ĠGlo": 5225,
      "].": 5226,
      "Ġindustrial": 5227,
      "Ġeventually": 5228,
      "Ġrecip": 5229,
      "Ġuniversity": 5230,
      "ĠContin": 5231,
      "yr": 5232,
      "Ġstores": 5233,
      "Ġlibrary": 5234,
      "Ġagent": 5235,
      "Ġdump": 5236,
      "Ġasking": 5237,
      "Ġfacility": 5238,
      "Ġreligious": 5239,
      "ĠVe": 5240,
      "cipl": 5241,
      "ĠAmazon": 5242,
      "ĠPay": 5243,
      "Ġsched": 5244,
      "Ġimportance": 5245,
      "Ġbond": 5246,
      ");": 5247,
      "Ġconstruct": 5248,
      "Ġyouth": 5249,
      "Ġreached": 5250,
      "Ġcombined": 5251,
      "Ġcris": 5252,
      "ĠInformation": 5253,
      "Ġappeal": 5254,
      "ĠTwo": 5255,
      "Ġtypically": 5256,
      "38": 5257,
      "ĠCustom": 5258,
      "ĠQue": 5259,
      "Ġprovider": 5260,
      "ĠElect": 5261,
      "Ġdie": 5262,
      "Ġadministration": 5263,
      "aturing": 5264,
      "inations": 5265,
      "equ": 5266,
      "Ġerror": 5267,
      "Ġremoved": 5268,
      "aser": 5269,
      "iest": 5270,
      "fin": 5271,
      "ĠProject": 5272,
      "Ġpun": 5273,
      "rier": 5274,
      "oses": 5275,
      "ĠHill": 5276,
      "ĠWater": 5277,
      "44": 5278,
      "Ġlocations": 5279,
      "ĠAM": 5280,
      "eless": 5281,
      "ander": 5282,
      "ĠAlex": 5283,
      "Ġfeels": 5284,
      "cean": 5285,
      "Ġconflic": 5286,
      "ĠOpen": 5287,
      "SS": 5288,
      "ĠWood": 5289,
      "ste": 5290,
      "ĠBeach": 5291,
      "Ġscript": 5292,
      "Ġsquare": 5293,
      "ki": 5294,
      "esterday": 5295,
      "Ġschol": 5296,
      "Ġvan": 5297,
      "Ġinterior": 5298,
      "Ġingred": 5299,
      "ĠTHE": 5300,
      "ĠSpecial": 5301,
      "Ġnuc": 5302,
      "Ġdiscovered": 5303,
      "Ġimpress": 5304,
      "Ġpregn": 5305,
      "Ġaf": 5306,
      "Ġcentre": 5307,
      "Ġcoast": 5308,
      "Ġcondu": 5309,
      "ĠMot": 5310,
      "ĠPR": 5311,
      "ĠGermany": 5312,
      "Ġveget": 5313,
      "Ġloans": 5314,
      "Ġcop": 5315,
      "water": 5316,
      "Ġanimal": 5317,
      "Ġadults": 5318,
      "Ġaudio": 5319,
      "Ġourselves": 5320,
      "PA": 5321,
      "ĠCommittee": 5322,
      "Ġtight": 5323,
      "By": 5324,
      "Ġforces": 5325,
      "Ġlaun": 5326,
      "Ġelectronic": 5327,
      "Ġminor": 5328,
      "Ġteen": 5329,
      "ĠDistrict": 5330,
      "Ġinstallation": 5331,
      "Ġlived": 5332,
      "Ġsitting": 5333,
      "Ġcrowd": 5334,
      "ĠCap": 5335,
      "ĠWomen": 5336,
      "Ġsurvey": 5337,
      "ĠTur": 5338,
      "Ġgoods": 5339,
      "Ġcookies": 5340,
      "Ġcolour": 5341,
      "mp": 5342,
      "ĠReview": 5343,
      "Ġelim": 5344,
      "Ġpanel": 5345,
      "Ar": 5346,
      "oration": 5347,
      "osh": 5348,
      "Ġexpression": 5349,
      "ĠAfrican": 5350,
      "Ġtransl": 5351,
      "TS": 5352,
      "ĠDuring": 5353,
      "Ġrise": 5354,
      "nel": 5355,
      "ĠPriv": 5356,
      "Ġsuit": 5357,
      "alog": 5358,
      "Ġkilled": 5359,
      "Ð¸": 5360,
      "Ġsuitable": 5361,
      "Ġcomprehensive": 5362,
      "Ġanywhere": 5363,
      "Ġmotiv": 5364,
      "Ġtrial": 5365,
      "Ġrot": 5366,
      "Ġworksh": 5367,
      "Ġmissing": 5368,
      "Ġconsequ": 5369,
      "ĠGeorge": 5370,
      "Ġjoined": 5371,
      "OW": 5372,
      "alian": 5373,
      "Ġliqu": 5374,
      "Ġring": 5375,
      "ĠPhil": 5376,
      "Ġang": 5377,
      "Ġamb": 5378,
      "ĠKore": 5379,
      "hetic": 5380,
      "ĠMer": 5381,
      "ĠReal": 5382,
      "Ġfamiliar": 5383,
      "yal": 5384,
      "ivered": 5385,
      "ĠMain": 5386,
      "BS": 5387,
      "Ġclim": 5388,
      "Ġrealize": 5389,
      "Ġintroduced": 5390,
      "ĠGrand": 5391,
      "Ġclinical": 5392,
      "Ġdistribution": 5393,
      "iability": 5394,
      "Ġcasino": 5395,
      "Ġegg": 5396,
      "outs": 5397,
      "orter": 5398,
      "respond": 5399,
      "Ġtrees": 5400,
      "terior": 5401,
      "adian": 5402,
      "Ġrapid": 5403,
      "ano": 5404,
      "ĠBer": 5405,
      "olate": 5406,
      "ĠDating": 5407,
      "IL": 5408,
      "RA": 5409,
      "Ġshut": 5410,
      "ĠEarth": 5411,
      "Ġtherapy": 5412,
      "luding": 5413,
      "ulous": 5414,
      "Ġvehicles": 5415,
      "Ġprivacy": 5416,
      "Ġapps": 5417,
      "ĠMatt": 5418,
      "Ġdepos": 5419,
      "Ġpu": 5420,
      "ĠFrance": 5421,
      "essions": 5422,
      "Ġbon": 5423,
      "Ġporn": 5424,
      "phas": 5425,
      "ĠRussian": 5426,
      "ĠAtt": 5427,
      "inding": 5428,
      "Ġinstalled": 5429,
      "urban": 5430,
      "Ġju": 5431,
      "Ġconcerns": 5432,
      "ĠClick": 5433,
      "Ġ2000": 5434,
      "ava": 5435,
      "Ġpromote": 5436,
      "Ġwinning": 5437,
      "ician": 5438,
      "Ġcream": 5439,
      "ĠTime": 5440,
      "Ġtechnologies": 5441,
      "Ġmeasures": 5442,
      "ĠUnion": 5443,
      "Ġinterests": 5444,
      "athe": 5445,
      "Ġcompr": 5446,
      "Ġconfirm": 5447,
      "ĠJapanese": 5448,
      "ĠView": 5449,
      "Ġreliable": 5450,
      "ilosoph": 5451,
      "Ġresource": 5452,
      "âĤ¬": 5453,
      "Ġoccasion": 5454,
      "aped": 5455,
      "Ġkick": 5456,
      "Ġhistorical": 5457,
      "Ġdoors": 5458,
      "Pl": 5459,
      "ĠAC": 5460,
      "irty": 5461,
      "Ġfif": 5462,
      "ĠRoy": 5463,
      "Ġiron": 5464,
      "Ġ2005": 5465,
      "ĠWestern": 5466,
      "Ġserving": 5467,
      "Ġsigned": 5468,
      "Ġfavour": 5469,
      "ĠNY": 5470,
      "Ġeducational": 5471,
      "Ġnurs": 5472,
      "ĠData": 5473,
      "Ġdial": 5474,
      "fol": 5475,
      "Ġpure": 5476,
      "xy": 5477,
      "55": 5478,
      "Ġfactor": 5479,
      "ĠTom": 5480,
      "Ġhun": 5481,
      "avig": 5482,
      "Ġstret": 5483,
      "Ġdance": 5484,
      "atholic": 5485,
      "Ġplays": 5486,
      "sm": 5487,
      "rate": 5488,
      "Ã¢": 5489,
      "Ġinspired": 5490,
      "Ġpoll": 5491,
      "LC": 5492,
      "Ġ500": 5493,
      "Ġcontemporary": 5494,
      "Ġtopics": 5495,
      "34": 5496,
      "Ġsigns": 5497,
      "Ġcauses": 5498,
      "ĠOld": 5499,
      "Ġauto": 5500,
      "Ġportion": 5501,
      "Ġcarried": 5502,
      "Ġsignal": 5503,
      "Ġproposed": 5504,
      "met": 5505,
      "Ġdatabase": 5506,
      "Ġcircumst": 5507,
      "ĠHam": 5508,
      "BA": 5509,
      "Ġstone": 5510,
      "!!!": 5511,
      "Ġwindows": 5512,
      "Ġben": 5513,
      "ifications": 5514,
      "ĠMusic": 5515,
      "Ġweap": 5516,
      "Ġvary": 5517,
      "list": 5518,
      "Con": 5519,
      "Ġfellow": 5520,
      "Ġban": 5521,
      "Ġsignificantly": 5522,
      "Ġautomatically": 5523,
      "ĠâĢ¢": 5524,
      "Ġhyp": 5525,
      "Ġtun": 5526,
      "ĠAcadem": 5527,
      "Some": 5528,
      "ilding": 5529,
      "Ġflight": 5530,
      "Ġtests": 5531,
      "Ġneighborhood": 5532,
      "prise": 5533,
      "ria": 5534,
      "ĠDa": 5535,
      "ĠLu": 5536,
      "Ġgreatest": 5537,
      "Ġsac": 5538,
      "amin": 5539,
      "Ġformed": 5540,
      "Ġholding": 5541,
      "Ġuns": 5542,
      "Ġcup": 5543,
      "Ġscientific": 5544,
      "OP": 5545,
      "ĠYes": 5546,
      "iveness": 5547,
      "Ġfields": 5548,
      "ĠCarol": 5549,
      "while": 5550,
      "Ġidentified": 5551,
      "ĠTwitter": 5552,
      "Ġmut": 5553,
      "Ġseconds": 5554,
      "ĠTor": 5555,
      "Ġreduced": 5556,
      "Ġmal": 5557,
      "Ġsupported": 5558,
      "Ġhousing": 5559,
      "Ġcock": 5560,
      "Ġneck": 5561,
      "bur": 5562,
      "ĠNov": 5563,
      "Ġclimate": 5564,
      "ĠBet": 5565,
      "Ġliber": 5566,
      "Ġhundreds": 5567,
      "Do": 5568,
      "Ġsurgery": 5569,
      "):": 5570,
      "igration": 5571,
      "Ġaffordable": 5572,
      "ĠTy": 5573,
      "ĠWhether": 5574,
      "Ġgod": 5575,
      "Ġappreciate": 5576,
      "ĠMass": 5577,
      "Ġchart": 5578,
      "abled": 5579,
      "Ġhearing": 5580,
      "ingly": 5581,
      "Ġinstance": 5582,
      "Ġcalling": 5583,
      "Ġdelivered": 5584,
      "Ġappeared": 5585,
      "Ġburn": 5586,
      "ĠPerson": 5587,
      "Ġdepending": 5588,
      "ĠChicago": 5589,
      "ĠAccording": 5590,
      "Ġresol": 5591,
      "Ġsupposed": 5592,
      "Ġparking": 5593,
      "ĠShow": 5594,
      "Ġbelief": 5595,
      "Ġdefined": 5596,
      "writ": 5597,
      "95": 5598,
      "Ġbelong": 5599,
      "Ġ<": 5600,
      "Ġgather": 5601,
      "ushed": 5602,
      "umin": 5603,
      "ĠWho": 5604,
      "Ġstars": 5605,
      "Ġaccounts": 5606,
      "65": 5607,
      "Ġregister": 5608,
      "Ġfixed": 5609,
      "Ġtells": 5610,
      "Ġtiss": 5611,
      "ĠFranc": 5612,
      "Ġapparent": 5613,
      "cles": 5614,
      "ĠDiv": 5615,
      "hors": 5616,
      "Ġfaster": 5617,
      "Ġstated": 5618,
      "Ġfruit": 5619,
      "iat": 5620,
      "bre": 5621,
      "istan": 5622,
      "Ġtreated": 5623,
      "Des": 5624,
      "Ġdogs": 5625,
      "jo": 5626,
      "Ġsole": 5627,
      "Ġinstit": 5628,
      "Ġprotein": 5629,
      "ien": 5630,
      "ias": 5631,
      "ception": 5632,
      "Ġfreedom": 5633,
      "Ġyes": 5634,
      "Ġ>": 5635,
      "Ġwal": 5636,
      "ilit": 5637,
      "Ġimproved": 5638,
      "icken": 5639,
      "Not": 5640,
      "ometimes": 5641,
      "Ġtag": 5642,
      "umber": 5643,
      "Ġhero": 5644,
      "Ġec": 5645,
      "Ġsugar": 5646,
      "Ġfunding": 5647,
      "Ġkinds": 5648,
      "Ġmode": 5649,
      "Ġdeals": 5650,
      "ĠMad": 5651,
      "48": 5652,
      "Ġturns": 5653,
      "ĠCall": 5654,
      "Ġcomplic": 5655,
      "Ġstanding": 5656,
      "ĠMedical": 5657,
      "azz": 5658,
      "Ġchannel": 5659,
      "Ġfailure": 5660,
      "Ġbattery": 5661,
      "Ġofficials": 5662,
      "Ġannounce": 5663,
      "Ġacid": 5664,
      "Ġaffili": 5665,
      "gl": 5666,
      "hent": 5667,
      "Ġcreation": 5668,
      "Ġbroken": 5669,
      "Ġcitizens": 5670,
      "Ġcategory": 5671,
      "orough": 5672,
      "Ġconfidence": 5673,
      "ĠJud": 5674,
      "Ġment": 5675,
      "Don": 5676,
      "ialis": 5677,
      "fection": 5678,
      "ĠSite": 5679,
      "Ġunivers": 5680,
      "Ġwarrant": 5681,
      "ĠParty": 5682,
      "burg": 5683,
      "ĠMel": 5684,
      "Ġelection": 5685,
      "Ġ45": 5686,
      "Ġreci": 5687,
      "Ġemergency": 5688,
      "estyle": 5689,
      "Ġcharges": 5690,
      "illa": 5691,
      "berg": 5692,
      "ĠScott": 5693,
      "noon": 5694,
      "ĠForm": 5695,
      "Ġviewed": 5696,
      "pected": 5697,
      "ĠDemocr": 5698,
      "Ġvisiting": 5699,
      "ĠFire": 5700,
      "Ġlights": 5701,
      "IA": 5702,
      "arp": 5703,
      "mosp": 5704,
      "ears": 5705,
      "Ġexpertise": 5706,
      "Ġarrived": 5707,
      "Ġglad": 5708,
      "Ġbreakfast": 5709,
      "UR": 5710,
      "ĠFood": 5711,
      "Ġworldwide": 5712,
      "Ġperspective": 5713,
      "Ġbreast": 5714,
      "ita": 5715,
      "ĠFoundation": 5716,
      "Ġfle": 5717,
      "Ġappearance": 5718,
      "Ġrand": 5719,
      "Ġinnovative": 5720,
      "Ġvoc": 5721,
      "rive": 5722,
      "ĠIP": 5723,
      "Ġextensive": 5724,
      "ĠBack": 5725,
      "ini": 5726,
      "arn": 5727,
      "ĠObama": 5728,
      "ĠExper": 5729,
      "Ġdelight": 5730,
      "ario": 5731,
      "Ġpush": 5732,
      "Ġspons": 5733,
      "Ġsimpl": 5734,
      "ĠMill": 5735,
      "Ġaid": 5736,
      "Ġviagra": 5737,
      "Ġraise": 5738,
      "Ġvillage": 5739,
      "ĠValley": 5740,
      "ĠBlue": 5741,
      "Ġdecades": 5742,
      "lets": 5743,
      "ola": 5744,
      "Ġcompetitive": 5745,
      "Le": 5746,
      "olly": 5747,
      "ensions": 5748,
      "ĠSociety": 5749,
      "Ġconversation": 5750,
      "Ġsymptoms": 5751,
      "Ġoutput": 5752,
      "Ġsister": 5753,
      "Ġrestaurants": 5754,
      "Ġresearc": 5755,
      "Ġtelevision": 5756,
      "cking": 5757,
      "Ġpurchased": 5758,
      "Ġspiritual": 5759,
      "Ġdiss": 5760,
      "den": 5761,
      "Ġprepare": 5762,
      "Ġfeedback": 5763,
      "isher": 5764,
      "rip": 5765,
      "Ġthread": 5766,
      "Ġchoices": 5767,
      "Ġapproved": 5768,
      "Ġwallpaper": 5769,
      "osite": 5770,
      "kin": 5771,
      "ibilities": 5772,
      "Ġobtained": 5773,
      "dden": 5774,
      "ĠHave": 5775,
      "oor": 5776,
      "Ġguest": 5777,
      "Ġcoach": 5778,
      "ĠID": 5779,
      "Ġcorrespond": 5780,
      "OD": 5781,
      "Ġsyn": 5782,
      "Ġremote": 5783,
      "Ġtut": 5784,
      "cher": 5785,
      "ĠProduct": 5786,
      "aks": 5787,
      "Ġinput": 5788,
      "ĠEqu": 5789,
      "Ġmagazine": 5790,
      "Ġweak": 5791,
      "Ġarg": 5792,
      "37": 5793,
      "Ġbringing": 5794,
      "Ġperfectly": 5795,
      "ii": 5796,
      "road": 5797,
      "Ġguitar": 5798,
      "ait": 5799,
      "ĠPeter": 5800,
      "ĠRad": 5801,
      "Ġpremium": 5802,
      "anda": 5803,
      "Ġremark": 5804,
      "Ġdepart": 5805,
      "ĠHol": 5806,
      "loc": 5807,
      "ĠBoth": 5808,
      "Ġequal": 5809,
      "Ġcaught": 5810,
      "anged": 5811,
      "Ġbuildings": 5812,
      "ensity": 5813,
      "Ġviolence": 5814,
      "Ġshock": 5815,
      "rag": 5816,
      "Ġgay": 5817,
      "Ġmel": 5818,
      "Ġdistinct": 5819,
      "apes": 5820,
      "Ġowned": 5821,
      "Ġaccurate": 5822,
      "Ġpublish": 5823,
      "cuit": 5824,
      "van": 5825,
      "Ġconv": 5826,
      "ĠOnly": 5827,
      "Ġsubstant": 5828,
      "Ġenable": 5829,
      "Your": 5830,
      "Ġsad": 5831,
      "Ġproviders": 5832,
      "Ġrecorded": 5833,
      "ossible": 5834,
      "Ġped": 5835,
      "ĠFamily": 5836,
      "From": 5837,
      "ĠUN": 5838,
      "net": 5839,
      "Ġconvenient": 5840,
      "Ġoblig": 5841,
      "Ġboys": 5842,
      "Ġboat": 5843,
      "Ġlabel": 5844,
      "Ġbegins": 5845,
      "Ġpainting": 5846,
      "arian": 5847,
      "ĠEnter": 5848,
      "Ġfort": 5849,
      "ĠNor": 5850,
      "Ġpin": 5851,
      "dy": 5852,
      "Ġforest": 5853,
      "Ġsettings": 5854,
      "Ġfilms": 5855,
      "Ġdrugs": 5856,
      "Ġconcerned": 5857,
      "Ġjoy": 5858,
      "ĠTake": 5859,
      "Ġrandom": 5860,
      "Ġrental": 5861,
      "Ġsudden": 5862,
      "Ġsymbol": 5863,
      "Ġissued": 5864,
      "ĠJour": 5865,
      "SA": 5866,
      "Ġpaying": 5867,
      "Ġrare": 5868,
      "ĠTown": 5869,
      "eper": 5870,
      "Ġcoord": 5871,
      "tr": 5872,
      "erves": 5873,
      "zen": 5874,
      "ownt": 5875,
      "ĠPolicy": 5876,
      "aded": 5877,
      "ĠAtl": 5878,
      "Ġhouses": 5879,
      "Ġassemb": 5880,
      "gas": 5881,
      "uction": 5882,
      "ĠMinister": 5883,
      "Ġtast": 5884,
      "ĠAmericans": 5885,
      "Ġsides": 5886,
      "Ġchosen": 5887,
      "Ġparticipants": 5888,
      "Ġmechanism": 5889,
      "ĠSmith": 5890,
      "Ġconsumer": 5891,
      "Ġsin": 5892,
      "Ġlicense": 5893,
      "Ġexcess": 5894,
      "Ġconsumers": 5895,
      "Ġemployee": 5896,
      "Ġepisode": 5897,
      "ĠStand": 5898,
      "mal": 5899,
      "Ġlunch": 5900,
      "pret": 5901,
      "Ġemphas": 5902,
      "gging": 5903,
      "Please": 5904,
      "rastructure": 5905,
      "Ġfailed": 5906,
      "iments": 5907,
      "ĠLo": 5908,
      "Ġstre": 5909,
      "Ġchain": 5910,
      "ĠVirgin": 5911,
      "Ġplug": 5912,
      "Ġdiam": 5913,
      "Ġtough": 5914,
      "Ġdomain": 5915,
      "Ġorders": 5916,
      "Ġven": 5917,
      "31": 5918,
      "Ġeffectively": 5919,
      "Ġtrouble": 5920,
      "ĠLos": 5921,
      "Ġfulf": 5922,
      "ĠTimes": 5923,
      "ĠAdv": 5924,
      "Ġconsidering": 5925,
      "Ġhousehold": 5926,
      "ĠNOT": 5927,
      "Ġaccepted": 5928,
      "Ġdollars": 5929,
      "ĠBrown": 5930,
      "never": 5931,
      "Ġauthority": 5932,
      "Ġsurf": 5933,
      "Ġshoes": 5934,
      "Ġshares": 5935,
      "ĠLight": 5936,
      "ĠLong": 5937,
      "Ġimagine": 5938,
      "IR": 5939,
      "eries": 5940,
      "Ġbrands": 5941,
      "Ġmanufacturing": 5942,
      "ĠFil": 5943,
      "Ġvaluable": 5944,
      "ulty": 5945,
      "Ġmenu": 5946,
      "ĠTechnology": 5947,
      "Ġtail": 5948,
      "Ġfly": 5949,
      "ĀĀĀĀ": 5950,
      "Ġsupporting": 5951,
      "Ġforced": 5952,
      "Ġknowing": 5953,
      "Ġincredible": 5954,
      "Ġguarantee": 5955,
      "pass": 5956,
      "Ġprocedure": 5957,
      "Ġatmosp": 5958,
      "Ġworse": 5959,
      "Ġherself": 5960,
      "Ġprison": 5961,
      "Ġcrime": 5962,
      "apos": 5963,
      "ĠRobert": 5964,
      "Ġran": 5965,
      "Ġspa": 5966,
      "you": 5967,
      "Ġlayer": 5968,
      "Ġsan": 5969,
      "ĠFrank": 5970,
      "Ġwealth": 5971,
      "encing": 5972,
      "Ġmic": 5973,
      "Ġwid": 5974,
      "Ġast": 5975,
      "Ġnom": 5976,
      "Ġprocedures": 5977,
      "Ġmotion": 5978,
      "Ġstopped": 5979,
      "ĠColor": 5980,
      "Ġvs": 5981,
      "Ġfell": 5982,
      "inder": 5983,
      "Ġterror": 5984,
      "Ġspeaking": 5985,
      "under": 5986,
      "ĠLim": 5987,
      "Ġadministr": 5988,
      "Ġnoted": 5989,
      "Ġtro": 5990,
      "Ġafternoon": 5991,
      "ĠTest": 5992,
      "itionally": 5993,
      "ĠMicrosoft": 5994,
      "Ġbrown": 5995,
      "Here": 5996,
      "Ġeditor": 5997,
      "Ġassessment": 5998,
      "omy": 5999,
      "Ġphen": 6000,
      "Ġmonit": 6001,
      "rome": 6002,
      "Ġancient": 6003,
      "ket": 6004,
      "elines": 6005,
      "Ġforth": 6006,
      "ĠVict": 6007,
      "Ġcommitment": 6008,
      "CH": 6009,
      "Ġmatters": 6010,
      "ĠLouis": 6011,
      "Ġcutting": 6012,
      "reens": 6013,
      "Ġwitness": 6014,
      "Ġidentity": 6015,
      "Ġperman": 6016,
      "ĠPress": 6017,
      "Ġreasonable": 6018,
      "Ġmassive": 6019,
      "Ġath": 6020,
      "Ġreceiving": 6021,
      "Ġaffected": 6022,
      "ĠInvest": 6023,
      "Ġupper": 6024,
      "Ġmessages": 6025,
      "Ġbigger": 6026,
      "Ġinn": 6027,
      "Ġbike": 6028,
      "Ġtwice": 6029,
      "Ġjew": 6030,
      "II": 6031,
      "Ġpatterns": 6032,
      "zil": 6033,
      "Ġlighting": 6034,
      "Ġinstructions": 6035,
      "Ġupdates": 6036,
      "Ġrelatively": 6037,
      "Ġtea": 6038,
      "Ġmedicine": 6039,
      "ĠHotel": 6040,
      "ĠOffic": 6041,
      "ĠSeries": 6042,
      "SP": 6043,
      "nect": 6044,
      "related": 6045,
      "ĠTerm": 6046,
      "Ġmonthly": 6047,
      "Ġtelling": 6048,
      "Ġspeech": 6049,
      "Ġarrest": 6050,
      "ĠEr": 6051,
      "ingu": 6052,
      "Ġpapers": 6053,
      "ĠMaybe": 6054,
      "Ġ2004": 6055,
      "ĠProv": 6056,
      "ĠOper": 6057,
      "cohol": 6058,
      "Ġends": 6059,
      "can": 6060,
      "Ġsurrounding": 6061,
      "Ġtaught": 6062,
      "Ġplate": 6063,
      "oty": 6064,
      "arsh": 6065,
      "pat": 6066,
      "Ad": 6067,
      "Ġstudio": 6068,
      "nergy": 6069,
      "Ġlaunched": 6070,
      "Ġwearing": 6071,
      "ĠMont": 6072,
      "ĠRussia": 6073,
      "weight": 6074,
      "Ġnone": 6075,
      "47": 6076,
      "Ġjack": 6077,
      "hus": 6078,
      "Ġentertainment": 6079,
      "Ġwalls": 6080,
      "Ġfourth": 6081,
      "Ġefficiency": 6082,
      "Ġenem": 6083,
      "mary": 6084,
      "Ġlit": 6085,
      "ena": 6086,
      "Ġtickets": 6087,
      "Ġexclusive": 6088,
      "ĠTre": 6089,
      "Ġcontrast": 6090,
      "cell": 6091,
      "td": 6092,
      "Ġclothes": 6093,
      "ĠTem": 6094,
      "ĠCard": 6095,
      "Ġcycle": 6096,
      "ĠJim": 6097,
      "ĠIll": 6098,
      "alled": 6099,
      "cknow": 6100,
      "Ġreput": 6101,
      "Ġauthors": 6102,
      "Ġok": 6103,
      "Ġpresentation": 6104,
      "ĠList": 6105,
      "Ġriver": 6106,
      "Ġemotional": 6107,
      "ĠAsia": 6108,
      "Ġentirely": 6109,
      "ords": 6110,
      "eration": 6111,
      "igan": 6112,
      "ĠSecret": 6113,
      "Ġconver": 6114,
      "Ġfrequently": 6115,
      "Ġdesigner": 6116,
      "hand": 6117,
      "ĠIndust": 6118,
      "Se": 6119,
      "ĠAward": 6120,
      "ĠCas": 6121,
      "49": 6122,
      "Ġwest": 6123,
      "icit": 6124,
      "erry": 6125,
      "Ġshoot": 6126,
      "ĠMen": 6127,
      "ĠTim": 6128,
      "Ġshower": 6129,
      "ocolate": 6130,
      "icial": 6131,
      "Ġfeaturing": 6132,
      "ĠIslam": 6133,
      "Ġrevealed": 6134,
      "real": 6135,
      "Ġwheel": 6136,
      "etry": 6137,
      "Ġconstantly": 6138,
      "gage": 6139,
      "88": 6140,
      "!)": 6141,
      "Ġconducted": 6142,
      "Ġphase": 6143,
      "Ġrecipe": 6144,
      "ĠLeague": 6145,
      "Ġcircumstances": 6146,
      "Ġdestroy": 6147,
      "orders": 6148,
      "ĠWhere": 6149,
      "Ġadvis": 6150,
      "elcome": 6151,
      "Ġsearching": 6152,
      "Ġnegot": 6153,
      "ĠAbout": 6154,
      "oga": 6155,
      "Ġcarefully": 6156,
      "Ġbreath": 6157,
      "Ġvacation": 6158,
      "Ġinvent": 6159,
      "Ġdangerous": 6160,
      "ĠDig": 6161,
      "Ġtruck": 6162,
      "ĠHuman": 6163,
      "ĠWall": 6164,
      "Ġloves": 6165,
      "Ġremaining": 6166,
      "IF": 6167,
      "hem": 6168,
      "Ġfoods": 6169,
      "Ġmeal": 6170,
      "Ġexecutive": 6171,
      "ĠEp": 6172,
      "ighter": 6173,
      "Ġ2019": 6174,
      "Acc": 6175,
      "Ġemployment": 6176,
      "Ġyesterday": 6177,
      "ĠWilliam": 6178,
      "ev": 6179,
      "Hi": 6180,
      "Ġodd": 6181,
      "Ġinvolve": 6182,
      "Ġpolitics": 6183,
      "ĠBur": 6184,
      "Ġexternal": 6185,
      "Ġid": 6186,
      "Ġvit": 6187,
      "ĠLast": 6188,
      "Ġshel": 6189,
      "ĠWil": 6190,
      "ĠðŁ": 6191,
      "Ġregistration": 6192,
      "Ġkeeps": 6193,
      "Ġusual": 6194,
      "ificate": 6195,
      "Ġtechnique": 6196,
      "Ġroute": 6197,
      "ĠOrgan": 6198,
      "Ġprotected": 6199,
      "ĠArab": 6200,
      "Ġtypical": 6201,
      "west": 6202,
      "Ġcarbon": 6203,
      "uts": 6204,
      "ĠTeam": 6205,
      "Ġgro": 6206,
      "igned": 6207,
      "Ġmeat": 6208,
      "Ġobjects": 6209,
      "Ġrecovery": 6210,
      "Ġrevenue": 6211,
      "Ġphilosoph": 6212,
      "ĠCA": 6213,
      "Ġbirthday": 6214,
      "Ġeveryday": 6215,
      "Ġluxury": 6216,
      "ĠSecond": 6217,
      "?\"": 6218,
      "ĠOk": 6219,
      "lete": 6220,
      "Ġcounty": 6221,
      "Read": 6222,
      "Ġbless": 6223,
      "prene": 6224,
      "Ġdifferences": 6225,
      "Ġimprovement": 6226,
      "Just": 6227,
      "Ġflowers": 6228,
      "Ġorganic": 6229,
      "Ġnoticed": 6230,
      "Ġingredients": 6231,
      "Phone": 6232,
      "Ġadventure": 6233,
      "arrow": 6234,
      "Ġpersonally": 6235,
      "Ġinvestigation": 6236,
      "Ġmoments": 6237,
      "Ġfollows": 6238,
      "ĠCert": 6239,
      "Ġrecognized": 6240,
      "Ġpleasure": 6241,
      "Ġmainly": 6242,
      "Ġnavig": 6243,
      "ĠCentre": 6244,
      "Ġchief": 6245,
      "Ġregularly": 6246,
      "Ġtom": 6247,
      "46": 6248,
      "Ġintegrated": 6249,
      "Ġjudge": 6250,
      "Ġinstitutions": 6251,
      "Ġcooking": 6252,
      "plate": 6253,
      "Ġprinciples": 6254,
      "Ġboost": 6255,
      "weet": 6256,
      "ta": 6257,
      "Ġfunny": 6258,
      "lusion": 6259,
      "Ġrough": 6260,
      "lly": 6261,
      "Ġ300": 6262,
      "look": 6263,
      "oosing": 6264,
      "Ġgrown": 6265,
      "Ġcrew": 6266,
      "iors": 6267,
      "Ġsick": 6268,
      "Ġliterature": 6269,
      "reprene": 6270,
      "Ġnine": 6271,
      "Ġextended": 6272,
      "Ġtrig": 6273,
      "Ġacknow": 6274,
      "Ġparticipate": 6275,
      "ora": 6276,
      "âĢ¢": 6277,
      "othe": 6278,
      "Ġreb": 6279,
      "ĠItalian": 6280,
      "ounder": 6281,
      "Ġpharm": 6282,
      "Ġholds": 6283,
      "rency": 6284,
      "Post": 6285,
      "Ġfilter": 6286,
      "rum": 6287,
      "Ġicon": 6288,
      "Ġads": 6289,
      "Ġobvious": 6290,
      "Ġstim": 6291,
      "ĠMedia": 6292,
      "Ġmountain": 6293,
      "ĠReport": 6294,
      "ĠDen": 6295,
      "Ġdiscussed": 6296,
      "Ġagencies": 6297,
      "Ġdelicious": 6298,
      "ĠAngeles": 6299,
      "TC": 6300,
      "Ġagents": 6301,
      "Ġdepth": 6302,
      "ns": 6303,
      "Ġattached": 6304,
      "Ġdates": 6305,
      "Me": 6306,
      "Ġpositions": 6307,
      "Ġfacts": 6308,
      "SC": 6309,
      "Ġsizes": 6310,
      "uine": 6311,
      "ĠWebs": 6312,
      "Ġcriminal": 6313,
      "Ġcritic": 6314,
      "Ġrenew": 6315,
      "atre": 6316,
      "Ġpicked": 6317,
      "Ġdrivers": 6318,
      "alse": 6319,
      "Ġtrend": 6320,
      "Ġdefense": 6321,
      "Well": 6322,
      "Ġindeed": 6323,
      "wing": 6324,
      "TH": 6325,
      "ye": 6326,
      "Ġleather": 6327,
      "ĠJul": 6328,
      "Ġagreed": 6329,
      "ĠNetwork": 6330,
      "\":": 6331,
      "Ġcloser": 6332,
      "ĠMP": 6333,
      "ĠArts": 6334,
      "Ġchapter": 6335,
      "ĠMuseum": 6336,
      "alle": 6337,
      "ĠFull": 6338,
      "ĠGlobal": 6339,
      "Ġcollected": 6340,
      "yc": 6341,
      "Ġrail": 6342,
      "uce": 6343,
      "Ġcapable": 6344,
      "greg": 6345,
      "Ġexplained": 6346,
      "Ð½": 6347,
      "lla": 6348,
      "Ġintroduction": 6349,
      "ĠCanadian": 6350,
      "Ġassets": 6351,
      "Ġplanned": 6352,
      "Ġhardware": 6353,
      "cover": 6354,
      "irmed": 6355,
      "Ġvisitor": 6356,
      "Ġsilver": 6357,
      "ĠCorpor": 6358,
      "Every": 6359,
      "Ġcommission": 6360,
      "ints": 6361,
      "ĠAndroid": 6362,
      "ugh": 6363,
      "Ġlinked": 6364,
      "ĠAustralian": 6365,
      "elf": 6366,
      "!âĢĿ": 6367,
      "Ġ195": 6368,
      "Ġnetworks": 6369,
      "Ġhur": 6370,
      "ĠBas": 6371,
      "Ġprepar": 6372,
      "luded": 6373,
      "Ġanx": 6374,
      "Ġaccord": 6375,
      "ĠAuthor": 6376,
      "Ġsituations": 6377,
      "Ġrear": 6378,
      "Ġreplacement": 6379,
      "liance": 6380,
      "Ġfolks": 6381,
      "Ġlicens": 6382,
      "ĠRE": 6383,
      "eding": 6384,
      "Ġveter": 6385,
      "gend": 6386,
      "ĠAud": 6387,
      "Ġprompt": 6388,
      "Ġskill": 6389,
      "Ġsurprise": 6390,
      "Ġinstitution": 6391,
      "ĠOF": 6392,
      "Ġnearby": 6393,
      "Ġ2003": 6394,
      "ĠMiddle": 6395,
      "Ġ)": 6396,
      "oral": 6397,
      "Ġavail": 6398,
      "Ġille": 6399,
      "ĠSand": 6400,
      "ĠMa": 6401,
      "illy": 6402,
      "Ġliquid": 6403,
      "anges": 6404,
      "Jo": 6405,
      "Ġspr": 6406,
      "Ġ32": 6407,
      "ĠThose": 6408,
      "Ġages": 6409,
      "SE": 6410,
      "ĠBi": 6411,
      "Ġparam": 6412,
      "Ġdram": 6413,
      "ĠRev": 6414,
      "ĠLibrary": 6415,
      "ĠPlus": 6416,
      "ogen": 6417,
      "Ġinterface": 6418,
      "Ġsubmit": 6419,
      "asp": 6420,
      "Ġarts": 6421,
      "Ġentered": 6422,
      "Ġofficer": 6423,
      "Ġbear": 6424,
      "Ġmusical": 6425,
      "han": 6426,
      "Ġdiverse": 6427,
      "Ġrein": 6428,
      "ĠGirl": 6429,
      "Ġhorse": 6430,
      "Ġnative": 6431,
      "Ġauthent": 6432,
      "Ġpil": 6433,
      "orable": 6434,
      "ĠGen": 6435,
      "Ġwriters": 6436,
      "ifies": 6437,
      "ĠJose": 6438,
      "More": 6439,
      "ĠSto": 6440,
      "Ġreligion": 6441,
      "ĠDou": 6442,
      "Ġsuccessfully": 6443,
      "ĠThomas": 6444,
      "ĠCode": 6445,
      "ĠDi": 6446,
      "Ġmilk": 6447,
      "Ġbes": 6448,
      "ĠFund": 6449,
      "Ġspok": 6450,
      "Ġunlike": 6451,
      "Ġwet": 6452,
      "Ġfeatured": 6453,
      "Ġyounger": 6454,
      "Ġoutstanding": 6455,
      "ĠMuslim": 6456,
      "resents": 6457,
      "Ġobserved": 6458,
      "edia": 6459,
      "Ġprofit": 6460,
      "Ġregional": 6461,
      "Ġ;": 6462,
      "mond": 6463,
      "ĠLead": 6464,
      "ĠTour": 6465,
      "Ġelev": 6466,
      "Ġlifestyle": 6467,
      "uality": 6468,
      "Ġmachines": 6469,
      "ĠMexico": 6470,
      "Ġmixed": 6471,
      "Ġinfrastructure": 6472,
      "Ġplanet": 6473,
      "ĠCat": 6474,
      "Ġarms": 6475,
      "PR": 6476,
      "Ġhappening": 6477,
      "making": 6478,
      "Ġdish": 6479,
      "Ġoperate": 6480,
      "ĠSpanish": 6481,
      "Ġdescribe": 6482,
      "ĠGal": 6483,
      "Ġlessons": 6484,
      "Ġeleg": 6485,
      "Ġeast": 6486,
      "ĠVide": 6487,
      "Ġteeth": 6488,
      "car": 6489,
      "Ġcharged": 6490,
      "uls": 6491,
      "ĠAdminist": 6492,
      "Ġsuggested": 6493,
      "ilst": 6494,
      "yan": 6495,
      "ĠFederal": 6496,
      "Ġcompens": 6497,
      "Ġsupports": 6498,
      "comes": 6499,
      "Ġlad": 6500,
      "Ġadm": 6501,
      "ographic": 6502,
      "ache": 6503,
      "Ġphotograp": 6504,
      "appy": 6505,
      "Ġdegrees": 6506,
      "Ġdisappoint": 6507,
      "Ġreferred": 6508,
      "LA": 6509,
      "ĠPan": 6510,
      "ĠLab": 6511,
      "ĠConference": 6512,
      "ĠSoft": 6513,
      "Ġturning": 6514,
      "Ġinstrument": 6515,
      "Ġvast": 6516,
      "ĠGar": 6517,
      "umes": 6518,
      "lines": 6519,
      "Ġabuse": 6520,
      "ĠCEO": 6521,
      "kins": 6522,
      "nic": 6523,
      "Ġhydro": 6524,
      "Ġsynt": 6525,
      "Ġsight": 6526,
      "Ġmillions": 6527,
      "Ġdomestic": 6528,
      "agon": 6529,
      "Ġcrazy": 6530,
      "Ġlaugh": 6531,
      "Ġstunning": 6532,
      "ĠBible": 6533,
      "Ġtiny": 6534,
      "Ġnuclear": 6535,
      "Ġhang": 6536,
      "ĠInf": 6537,
      "orgeous": 6538,
      "ĠManager": 6539,
      "Ġtub": 6540,
      "Ġstands": 6541,
      "Ġretire": 6542,
      "ansion": 6543,
      "Ġcandidates": 6544,
      "rowse": 6545,
      "Ġpleased": 6546,
      "Ġhire": 6547,
      "ĠTherefore": 6548,
      "Ġjustice": 6549,
      "Ġresistance": 6550,
      "Ġbodies": 6551,
      "achel": 6552,
      "Ġreader": 6553,
      "Ġattrib": 6554,
      "vy": 6555,
      "Ġurban": 6556,
      "Ġthorough": 6557,
      "Ġpayments": 6558,
      "Ġimpossible": 6559,
      "Ġstyles": 6560,
      "iate": 6561,
      "Ġfoundation": 6562,
      "Ġhate": 6563,
      "ÑĤ": 6564,
      "ca": 6565,
      "Ġadvoc": 6566,
      "ellect": 6567,
      "Ġpersons": 6568,
      "Ġbread": 6569,
      "rible": 6570,
      "grad": 6571,
      "MA": 6572,
      "Ġheight": 6573,
      "Ġsheet": 6574,
      "ÑĢ": 6575,
      "ulture": 6576,
      "Ġsubsequ": 6577,
      "Ġgrew": 6578,
      "Ġcooper": 6579,
      "ĠHaw": 6580,
      "aren": 6581,
      "ĠÂ»": 6582,
      "Ġinspiration": 6583,
      "Ġsupplies": 6584,
      "Ġyellow": 6585,
      "Ġhall": 6586,
      "ĠKeep": 6587,
      "ĠiPhone": 6588,
      "Ġcos": 6589,
      "ĠAff": 6590,
      "born": 6591,
      "However": 6592,
      "iverse": 6593,
      "ĠWatch": 6594,
      "Ġrepresents": 6595,
      "fortunately": 6596,
      "Ġrow": 6597,
      "Ġresulting": 6598,
      "ua": 6599,
      "Ġ36": 6600,
      "Ġattacks": 6601,
      "Ġcable": 6602,
      "Ġarchitecture": 6603,
      "PC": 6604,
      "abet": 6605,
      "Ġfacilit": 6606,
      "wo": 6607,
      "ban": 6608,
      "Ġseriously": 6609,
      "Ġinstruct": 6610,
      "Ġnormally": 6611,
      "eline": 6612,
      "Ġcomponent": 6613,
      "Ġphotography": 6614,
      "ĠJewish": 6615,
      "Ġtasks": 6616,
      "Ġcolumn": 6617,
      "ĠHead": 6618,
      "ĠInstead": 6619,
      "Ġstorm": 6620,
      "Ġscholars": 6621,
      "Ġgraduate": 6622,
      "Ġelig": 6623,
      "ĠSar": 6624,
      "Ġdelay": 6625,
      "Ġregulations": 6626,
      "Ġbelieved": 6627,
      "Ġalle": 6628,
      "ĠStart": 6629,
      "ĠMax": 6630,
      "Ġgear": 6631,
      "omin": 6632,
      "Ġengage": 6633,
      "utch": 6634,
      "Ġabsor": 6635,
      "Ġenthus": 6636,
      "Ġfasc": 6637,
      "Ġreturns": 6638,
      "Ġaccessible": 6639,
      "Ġinterpret": 6640,
      "Ġdraft": 6641,
      "Ġpresents": 6642,
      "Ġunable": 6643,
      "erts": 6644,
      "ĠEconom": 6645,
      "Ġsusp": 6646,
      "Ġresearchers": 6647,
      "ato": 6648,
      "ĠCup": 6649,
      "Ġmissed": 6650,
      "ĠFurther": 6651,
      "ogue": 6652,
      "77": 6653,
      "ĠCatholic": 6654,
      "Ġgolf": 6655,
      "away": 6656,
      "Ġprecise": 6657,
      "ĠAcademy": 6658,
      "Ġreporting": 6659,
      "ras": 6660,
      "ĠBab": 6661,
      "ĠAD": 6662,
      "oh": 6663,
      "Ġconcrete": 6664,
      "Ġsolar": 6665,
      "ĠParis": 6666,
      "acific": 6667,
      "Ġconstant": 6668,
      "ptions": 6669,
      "ĠVictor": 6670,
      "Ġdefend": 6671,
      "host": 6672,
      "uting": 6673,
      "iner": 6674,
      "Ġrealized": 6675,
      "Ġchallenging": 6676,
      "Ġreward": 6677,
      "Ġlandscape": 6678,
      "Ġinvestors": 6679,
      "Ġproof": 6680,
      "OV": 6681,
      "Ġfro": 6682,
      "Ġscr": 6683,
      "ef": 6684,
      "Ġtested": 6685,
      "Ġexposure": 6686,
      "01": 6687,
      "Ġindex": 6688,
      "ospit": 6689,
      "FL": 6690,
      "she": 6691,
      "ĠWal": 6692,
      "Ġdiscl": 6693,
      "Ġgrab": 6694,
      "Ġroutine": 6695,
      "Ġcrisis": 6696,
      "Ġlikes": 6697,
      "Ġerr": 6698,
      "ĠEnergy": 6699,
      "Ġliked": 6700,
      "bles": 6701,
      "Ġfighting": 6702,
      "Ġordered": 6703,
      "Ġalcohol": 6704,
      "ĠHand": 6705,
      "Ġoriginally": 6706,
      "42": 6707,
      "Ġtab": 6708,
      "ĠIran": 6709,
      "aturally": 6710,
      "ĠProte": 6711,
      "tle": 6712,
      "Ġpossibility": 6713,
      "VD": 6714,
      "ĠChildren": 6715,
      "Ġexpectations": 6716,
      "RL": 6717,
      "oston": 6718,
      "Ġawareness": 6719,
      "pes": 6720,
      "Yes": 6721,
      "cers": 6722,
      "Ġconsistent": 6723,
      "Ġnarr": 6724,
      "Ġdynamic": 6725,
      "Ġqualified": 6726,
      "Ġtrained": 6727,
      "Ġforum": 6728,
      "erning": 6729,
      "uration": 6730,
      "ĠWay": 6731,
      "Ġlistening": 6732,
      "Ġvirtual": 6733,
      "Ġtables": 6734,
      "ĠCharl": 6735,
      "Ġguard": 6736,
      "rated": 6737,
      "ĠSqu": 6738,
      "Ġextent": 6739,
      "Ġprinted": 6740,
      "des": 6741,
      "ĠRoman": 6742,
      "Ġattorney": 6743,
      "Ġbare": 6744,
      "Ġther": 6745,
      "Ġlogo": 6746,
      "oking": 6747,
      "Ġofficers": 6748,
      "Ġfairly": 6749,
      "Ġresidential": 6750,
      "Ġentr": 6751,
      "ĠBrazil": 6752,
      "ĠBob": 6753,
      "Ġfacing": 6754,
      "ĠDev": 6755,
      "ĠJournal": 6756,
      "Ġexperiment": 6757,
      "astern": 6758,
      "etime": 6759,
      "comm": 6760,
      "Ġserves": 6761,
      "Ġrecognize": 6762,
      "Ġamer": 6763,
      "asts": 6764,
      "66": 6765,
      "inks": 6766,
      "ĠMike": 6767,
      "Ġfishing": 6768,
      "Ġlegs": 6769,
      "05": 6770,
      "Ġcandidate": 6771,
      "Ġbeer": 6772,
      "Ġbutter": 6773,
      "Ġincreases": 6774,
      "Ġsufficient": 6775,
      "Ġinnovation": 6776,
      "that": 6777,
      "CA": 6778,
      "Ġwidely": 6779,
      "Ġgent": 6780,
      "Ġatmosphere": 6781,
      "ĠAND": 6782,
      "Ġembod": 6783,
      "Ġtrends": 6784,
      "Ġimplementation": 6785,
      "ĠIre": 6786,
      "Ġ:)": 6787,
      "ĠEU": 6788,
      "Ġclothing": 6789,
      "Ġexec": 6790,
      "Ġrecording": 6791,
      "Ġairport": 6792,
      "ĠHistory": 6793,
      "ĠChief": 6794,
      "Ġtur": 6795,
      "ĠBefore": 6796,
      "Ġsky": 6797,
      "Ġhumans": 6798,
      "Ġdealing": 6799,
      "ĠBal": 6800,
      "Ġgenuine": 6801,
      "Ġworst": 6802,
      "ĠLtd": 6803,
      "Ġrisks": 6804,
      "Ġcute": 6805,
      "Ġsoci": 6806,
      "Ġvital": 6807,
      "ĠThrough": 6808,
      "Ġease": 6809,
      "Ġsurprised": 6810,
      "ĠGra": 6811,
      "Ġcomparison": 6812,
      "ĠHim": 6813,
      "rid": 6814,
      "asters": 6815,
      "ĠBed": 6816,
      "gypt": 6817,
      "Ġstructures": 6818,
      "Ġsalt": 6819,
      "Â°": 6820,
      "Ġevil": 6821,
      "Ġspaces": 6822,
      "Ġfigures": 6823,
      "cular": 6824,
      "ĠLand": 6825,
      "owing": 6826,
      "inn": 6827,
      "Ġclassroom": 6828,
      "Ġhealthcare": 6829,
      "Ġupcoming": 6830,
      "isters": 6831,
      "itage": 6832,
      "ĠInte": 6833,
      "owntown": 6834,
      "onym": 6835,
      "Ġletters": 6836,
      "REE": 6837,
      "stream": 6838,
      "ĠContinue": 6839,
      "ĠId": 6840,
      "ĠAnother": 6841,
      "Ġimpressive": 6842,
      "Ġorganized": 6843,
      "Ġhidden": 6844,
      "class": 6845,
      "Ġaccessories": 6846,
      "Ġbrill": 6847,
      "ĠFair": 6848,
      "ĠThus": 6849,
      "Ġtaxes": 6850,
      "Ġhell": 6851,
      "onic": 6852,
      "Ġdestination": 6853,
      "Ġreform": 6854,
      "Ġkne": 6855,
      "Ġenforce": 6856,
      "Ġcorn": 6857,
      "Ġmonitoring": 6858,
      "Ġdirected": 6859,
      "Ne": 6860,
      "Ġsmile": 6861,
      "Ġgarage": 6862,
      "ĠNE": 6863,
      "Ġsessions": 6864,
      "ĠHen": 6865,
      "Since": 6866,
      "Ġdiscipl": 6867,
      "Ġtransition": 6868,
      "ĠUl": 6869,
      "Ġflood": 6870,
      "Ġcampus": 6871,
      "ĠPenn": 6872,
      "ĠHope": 6873,
      "Ġmanufacturer": 6874,
      "cribe": 6875,
      "App": 6876,
      "ĠVirginia": 6877,
      "ixture": 6878,
      "Ġconflict": 6879,
      "Ġpill": 6880,
      "Ġbasket": 6881,
      "Ġ2001": 6882,
      "ĠWebsite": 6883,
      "ĠVer": 6884,
      "Ġstatements": 6885,
      "Ġrecon": 6886,
      "sters": 6887,
      "Ġpursu": 6888,
      "Ġcounsel": 6889,
      "ĠAsian": 6890,
      "ĠDoes": 6891,
      "Ġfitness": 6892,
      "Ġcompare": 6893,
      "Ġtalent": 6894,
      "Ġje": 6895,
      "Ġsuc": 6896,
      "Ġelectrical": 6897,
      "Ġperforming": 6898,
      "rect": 6899,
      "Ġultimate": 6900,
      "Ġgifts": 6901,
      "Ġcommunications": 6902,
      "Ġmagic": 6903,
      "ecutive": 6904,
      "endar": 6905,
      "Ġflexible": 6906,
      "âĢĻ.": 6907,
      "Ġshooting": 6908,
      "TA": 6909,
      "Ġequipped": 6910,
      "date": 6911,
      "Ġintelligence": 6912,
      "Ġreaction": 6913,
      "celer": 6914,
      "Ġtissue": 6915,
      "Ġslowly": 6916,
      "Ġfunctional": 6917,
      "ĠFestival": 6918,
      "anger": 6919,
      "Ġattractive": 6920,
      "Ġreplaced": 6921,
      "stood": 6922,
      "ĠSpirit": 6923,
      "ĠMid": 6924,
      "stone": 6925,
      "Ġprimarily": 6926,
      "Ġachieved": 6927,
      "hew": 6928,
      "âĢ²": 6929,
      "ĠJoe": 6930,
      "yers": 6931,
      "Ġthin": 6932,
      "Ġfeelings": 6933,
      "âĢĺ": 6934,
      "long": 6935,
      "ĠCost": 6936,
      "ĠMeet": 6937,
      "ĠRoyal": 6938,
      "Ġprove": 6939,
      "acks": 6940,
      "Ġgenerate": 6941,
      "Ġspin": 6942,
      "ĠMS": 6943,
      "Ġamend": 6944,
      "Ġsamples": 6945,
      "pel": 6946,
      "Ġfinds": 6947,
      "Ġprofiles": 6948,
      "iform": 6949,
      "Ġbasically": 6950,
      "Ġpm": 6951,
      "tes": 6952,
      "ĠOR": 6953,
      "Ġ..": 6954,
      "Ġclar": 6955,
      "amps": 6956,
      "ching": 6957,
      "Ġanyway": 6958,
      "ĠItaly": 6959,
      "ĠWrit": 6960,
      "ĠFollow": 6961,
      "Ġfalse": 6962,
      "ĠSign": 6963,
      "idays": 6964,
      "Ġmonitor": 6965,
      "inte": 6966,
      "Thanks": 6967,
      "ĠChris": 6968,
      "Ġapplicable": 6969,
      "ENT": 6970,
      "Ġhonor": 6971,
      "Ġdrawing": 6972,
      "Ġclosely": 6973,
      "UN": 6974,
      "Ġdefinition": 6975,
      "Ġmole": 6976,
      "ĠScot": 6977,
      "Ġlosing": 6978,
      "ĠGall": 6979,
      "ĠLog": 6980,
      "Ġempt": 6981,
      "ĠRest": 6982,
      "Ġbanks": 6983,
      "Ġmeetings": 6984,
      "Ġ2002": 6985,
      "Ġnoise": 6986,
      "lessly": 6987,
      "ĠCreat": 6988,
      "Ġwinner": 6989,
      "gor": 6990,
      "ĠDC": 6991,
      "inem": 6992,
      "Ġcelebrate": 6993,
      "ĠGeorg": 6994,
      "bi": 6995,
      "OO": 6996,
      "teen": 6997,
      "ĠSearch": 6998,
      "Ġentit": 6999,
      "Ġborder": 7000,
      "Ñģ": 7001,
      "Ġposting": 7002,
      "Ġchicken": 7003,
      "Ġargument": 7004,
      "Ġreact": 7005,
      "Ġconcepts": 7006,
      "Ġphr": 7007,
      "ĠWeek": 7008,
      "ĠMur": 7009,
      "mers": 7010,
      "ĠTrust": 7011,
      "Ġinformed": 7012,
      "Ġcreates": 7013,
      "Ġquote": 7014,
      "Ġappointment": 7015,
      "Ġsevere": 7016,
      "Ġduty": 7017,
      "Ġsmell": 7018,
      "ala": 7019,
      "iety": 7020,
      "ether": 7021,
      "ĠStep": 7022,
      "ĠSet": 7023,
      "Ġmini": 7024,
      "Ġguidance": 7025,
      "Ġvot": 7026,
      "Ġauthorities": 7027,
      "Ġsomewhere": 7028,
      "ĠCH": 7029,
      "Ġhurt": 7030,
      "Ġvul": 7031,
      "Ġvisited": 7032,
      "ĠGame": 7033,
      "Ġinner": 7034,
      "ĠAccount": 7035,
      "Ġconfident": 7036,
      "Ġprogramming": 7037,
      "Ġ48": 7038,
      "Ġrelative": 7039,
      "Ġtwenty": 7040,
      "Ġextract": 7041,
      "Ġtall": 7042,
      "Ð¾Ð": 7043,
      "Ġpassword": 7044,
      "Ġdeck": 7045,
      "Ġmuscle": 7046,
      "asure": 7047,
      "Ġversions": 7048,
      "ĠLearn": 7049,
      "Ġimmediate": 7050,
      "Ġticket": 7051,
      "Ġchocolate": 7052,
      "Ġtum": 7053,
      "ĠMic": 7054,
      "front": 7055,
      "Ġongoing": 7056,
      "ĠPub": 7057,
      "Ġacts": 7058,
      "Ġregions": 7059,
      "According": 7060,
      "Ġsuggests": 7061,
      "Ġsaved": 7062,
      "Ġrig": 7063,
      "Ġestimated": 7064,
      "law": 7065,
      "Ġfounded": 7066,
      "ultural": 7067,
      "Ġdivid": 7068,
      "Ġmanufacturers": 7069,
      "Ġevol": 7070,
      "2018": 7071,
      "rick": 7072,
      "ĠUsing": 7073,
      "gged": 7074,
      "Ġfavourite": 7075,
      "Ġshops": 7076,
      "Ġtrick": 7077,
      "Ġexistence": 7078,
      "Ġconfirmed": 7079,
      "Ġhosting": 7080,
      "ployment": 7081,
      "merce": 7082,
      "Ġcapture": 7083,
      "Ġhistoric": 7084,
      "Ġstrategic": 7085,
      "Ġpossess": 7086,
      "ĠSupport": 7087,
      "Ġtradition": 7088,
      "made": 7089,
      "Ġcontrolled": 7090,
      "ĠPage": 7091,
      "Ġdebate": 7092,
      "Ġhoping": 7093,
      "Get": 7094,
      "Ġkm": 7095,
      "UT": 7096,
      "Ġtank": 7097,
      "Any": 7098,
      "Ġtor": 7099,
      "Ġmac": 7100,
      "Ġchoosing": 7101,
      "ĠJeff": 7102,
      "!\"": 7103,
      "ĠCarolina": 7104,
      "ĠSpring": 7105,
      "Ġathlet": 7106,
      "Ġplot": 7107,
      "amental": 7108,
      "Ġimproving": 7109,
      "Ġdecade": 7110,
      "ĠApplic": 7111,
      "Ġclicking": 7112,
      "lers": 7113,
      "Ġgorgeous": 7114,
      "ĠPass": 7115,
      "ĠYoung": 7116,
      "ĠMartin": 7117,
      "Ġmuseum": 7118,
      "ĠLook": 7119,
      "Ġnarrow": 7120,
      "Ġdip": 7121,
      "ĠIreland": 7122,
      "Ġconsists": 7123,
      "Ġforever": 7124,
      "Ġformal": 7125,
      "zing": 7126,
      "aning": 7127,
      "Ġadmin": 7128,
      "neys": 7129,
      "Ġren": 7130,
      "Ġpartnership": 7131,
      "intage": 7132,
      "Ġsomewhat": 7133,
      "Ġpassing": 7134,
      "Ġquotes": 7135,
      "stery": 7136,
      "Ġproven": 7137,
      "Ġcertified": 7138,
      "Ġcharacteristics": 7139,
      "Ġsuperior": 7140,
      "Ġrevolution": 7141,
      "Ġconcerning": 7142,
      "Ġcommittee": 7143,
      "Ġcommonly": 7144,
      "Ġreduction": 7145,
      "Ġfiled": 7146,
      "ÃĤ": 7147,
      "Ġexpressed": 7148,
      "Ġshift": 7149,
      "ĠExt": 7150,
      "ĠChair": 7151,
      "43": 7152,
      "ĠNote": 7153,
      "ĠCross": 7154,
      "gers": 7155,
      "Ġsucceed": 7156,
      "Ġmanaging": 7157,
      "GB": 7158,
      "Ġbench": 7159,
      "Res": 7160,
      "Ġopposite": 7161,
      "Ġdispos": 7162,
      "lymp": 7163,
      "ventional": 7164,
      "Ġsuffering": 7165,
      "ĠRichard": 7166,
      "bel": 7167,
      "Most": 7168,
      "Ġwalked": 7169,
      "worth": 7170,
      "ĠCy": 7171,
      "oster": 7172,
      "ĠWild": 7173,
      "Tr": 7174,
      "ĠEnd": 7175,
      "Ġfinance": 7176,
      "ĠIde": 7177,
      "aste": 7178,
      "Many": 7179,
      "____": 7180,
      "va": 7181,
      "Ġcontest": 7182,
      "ĠVery": 7183,
      "Ġreprodu": 7184,
      "Ġstruggle": 7185,
      "Ġpoker": 7186,
      "Ġgender": 7187,
      "Ġtransportation": 7188,
      "ĠSaf": 7189,
      "Ġcake": 7190,
      "Ġintellect": 7191,
      "ĠPolice": 7192,
      "case": 7193,
      "Ġaccordance": 7194,
      "ĠAp": 7195,
      "folio": 7196,
      "ĠIra": 7197,
      "Ġstrange": 7198,
      "Ġentreprene": 7199,
      "aniel": 7200,
      "Sp": 7201,
      "Ġstreets": 7202,
      "Ġstored": 7203,
      "ĠTri": 7204,
      "Ġmoves": 7205,
      "ded": 7206,
      "Ġpasseng": 7207,
      "Ġbags": 7208,
      "Ġdreams": 7209,
      "Ġslot": 7210,
      "Ġconscious": 7211,
      "Ġtracks": 7212,
      ".âĢĻ": 7213,
      "aping": 7214,
      "Ġspoke": 7215,
      "Ġcontained": 7216,
      "ĠKey": 7217,
      "coin": 7218,
      "Ġmining": 7219,
      "Ġsolve": 7220,
      "ults": 7221,
      "sue": 7222,
      "rage": 7223,
      "Ġanticip": 7224,
      "Ġsubmitted": 7225,
      "ĠSouthern": 7226,
      "lements": 7227,
      "Ġgrass": 7228,
      "Ġtomorrow": 7229,
      "ĠHospital": 7230,
      "Americ": 7231,
      "uter": 7232,
      "ĠĠĠĠĠĠĠĠ": 7233,
      "Ġnic": 7234,
      "Ġdust": 7235,
      "ran": 7236,
      "athy": 7237,
      "yard": 7238,
      "Ġheads": 7239,
      "41": 7240,
      "ĠHoly": 7241,
      "ĠAccess": 7242,
      "ĠMult": 7243,
      "%.": 7244,
      "ĠiP": 7245,
      "Ġscan": 7246,
      "Ġmembership": 7247,
      "oir": 7248,
      "otton": 7249,
      "Ġamounts": 7250,
      "ayer": 7251,
      "Ġmerch": 7252,
      "CT": 7253,
      "Ġtrave": 7254,
      "ĠCoast": 7255,
      "Ġearned": 7256,
      "Ġpromise": 7257,
      "rition": 7258,
      "oured": 7259,
      "ĠJun": 7260,
      "ĠKen": 7261,
      "Ġcrucial": 7262,
      "Ġphones": 7263,
      "Ġcontaining": 7264,
      "Ġwave": 7265,
      "including": 7266,
      "Ġsending": 7267,
      "Ġreputation": 7268,
      "Us": 7269,
      "ĠDu": 7270,
      "Ġcollaboration": 7271,
      "iano": 7272,
      "irts": 7273,
      "Ġincredibly": 7274,
      "Ġdrinking": 7275,
      "Ġsoil": 7276,
      "Ġindu": 7277,
      "Ġrelief": 7278,
      "ĠContact": 7279,
      "Ġbottle": 7280,
      "Ġlists": 7281,
      "ĠMov": 7282,
      "ĠPack": 7283,
      "ĠLittle": 7284,
      "aints": 7285,
      "Ġcontribute": 7286,
      "eters": 7287,
      "profit": 7288,
      "Ġcheese": 7289,
      "ĠLee": 7290,
      "Ġsubjects": 7291,
      "Ġweekly": 7292,
      "iece": 7293,
      "liament": 7294,
      "ĠAssist": 7295,
      "Ġinches": 7296,
      "Ġ75": 7297,
      "ĠWV": 7298,
      "ĠYe": 7299,
      "ĠSometimes": 7300,
      "Ġundert": 7301,
      "Ġcro": 7302,
      "Ġexplan": 7303,
      "Ġprogramme": 7304,
      "ĠCe": 7305,
      "anna": 7306,
      "Ġflash": 7307,
      "och": 7308,
      "Ġpulled": 7309,
      "ĠBoston": 7310,
      "level": 7311,
      "ĠCir": 7312,
      "Ġobviously": 7313,
      "fa": 7314,
      "Ġengagement": 7315,
      "lls": 7316,
      "Ġsexy": 7317,
      "Ġlucky": 7318,
      "Ġgallery": 7319,
      "Thank": 7320,
      "Ġagric": 7321,
      "Ab": 7322,
      "Ġremoval": 7323,
      "Ġinvited": 7324,
      "Ġintent": 7325,
      "Ġaddresses": 7326,
      "racy": 7327,
      "Posted": 7328,
      "Ġequival": 7329,
      "ĠEgypt": 7330,
      "Ġtack": 7331,
      "Ġpipe": 7332,
      "Ġultimately": 7333,
      "elly": 7334,
      "agues": 7335,
      "Once": 7336,
      "ello": 7337,
      "ĠDef": 7338,
      "Ġcategories": 7339,
      "Ġscheduled": 7340,
      "First": 7341,
      "ds": 7342,
      "inity": 7343,
      "itan": 7344,
      "85": 7345,
      "Ġcompat": 7346,
      "ĠJon": 7347,
      "ĠTru": 7348,
      "ĠTable": 7349,
      "Ġapproval": 7350,
      "ĠExecutive": 7351,
      "Ġillness": 7352,
      "Ġdefault": 7353,
      "inter": 7354,
      "cue": 7355,
      "ĠMcC": 7356,
      "Ġcasual": 7357,
      "Ġchose": 7358,
      "Ġgenerated": 7359,
      "Ġproducing": 7360,
      "nament": 7361,
      "Ġevolution": 7362,
      "Bl": 7363,
      "ĠEs": 7364,
      "........": 7365,
      "inent": 7366,
      "Ġconnections": 7367,
      "cific": 7368,
      "Ġpra": 7369,
      "Ġbonus": 7370,
      "Ġcontrols": 7371,
      "Ġbridge": 7372,
      "ĠFinancial": 7373,
      "Ġincident": 7374,
      "rics": 7375,
      "Ġterrit": 7376,
      "Ġcrack": 7377,
      "Ġassume": 7378,
      "Ġneither": 7379,
      "Ġexpenses": 7380,
      "essel": 7381,
      "vit": 7382,
      "Ġlies": 7383,
      "Ġham": 7384,
      "pon": 7385,
      "ba": 7386,
      "Ġhole": 7387,
      "iams": 7388,
      "ingers": 7389,
      "Ġengaged": 7390,
      "Ġtracking": 7391,
      "ĠViagra": 7392,
      "Ġmile": 7393,
      "bar": 7394,
      "zed": 7395,
      "Ġattended": 7396,
      "Ġcontinuing": 7397,
      "ĠCond": 7398,
      "ĠAirport": 7399,
      "page": 7400,
      "Ġroles": 7401,
      "Ġmemories": 7402,
      "person": 7403,
      "missions": 7404,
      "Ġlie": 7405,
      "ĠMach": 7406,
      "ĠAri": 7407,
      "books": 7408,
      "ĠEngineering": 7409,
      "Ġpreparation": 7410,
      "quir": 7411,
      "Ġlawyer": 7412,
      "Su": 7413,
      "Ġtalks": 7414,
      "Ġkit": 7415,
      "ĠIraq": 7416,
      "ĠNon": 7417,
      "EE": 7418,
      "Ġincreasingly": 7419,
      "Ġyield": 7420,
      "Ġheav": 7421,
      "Ġinvolves": 7422,
      "Ġvibr": 7423,
      "ĠMarketing": 7424,
      "Ind": 7425,
      "Ġdesired": 7426,
      "arks": 7427,
      "ĠFort": 7428,
      "Ġdropped": 7429,
      "Ġblind": 7430,
      "ashed": 7431,
      "Ġcryst": 7432,
      "Ġwireless": 7433,
      "Ġloving": 7434,
      "iser": 7435,
      "tocol": 7436,
      "Ġnewly": 7437,
      "raction": 7438,
      "Ġcausing": 7439,
      "Ġacting": 7440,
      "Ġhotels": 7441,
      "Ġlapt": 7442,
      "Ġera": 7443,
      "Ġrating": 7444,
      "amber": 7445,
      "ĠDid": 7446,
      ".'": 7447,
      "Ġapproaches": 7448,
      "Ġexplains": 7449,
      "Ġdepends": 7450,
      "Ġvictory": 7451,
      "Ġinteract": 7452,
      "Ġguidelines": 7453,
      "HS": 7454,
      "enth": 7455,
      "Ġillegal": 7456,
      "ĠSon": 7457,
      "Ġoccurred": 7458,
      "whel": 7459,
      "Ġconsideration": 7460,
      "anes": 7461,
      "ĨĴ": 7462,
      "cipal": 7463,
      "Ġtech": 7464,
      "ĠCO": 7465,
      "Cont": 7466,
      "ĠSP": 7467,
      "ĠON": 7468,
      "rich": 7469,
      "Ġavailability": 7470,
      "ĠArmy": 7471,
      "ĠExam": 7472,
      "liers": 7473,
      "Ġpenal": 7474,
      "Ġcerem": 7475,
      "Ġhat": 7476,
      "Ġrequested": 7477,
      "Ġelectron": 7478,
      "igure": 7479,
      "ppers": 7480,
      "Ġsplit": 7481,
      "Ġpermanent": 7482,
      "Ġpreferred": 7483,
      "ĠWalk": 7484,
      "Ġcabinet": 7485,
      "adow": 7486,
      "ĠHard": 7487,
      "Ġyard": 7488,
      "Ġrecipes": 7489,
      "Ġinsight": 7490,
      "Ġwithd": 7491,
      "ĠÎ": 7492,
      "Ġhabit": 7493,
      "Ġisol": 7494,
      "Ġarrive": 7495,
      "Ġ?": 7496,
      "ho": 7497,
      "Tube": 7498,
      "Ġvend": 7499,
      "Ġunw": 7500,
      "Ġchrist": 7501,
      "ounter": 7502,
      "uling": 7503,
      "ĠGuide": 7504,
      "Ġsharp": 7505,
      "Ġtransmission": 7506,
      "iana": 7507,
      "berry": 7508,
      "ĠNC": 7509,
      "lder": 7510,
      "tical": 7511,
      "Ġbars": 7512,
      "rently": 7513,
      "ĠPrem": 7514,
      "Ġconsent": 7515,
      "Ġrespectively": 7516,
      "ĠAR": 7517,
      "ĠBrand": 7518,
      "Ġpink": 7519,
      "ĠStudents": 7520,
      "Ġcircuit": 7521,
      "Another": 7522,
      "BI": 7523,
      "Ġlets": 7524,
      "ĠSports": 7525,
      "Ġframework": 7526,
      "ĠPrice": 7527,
      "Te": 7528,
      "ura": 7529,
      "Ġadds": 7530,
      "ati": 7531,
      "ealand": 7532,
      "ĠSenate": 7533,
      "Ġtreatments": 7534,
      "acle": 7535,
      "ĠBuy": 7536,
      "raid": 7537,
      "Ġhandling": 7538,
      "Ġpersonality": 7539,
      "Ġpermission": 7540,
      "ĠColumb": 7541,
      "Ġrose": 7542,
      "ĠSteve": 7543,
      "Ġzone": 7544,
      "Ġrepeated": 7545,
      "icity": 7546,
      "eling": 7547,
      "Ġhyper": 7548,
      "Ġsavings": 7549,
      "oto": 7550,
      "Ġsurprising": 7551,
      "plete": 7552,
      "Ġsoph": 7553,
      "phones": 7554,
      "Ġlady": 7555,
      "Ġoffices": 7556,
      "ĠPoint": 7557,
      "Ġstudied": 7558,
      "Ġdriven": 7559,
      "Ġfirms": 7560,
      "DS": 7561,
      "Ġmoist": 7562,
      "ĠPak": 7563,
      "Ġnecessarily": 7564,
      "Ġ150": 7565,
      "Ġassociation": 7566,
      "ologist": 7567,
      "Ġlect": 7568,
      "ĠCa": 7569,
      "orous": 7570,
      "lyn": 7571,
      "Ġsaving": 7572,
      "haust": 7573,
      "Ġworkshop": 7574,
      "Ġswimming": 7575,
      "cons": 7576,
      "Ġalt": 7577,
      "iversary": 7578,
      "ĠAng": 7579,
      "CE": 7580,
      "ennis": 7581,
      "ceived": 7582,
      "Ġenterprise": 7583,
      "Ġfrequency": 7584,
      "Ġmand": 7585,
      "ĠSuch": 7586,
      "zes": 7587,
      "Ġlimits": 7588,
      "Ġenjoying": 7589,
      "Ġphenomen": 7590,
      "ĠOlymp": 7591,
      "Ġbehalf": 7592,
      "Let": 7593,
      "ĠNig": 7594,
      "Ġclock": 7595,
      "Ġcovering": 7596,
      "Ġdental": 7597,
      "lose": 7598,
      "ĠNext": 7599,
      "Ġsensitive": 7600,
      "gorith": 7601,
      "ĠAT": 7602,
      "reement": 7603,
      "Ġdiseases": 7604,
      "Ġ65": 7605,
      "Ġliterally": 7606,
      "vas": 7607,
      "Ġseats": 7608,
      "Ġsections": 7609,
      "izer": 7610,
      "Ġbact": 7611,
      "Ġlanguages": 7612,
      "Ġobjective": 7613,
      "En": 7614,
      "ĠLive": 7615,
      "ĠCast": 7616,
      "zer": 7617,
      "pons": 7618,
      "Ġtalked": 7619,
      "ĠDigital": 7620,
      "Ġunderstood": 7621,
      "Ġarray": 7622,
      "ĠJohnson": 7623,
      "Ġbat": 7624,
      "Ġhealing": 7625,
      "Ġevaluation": 7626,
      "bra": 7627,
      "ãģ": 7628,
      "Ġstuck": 7629,
      "'.": 7630,
      "ĠGames": 7631,
      "Ġwhenever": 7632,
      "ĠFrancisco": 7633,
      "Ġheaven": 7634,
      "ansas": 7635,
      "Ġpublication": 7636,
      "rog": 7637,
      "ĠRoom": 7638,
      "ĠFather": 7639,
      "Ġsustainable": 7640,
      "Ġvent": 7641,
      "erate": 7642,
      "ĠFarm": 7643,
      "Ġalive": 7644,
      "Ġeverywhere": 7645,
      "Ġunus": 7646,
      "ĠDan": 7647,
      "uster": 7648,
      "Ġorient": 7649,
      "ĠHolly": 7650,
      "Ġregardless": 7651,
      "Ġdivor": 7652,
      "Ġprinting": 7653,
      "Ġfundamental": 7654,
      "anny": 7655,
      "Ġreject": 7656,
      "Oh": 7657,
      "Ġrecommendations": 7658,
      "Ġru": 7659,
      "Ġwatched": 7660,
      "ĠPhys": 7661,
      "May": 7662,
      "ĠPract": 7663,
      "apore": 7664,
      "Ġprospect": 7665,
      "sis": 7666,
      "Ġaccomplish": 7667,
      "uous": 7668,
      "ĠJava": 7669,
      "Ġcopyright": 7670,
      "ĠPersonal": 7671,
      "roph": 7672,
      "igr": 7673,
      "inking": 7674,
      "anted": 7675,
      "Ġconsumption": 7676,
      "ĠFour": 7677,
      "ĠFed": 7678,
      "ĠAsh": 7679,
      "Ġrecognition": 7680,
      "Ġinstruction": 7681,
      "Ġexposed": 7682,
      "ione": 7683,
      "Ġstain": 7684,
      "odge": 7685,
      "Ġinvention": 7686,
      "Ġgentle": 7687,
      "Ġcolon": 7688,
      "ĠBeaut": 7689,
      "Ġfaces": 7690,
      "Ġgard": 7691,
      "ĠKnow": 7692,
      "Ġstrict": 7693,
      "nce": 7694,
      "Ġlesson": 7695,
      "Ġobserv": 7696,
      "Ġblocks": 7697,
      "po": 7698,
      "Ġneut": 7699,
      "Ġmath": 7700,
      "ĠYet": 7701,
      "Am": 7702,
      "ĠJones": 7703,
      "Ġsupplement": 7704,
      "ĠTraining": 7705,
      "Ġcarrying": 7706,
      "ĠCre": 7707,
      "Ġmarked": 7708,
      "Ġraw": 7709,
      "ĠCharles": 7710,
      "redit": 7711,
      "Although": 7712,
      "Why": 7713,
      "ĠTO": 7714,
      "ĠHor": 7715,
      "ĠBow": 7716,
      "Ġbroadcast": 7717,
      "Ġinvolving": 7718,
      "RI": 7719,
      "ĠSup": 7720,
      "Ġweapons": 7721,
      "ĠSC": 7722,
      "Ġscheme": 7723,
      "ĠEnvironment": 7724,
      "Ġbelieves": 7725,
      "Ġchannels": 7726,
      "ikes": 7727,
      "ih": 7728,
      "Ġscientists": 7729,
      "inos": 7730,
      "Ġanymore": 7731,
      "Ġforgot": 7732,
      "ĠNight": 7733,
      "Ġinjuries": 7734,
      "Ġaside": 7735,
      "ĠFREE": 7736,
      "Ġratio": 7737,
      "Ġdecent": 7738,
      "Over": 7739,
      "wear": 7740,
      "holders": 7741,
      "ĠWhich": 7742,
      "Ġmurder": 7743,
      "Ġsed": 7744,
      "Ġcommunicate": 7745,
      "Ġdrawn": 7746,
      "Ġreducing": 7747,
      "Ġhospit": 7748,
      "Ġles": 7749,
      "Ġcapabilities": 7750,
      "Ġuk": 7751,
      "Ġtransp": 7752,
      "ĠDar": 7753,
      "Ġdumpster": 7754,
      "Ġtube": 7755,
      "Ġvisible": 7756,
      "Ġamp": 7757,
      "ogether": 7758,
      "Ġnaturally": 7759,
      "ppy": 7760,
      "Ġ400": 7761,
      "Ġsuggestions": 7762,
      "],": 7763,
      "Ġretirement": 7764,
      "ĠZealand": 7765,
      "Ġpul": 7766,
      "Ġstring": 7767,
      "Ġinteraction": 7768,
      "Ġfestival": 7769,
      "MP": 7770,
      "Ġunex": 7771,
      "Ġtip": 7772,
      "ĠFre": 7773,
      "ĠPacific": 7774,
      "ument": 7775,
      "Ġtill": 7776,
      "Ġemer": 7777,
      "ĠVan": 7778,
      "hemat": 7779,
      "Ġpercentage": 7780,
      "Ġgene": 7781,
      "Ġindicate": 7782,
      "Ġpod": 7783,
      "stract": 7784,
      "uct": 7785,
      "ĠAS": 7786,
      "Ġlargely": 7787,
      "ĠChampions": 7788,
      "Ġocean": 7789,
      "Ġpotentially": 7790,
      "then": 7791,
      "Ġrequests": 7792,
      "Ġindustries": 7793,
      "Ġfindings": 7794,
      "ĠNever": 7795,
      "Ġwooden": 7796,
      "Ġlake": 7797,
      "ĠJackson": 7798,
      "onto": 7799,
      "Ġmeals": 7800,
      "Ġscenes": 7801,
      "Ġbunch": 7802,
      "Ġgraphic": 7803,
      "78": 7804,
      "Ġdoctors": 7805,
      "Ġmatches": 7806,
      "lined": 7807,
      "ĠInsurance": 7808,
      "ulum": 7809,
      "arters": 7810,
      "xx": 7811,
      "ilipp": 7812,
      "Ġstatistics": 7813,
      "Ġrequirement": 7814,
      "ĠSection": 7815,
      "Ġstro": 7816,
      "inton": 7817,
      "Ġoverwhel": 7818,
      "Ġspecialist": 7819,
      "ĠYOU": 7820,
      "quality": 7821,
      "Ġcig": 7822,
      "Ġzero": 7823,
      "ĠRight": 7824,
      "war": 7825,
      "Ġusage": 7826,
      "Ġinstant": 7827,
      "Ġlegislation": 7828,
      "Ġdevelopers": 7829,
      "Ġacceler": 7830,
      "Ġphilosophy": 7831,
      "Ġgate": 7832,
      "Ġtone": 7833,
      "Ã¡": 7834,
      "Ġwhilst": 7835,
      "Ġsuspect": 7836,
      "Ġhung": 7837,
      "ĠSanta": 7838,
      "Ġmortgage": 7839,
      "ĠTax": 7840,
      "Ġpubl": 7841,
      "ĠExpl": 7842,
      "ĠLow": 7843,
      "ĠControl": 7844,
      "Ġmature": 7845,
      "Ġoccurs": 7846,
      "ĠFar": 7847,
      "Im": 7848,
      "ĠâĨĴ": 7849,
      "ĠOhio": 7850,
      "ĠUt": 7851,
      "ĠStat": 7852,
      "âĢĻ,": 7853,
      "Ġclaimed": 7854,
      "Ġsorry": 7855,
      "Ġvulner": 7856,
      "Ġgraphics": 7857,
      "Ġjun": 7858,
      "ĠSecretary": 7859,
      "isk": 7860,
      "ĠKn": 7861,
      "Ġplatforms": 7862,
      "Ġdisplayed": 7863,
      "Ġeligible": 7864,
      "Ġlaid": 7865,
      "ership": 7866,
      "ĠSmall": 7867,
      "ĠThough": 7868,
      "ĠSystems": 7869,
      "Ġafraid": 7870,
      "Ġbreaking": 7871,
      "Ġextension": 7872,
      "Ġdescribes": 7873,
      "ĠSea": 7874,
      "Ġbid": 7875,
      "ĠTerms": 7876,
      "uing": 7877,
      "ĠMichigan": 7878,
      "ĠCook": 7879,
      "MC": 7880,
      "Ġstaying": 7881,
      "ĠColl": 7882,
      "imental": 7883,
      "Ġenables": 7884,
      "ĠGreek": 7885,
      "Today": 7886,
      "cur": 7887,
      "ĠBritain": 7888,
      "pir": 7889,
      "oned": 7890,
      "Ġescape": 7891,
      "ĠJersey": 7892,
      "Ġawards": 7893,
      "Ġstable": 7894,
      "ĠSat": 7895,
      "Ġending": 7896,
      "Ġroot": 7897,
      "ĠAvailable": 7898,
      "ĠNorthern": 7899,
      "ĠVill": 7900,
      "Ġfactory": 7901,
      "98": 7902,
      "inally": 7903,
      "Ġpricing": 7904,
      "ĠCab": 7905,
      "Ġempty": 7906,
      "Ġknock": 7907,
      "Ġmarks": 7908,
      "ĠJustice": 7909,
      "Ġmob": 7910,
      "hire": 7911,
      "ĠCR": 7912,
      "Ġentitled": 7913,
      "ĠBang": 7914,
      "ĠURL": 7915,
      "Ġmathemat": 7916,
      "anned": 7917,
      "Ġtransaction": 7918,
      "Ġportfolio": 7919,
      "Ġpa": 7920,
      "Ġbuyers": 7921,
      "Ġvessel": 7922,
      "Ġfiction": 7923,
      "iking": 7924,
      "Ġexpansion": 7925,
      "Ġresponses": 7926,
      "Ġapparently": 7927,
      "Ġtired": 7928,
      "Ġsecondary": 7929,
      "Ġresume": 7930,
      "Ġchecking": 7931,
      "ĠOrder": 7932,
      "Ġbroke": 7933,
      "Ġstrongly": 7934,
      "Ġconserv": 7935,
      "Ġlisting": 7936,
      "08": 7937,
      "ĠProfessor": 7938,
      "Ġcareful": 7939,
      "Can": 7940,
      "ĠPrin": 7941,
      "Ġcatalog": 7942,
      "inet": 7943,
      "AG": 7944,
      "Ġresort": 7945,
      "olid": 7946,
      "Ġmanagers": 7947,
      "Ġpowers": 7948,
      "otal": 7949,
      "site": 7950,
      "Ġintense": 7951,
      "ĠHon": 7952,
      "Ġwestern": 7953,
      "Ġsuddenly": 7954,
      "ĠRam": 7955,
      "Ġpurchasing": 7956,
      "Ġrelation": 7957,
      "Ġarmy": 7958,
      "ĠPo": 7959,
      "ĠSky": 7960,
      "ĠThree": 7961,
      "pack": 7962,
      "Ġmood": 7963,
      "ĠDVD": 7964,
      "Ġchildhood": 7965,
      "Ġmold": 7966,
      "Ġgreatly": 7967,
      "Ġwash": 7968,
      "Ġjewel": 7969,
      "Ġsatisfaction": 7970,
      "Ġminim": 7971,
      "Ġadvent": 7972,
      "Ġstages": 7973,
      "eping": 7974,
      "Ġmeets": 7975,
      "ĠHa": 7976,
      "iour": 7977,
      "Ġstayed": 7978,
      "Ġalleged": 7979,
      "ruption": 7980,
      "Ġcompliance": 7981,
      "Ġneighb": 7982,
      "Ġexceptional": 7983,
      "abetes": 7984,
      "Ġcouncil": 7985,
      "ĠPlace": 7986,
      "bridge": 7987,
      "Ġstood": 7988,
      "Ġawarded": 7989,
      "Ġwanting": 7990,
      "etary": 7991,
      "Ġax": 7992,
      "ĠDub": 7993,
      "Ġbrilliant": 7994,
      "Ġexists": 7995,
      "Spe": 7996,
      "ĠKar": 7997,
      "atell": 7998,
      "Ġequivalent": 7999,
      "Ġuncom": 8000,
      "cal": 8001,
      "ĠKingdom": 8002,
      "Ġbirds": 8003,
      "ĠRom": 8004,
      "Ġ1990": 8005,
      "Ġinsert": 8006,
      "76": 8007,
      "Ġdad": 8008,
      "ĠYouTube": 8009,
      "Ġmerely": 8010,
      "pled": 8011,
      "this": 8012,
      "Ġgiant": 8013,
      "ĠGeorgia": 8014,
      "usal": 8015,
      "Ġcriteria": 8016,
      "Ġshots": 8017,
      "ĠStore": 8018,
      "Ġjoining": 8019,
      "itis": 8020,
      "Ġyours": 8021,
      "Ġinch": 8022,
      "Ġalgorith": 8023,
      "Ġnights": 8024,
      "Ke": 8025,
      "Ġfinger": 8026,
      "Ġrural": 8027,
      "Ġpocket": 8028,
      "ounded": 8029,
      "Ġerrors": 8030,
      "alysis": 8031,
      "Ġmaintained": 8032,
      "Ġfaculty": 8033,
      "Ġma": 8034,
      "Also": 8035,
      "ĠFriend": 8036,
      "06": 8037,
      "ĠKim": 8038,
      "Ġmeasured": 8039,
      "Ġtact": 8040,
      "ludes": 8041,
      "ĠSn": 8042,
      "Ġgranted": 8043,
      "Ġremained": 8044,
      "aze": 8045,
      "ĠWorks": 8046,
      "ĠWilliams": 8047,
      "Ġalongside": 8048,
      "Ġlatter": 8049,
      "Ġseed": 8050,
      "Ġcomplicated": 8051,
      "Ġ38": 8052,
      "Ġscrew": 8053,
      "eness": 8054,
      "bration": 8055,
      "Ġshouldn": 8056,
      "ĠDie": 8057,
      "Ġaccuracy": 8058,
      "Ġimper": 8059,
      "ĠSEO": 8060,
      "Int": 8061,
      "ĠTravel": 8062,
      "char": 8063,
      "ĠKorea": 8064,
      "ĠTry": 8065,
      "Ġthousand": 8066,
      "ulpt": 8067,
      "ĠPrime": 8068,
      "bury": 8069,
      "ĠConf": 8070,
      "Ġleague": 8071,
      "icted": 8072,
      "Ġstead": 8073,
      "Ġdemands": 8074,
      "upid": 8075,
      "Ġcoal": 8076,
      "Ġdivision": 8077,
      "rets": 8078,
      "Ġupgrade": 8079,
      "ught": 8080,
      "',": 8081,
      "Ġchairs": 8082,
      "Ġcabinets": 8083,
      "tics": 8084,
      "Man": 8085,
      "Fi": 8086,
      "Ġintegration": 8087,
      "onna": 8088,
      "erman": 8089,
      "ĠTurn": 8090,
      "Ġblank": 8091,
      "Ġgrace": 8092,
      "Ġheating": 8093,
      "Ġunknown": 8094,
      "Ġpig": 8095,
      "ucky": 8096,
      "Ġhits": 8097,
      "Ġsail": 8098,
      "oding": 8099,
      "Ġalter": 8100,
      "Ġminimal": 8101,
      "isdom": 8102,
      "ĠAndrew": 8103,
      "Qu": 8104,
      "Ġinspe": 8105,
      "Ġlifetime": 8106,
      "Ġgeneric": 8107,
      "ĠLin": 8108,
      "Ġbowl": 8109,
      "Ġexhaust": 8110,
      "Ġbone": 8111,
      "Ġvictims": 8112,
      "ulating": 8113,
      "Ġinhib": 8114,
      "Ġplane": 8115,
      "Ġstake": 8116,
      "ĠDisc": 8117,
      "Ġpace": 8118,
      "Ġchest": 8119,
      "Pe": 8120,
      "agged": 8121,
      "ĠPen": 8122,
      "Ġtox": 8123,
      "Ġobst": 8124,
      "ĠHaving": 8125,
      "Ġaircraft": 8126,
      "iah": 8127,
      "ĠCP": 8128,
      "ĠFord": 8129,
      "ĠDNA": 8130,
      "onder": 8131,
      "Ġhasn": 8132,
      "ipt": 8133,
      "Ġapplying": 8134,
      "Ġdispl": 8135,
      "dis": 8136,
      "ĠBuilding": 8137,
      "Ġstudying": 8138,
      "Ġcomputers": 8139,
      "ĠLiber": 8140,
      "Ġpowder": 8141,
      "Ġcalendar": 8142,
      "Ġformation": 8143,
      "Ġoutcome": 8144,
      "ĠFun": 8145,
      "Ġtranslation": 8146,
      "Ġspark": 8147,
      "ystem": 8148,
      "urse": 8149,
      "hesis": 8150,
      "Ġsuffe": 8151,
      "secut": 8152,
      "ĠCra": 8153,
      "Ġaccounting": 8154,
      "Ġequally": 8155,
      "ĠRay": 8156,
      "Ġdrag": 8157,
      "ĠColorado": 8158,
      "Ġproposal": 8159,
      "Ġdent": 8160,
      "Ġloose": 8161,
      "Ġcertificate": 8162,
      "Ġmixture": 8163,
      "ĠPerform": 8164,
      "Ġtraveling": 8165,
      "300": 8166,
      "friendly": 8167,
      "iated": 8168,
      "Ġchecked": 8169,
      "Fe": 8170,
      "star": 8171,
      "During": 8172,
      "earing": 8173,
      "uties": 8174,
      "Ġpriority": 8175,
      "ĠBlo": 8176,
      "Ġaccommodation": 8177,
      "AY": 8178,
      "09": 8179,
      "Of": 8180,
      "ocracy": 8181,
      "ubs": 8182,
      "Ġhopes": 8183,
      "Add": 8184,
      "Ġsouthern": 8185,
      "eras": 8186,
      "ĠVideo": 8187,
      "ormal": 8188,
      "ĠWi": 8189,
      "Ġoutcomes": 8190,
      "ĠHun": 8191,
      "Ġrenov": 8192,
      "Ġfalling": 8193,
      "ensus": 8194,
      "ĠEss": 8195,
      "ĠEnjoy": 8196,
      "Ġmaintaining": 8197,
      "ĠSwed": 8198,
      "Ġbass": 8199,
      "ĠQueen": 8200,
      "Ġflavor": 8201,
      "Ġflower": 8202,
      "Ġdebut": 8203,
      "Ġbutt": 8204,
      "Ġhel": 8205,
      "lude": 8206,
      "Ġnursing": 8207,
      "Ġrefund": 8208,
      "ĠArea": 8209,
      "Ġox": 8210,
      "ĠLED": 8211,
      "Ġintellectual": 8212,
      "stein": 8213,
      "Ġrecover": 8214,
      "ĠDivision": 8215,
      "Ġromantic": 8216,
      "ĠJac": 8217,
      "ĠRights": 8218,
      "Ġdemonstrate": 8219,
      "Ġoven": 8220,
      "Ġpride": 8221,
      "nda": 8222,
      "Ġfocuses": 8223,
      "Ġpackages": 8224,
      "bits": 8225,
      "ugs": 8226,
      "ĠLocal": 8227,
      "Ġindicated": 8228,
      "Ġsauce": 8229,
      "ĠPrivacy": 8230,
      "Ġmg": 8231,
      "Ġelegant": 8232,
      "Ġbuff": 8233,
      "Ġrapidly": 8234,
      "Ġsen": 8235,
      "Ġanxiety": 8236,
      "Ġfluid": 8237,
      "quis": 8238,
      "ila": 8239,
      "Ġprayer": 8240,
      "Ġrepresentative": 8241,
      "ĠAgain": 8242,
      "Ġrepresented": 8243,
      "Ġlegend": 8244,
      "Ġfalls": 8245,
      "CD": 8246,
      "ĠSher": 8247,
      "ĠSales": 8248,
      "Ġattitude": 8249,
      "Ġlip": 8250,
      "Ġpic": 8251,
      "Ġexhibition": 8252,
      "ussy": 8253,
      "Ġ55": 8254,
      "ali": 8255,
      "Ġrespective": 8256,
      "ĠBell": 8257,
      "Ġassigned": 8258,
      "Ġsees": 8259,
      "ĠRose": 8260,
      "Ġcenters": 8261,
      "Ġtrim": 8262,
      "Ġemails": 8263,
      "Ġforecast": 8264,
      "Ġcarpet": 8265,
      "Ġloud": 8266,
      "Ġconvin": 8267,
      "Ġadopted": 8268,
      "Ġ33": 8269,
      "Ġacquis": 8270,
      "ĠUnfortunately": 8271,
      "Ġattach": 8272,
      "Ġemployed": 8273,
      "ĠRepublican": 8274,
      "Ġelectricity": 8275,
      "LY": 8276,
      "Ġnations": 8277,
      "wan": 8278,
      "Ġmyth": 8279,
      "Last": 8280,
      "ureau": 8281,
      "Ġsequence": 8282,
      "Ġconsequences": 8283,
      "ĠViet": 8284,
      "Ġsatisfied": 8285,
      "cribed": 8286,
      "ĠKind": 8287,
      "EA": 8288,
      "agraph": 8289,
      "ĠInstagram": 8290,
      "ouch": 8291,
      "brid": 8292,
      "Ġlegit": 8293,
      "Ġflying": 8294,
      "Ġphotographs": 8295,
      "Ġlift": 8296,
      "%,": 8297,
      "Ġmas": 8298,
      "Ġdeeply": 8299,
      "Ġliability": 8300,
      "usher": 8301,
      "07": 8302,
      "Ġboxes": 8303,
      "Ġsacr": 8304,
      "02": 8305,
      "Ġ1999": 8306,
      "ĠEnt": 8307,
      "icide": 8308,
      "Ġchances": 8309,
      "ĠOS": 8310,
      "FC": 8311,
      "Ġharder": 8312,
      "96": 8313,
      "Ġ{": 8314,
      "Ġ37": 8315,
      "heast": 8316,
      "Ġwondering": 8317,
      "Ġparticipation": 8318,
      "ĠBon": 8319,
      "Ġhosted": 8320,
      "da": 8321,
      "RS": 8322,
      "Ġgaming": 8323,
      "riers": 8324,
      "ampion": 8325,
      "ĠSoftware": 8326,
      "ref": 8327,
      "Ġadequ": 8328,
      "Ġtelephone": 8329,
      "Ġconcert": 8330,
      "ckets": 8331,
      "from": 8332,
      "bro": 8333,
      "Book": 8334,
      "cut": 8335,
      "Ġfib": 8336,
      ".....": 8337,
      "Ġreveal": 8338,
      "Dr": 8339,
      "ateful": 8340,
      "Ġgym": 8341,
      "Then": 8342,
      "ĠJoseph": 8343,
      "Ġhes": 8344,
      "cia": 8345,
      "Ġinfection": 8346,
      "Even": 8347,
      "Ġentrance": 8348,
      "Ġdowntown": 8349,
      "Ġprofessor": 8350,
      "ĠStudies": 8351,
      "Ġsurve": 8352,
      "ĠSenior": 8353,
      "Ġputs": 8354,
      "Ġriding": 8355,
      "ouston": 8356,
      "Ġfru": 8357,
      "Ġessays": 8358,
      "Ġprohib": 8359,
      "Ġborrow": 8360,
      "Or": 8361,
      "Ġunion": 8362,
      "jection": 8363,
      "Ġlayout": 8364,
      "Ġexport": 8365,
      "Ġfunctionality": 8366,
      "Ġprotest": 8367,
      "lamm": 8368,
      "Ġuniverse": 8369,
      "issions": 8370,
      "Ġ34": 8371,
      "Ġguaranteed": 8372,
      "uma": 8373,
      "Ġthinks": 8374,
      "ĠProper": 8375,
      "ĠLiving": 8376,
      "Ġebook": 8377,
      "Ġblend": 8378,
      "Ġtape": 8379,
      "Ġdrain": 8380,
      "Ġmoral": 8381,
      "esh": 8382,
      "osc": 8383,
      "inf": 8384,
      "Ġopens": 8385,
      "Ġtonight": 8386,
      "Ġacquired": 8387,
      "Ġstronger": 8388,
      "Ġinitially": 8389,
      "ĠTer": 8390,
      "ĠText": 8391,
      "urities": 8392,
      "igen": 8393,
      "ĠEll": 8394,
      "Ġblow": 8395,
      "ĠBudd": 8396,
      "Ġrelating": 8397,
      "Ġcodes": 8398,
      "Ġcrop": 8399,
      "ĠShop": 8400,
      "Ġsuffer": 8401,
      "ĠMrs": 8402,
      "Ġstability": 8403,
      "LS": 8404,
      "ĠPot": 8405,
      "Ġpounds": 8406,
      "Ġaband": 8407,
      "mod": 8408,
      "tic": 8409,
      "ĠSU": 8410,
      "Ġtitles": 8411,
      "bered": 8412,
      "produ": 8413,
      "Ġspots": 8414,
      "ĠLeg": 8415,
      "Ġaged": 8416,
      "Ġelectro": 8417,
      "ificial": 8418,
      "rix": 8419,
      "ĠProfessional": 8420,
      "Ġsought": 8421,
      "ashes": 8422,
      "Ġantib": 8423,
      "eties": 8424,
      "Ġhanging": 8425,
      "ĠSpain": 8426,
      "Ġvert": 8427,
      "Ġwise": 8428,
      "Ġconvert": 8429,
      "looking": 8430,
      "Ġlens": 8431,
      "pendent": 8432,
      "Ġfraud": 8433,
      "Ġbooking": 8434,
      "ĠPalest": 8435,
      "Ġensuring": 8436,
      "Ġheaded": 8437,
      "EST": 8438,
      "Ġengines": 8439,
      "Ġpitch": 8440,
      "Ġwarranty": 8441,
      "Ġsubstantial": 8442,
      "Ġpregnancy": 8443,
      "low": 8444,
      "Ġholidays": 8445,
      "ãĥ": 8446,
      "lections": 8447,
      "ĠBox": 8448,
      "Ste": 8449,
      "Ġcorrectly": 8450,
      "Ġgained": 8451,
      "Ġprovision": 8452,
      "iary": 8453,
      "Ġweren": 8454,
      "ĠPop": 8455,
      "Ġbull": 8456,
      "ifully": 8457,
      "Ġdepression": 8458,
      "chester": 8459,
      "Ġcontrovers": 8460,
      "inois": 8461,
      "Ġproport": 8462,
      "Ġdesigners": 8463,
      "aylor": 8464,
      "ĠMobile": 8465,
      "ĠBit": 8466,
      "Ġnewspaper": 8467,
      "ĠAgreement": 8468,
      "ĠQuest": 8469,
      "Ġgotten": 8470,
      "ja": 8471,
      "ĠUk": 8472,
      "acular": 8473,
      "Ġscope": 8474,
      "Ġrecre": 8475,
      "iki": 8476,
      "ĠStill": 8477,
      "una": 8478,
      "Ġlocks": 8479,
      "Ġboss": 8480,
      "iac": 8481,
      "swe": 8482,
      "Ġdirections": 8483,
      "Ġscores": 8484,
      "Are": 8485,
      "itches": 8486,
      "ĠSelect": 8487,
      "ĠLLC": 8488,
      "Ġconventional": 8489,
      "Ġinteractive": 8490,
      "Ġentering": 8491,
      "Ġcompensation": 8492,
      "enny": 8493,
      "ĠPerhaps": 8494,
      "Ġbands": 8495,
      "Ġencouraged": 8496,
      "Ġbranch": 8497,
      "Ġintention": 8498,
      "Ġmaps": 8499,
      "Ġsetup": 8500,
      "Ġplain": 8501,
      "04": 8502,
      "Ġpreparing": 8503,
      "Ġalarm": 8504,
      "Ġfits": 8505,
      "theless": 8506,
      "Ġoperated": 8507,
      "Ġlicensed": 8508,
      "ĠGarden": 8509,
      "Ġrising": 8510,
      "Ġcoat": 8511,
      "Ġdiversity": 8512,
      "Ġopinions": 8513,
      "ĠEst": 8514,
      "udes": 8515,
      "Ġviewing": 8516,
      "TV": 8517,
      "ĠWould": 8518,
      "Ġsegment": 8519,
      "ibl": 8520,
      "ĠSus": 8521,
      "Ġdose": 8522,
      "Ġstretch": 8523,
      "Ġcrypt": 8524,
      "Ġconstit": 8525,
      "Ġcontribution": 8526,
      "tery": 8527,
      "Ġtooth": 8528,
      "Ġstations": 8529,
      "03": 8530,
      "asting": 8531,
      "Ġattempts": 8532,
      "Ġclosing": 8533,
      "Ġuniform": 8534,
      "charge": 8535,
      "Ġdeposit": 8536,
      "Ġmistake": 8537,
      "ĠAdministration": 8538,
      "ĠFinally": 8539,
      "Ġdiamond": 8540,
      "Ġconclusion": 8541,
      "Ġmm": 8542,
      "Ġmechanical": 8543,
      "HA": 8544,
      "days": 8545,
      "Ġeggs": 8546,
      "56": 8547,
      "Ġgap": 8548,
      "ĠFIG": 8549,
      "ĠHelp": 8550,
      "Ġpersonnel": 8551,
      "annel": 8552,
      "athered": 8553,
      "ĠMat": 8554,
      "ĠSingapore": 8555,
      "ylvan": 8556,
      "Ġspeaker": 8557,
      "abeth": 8558,
      "ĠKitchen": 8559,
      "ccer": 8560,
      "Ġrely": 8561,
      "ĠCommon": 8562,
      "iot": 8563,
      "hyd": 8564,
      "Ġtwist": 8565,
      "Ġthemes": 8566,
      "Ġchronic": 8567,
      "fall": 8568,
      "Ġsmoke": 8569,
      "ĠBush": 8570,
      "ĠLabor": 8571,
      "Ġsuppliers": 8572,
      "icious": 8573,
      "Ġladies": 8574,
      "Ġexceed": 8575,
      "riculum": 8576,
      "Ġjur": 8577,
      "Ġsolo": 8578,
      "ĠMah": 8579,
      "Ġbrowse": 8580,
      "Ġlaptop": 8581,
      "ĠSpace": 8582,
      "Ġshoulder": 8583,
      "Ġadmit": 8584,
      "97": 8585,
      "iler": 8586,
      "Ġtradem": 8587,
      "sex": 8588,
      "aret": 8589,
      "acher": 8590,
      "ĠHell": 8591,
      "Ġ1980": 8592,
      "zona": 8593,
      "adium": 8594,
      "Ġresid": 8595,
      "ĠSupreme": 8596,
      "Ġwra": 8597,
      "ĠCN": 8598,
      "ĠHeart": 8599,
      "Ġengaging": 8600,
      "Ġautomatic": 8601,
      "Ġenforcement": 8602,
      "Ġappointed": 8603,
      "uum": 8604,
      "Ġmirror": 8605,
      "Ġarrival": 8606,
      "Ġprescription": 8607,
      "Ġgal": 8608,
      "Sc": 8609,
      "Ġdeeper": 8610,
      "ĠMountain": 8611,
      "Ġ!": 8612,
      "Ġexamination": 8613,
      "Ġdollar": 8614,
      "adel": 8615,
      "ĠBa": 8616,
      "Per": 8617,
      "ĠForce": 8618,
      "Ġstrike": 8619,
      "Ġrencont": 8620,
      "ractions": 8621,
      "Ġutility": 8622,
      "ĠLatin": 8623,
      "Ġuncertain": 8624,
      "Ġreturning": 8625,
      "Ġdrama": 8626,
      "Ġwaters": 8627,
      "itative": 8628,
      "atin": 8629,
      "ĠOrig": 8630,
      "ĠIrish": 8631,
      "bell": 8632,
      "Ġbedrooms": 8633,
      "iances": 8634,
      "Ġfest": 8635,
      "sell": 8636,
      "Ġencounter": 8637,
      "Ġcurrency": 8638,
      "Ġspecified": 8639,
      "Ġsignals": 8640,
      "ghan": 8641,
      "Ġessentially": 8642,
      "Ġmanif": 8643,
      "ĠProm": 8644,
      "Ġroads": 8645,
      "Ġcow": 8646,
      "ĠLine": 8647,
      "Ġcontents": 8648,
      "ĠAwards": 8649,
      "Ġcialis": 8650,
      "Ġpainted": 8651,
      "RC": 8652,
      "Whe": 8653,
      "Ġweird": 8654,
      "Ġaims": 8655,
      "Ġhide": 8656,
      "Ġworship": 8657,
      "ĠDistance": 8658,
      "Ġwrites": 8659,
      "Ġloyal": 8660,
      "Ġextraord": 8661,
      "Ġelected": 8662,
      "aka": 8663,
      "organ": 8664,
      "proof": 8665,
      "Ġintroduce": 8666,
      "Ġcontinuous": 8667,
      "Ġimprovements": 8668,
      "Ġdrinks": 8669,
      "Ġexamine": 8670,
      "Ġsemi": 8671,
      "inch": 8672,
      "ĠCivil": 8673,
      "section": 8674,
      "izz": 8675,
      "Ġadvertise": 8676,
      "gent": 8677,
      "EG": 8678,
      "ĠCustomer": 8679,
      "Ġoral": 8680,
      "ĠSav": 8681,
      "Ġconcentration": 8682,
      "Ġresidence": 8683,
      "Ġeverybody": 8684,
      "Ġspray": 8685,
      "ĠWithout": 8686,
      "pending": 8687,
      "Ġdistributed": 8688,
      "rite": 8689,
      "Ġtoile": 8690,
      "ĠStation": 8691,
      "Ġassembly": 8692,
      "Ġdefine": 8693,
      "Ġadj": 8694,
      "Ġskilled": 8695,
      "PM": 8696,
      "Ġblogs": 8697,
      "icating": 8698,
      "Ġsituated": 8699,
      "Ġcontributions": 8700,
      "Ġcomposition": 8701,
      "isa": 8702,
      "ials": 8703,
      "64": 8704,
      "Bu": 8705,
      "Ġscored": 8706,
      "Ġdeveloper": 8707,
      "ĠCountry": 8708,
      "ĠCorporation": 8709,
      "cts": 8710,
      "mic": 8711,
      "Ġprotocol": 8712,
      "foot": 8713,
      "ĠAgency": 8714,
      "ĠEastern": 8715,
      "ifting": 8716,
      "Ġsomehow": 8717,
      "Ġwarning": 8718,
      "ĠDaily": 8719,
      "Ġinstruments": 8720,
      "asty": 8721,
      "ĠStan": 8722,
      "Ġvintage": 8723,
      "ĠSS": 8724,
      "ĠGovern": 8725,
      "Ġkilling": 8726,
      "Ġunusual": 8727,
      "Mar": 8728,
      "burgh": 8729,
      "Hello": 8730,
      "step": 8731,
      "Press": 8732,
      "Ġenthusi": 8733,
      "vironments": 8734,
      "ĠPut": 8735,
      "PN": 8736,
      "rep": 8737,
      "Ġassistant": 8738,
      "ĠBeing": 8739,
      "ĠLooking": 8740,
      "Ġtutorial": 8741,
      "Ġdamaged": 8742,
      "Ġamen": 8743,
      "igation": 8744,
      "ĠHollywood": 8745,
      "Ġfifth": 8746,
      "live": 8747,
      "ĠVegas": 8748,
      "ĠRadio": 8749,
      "Ġperiods": 8750,
      "Ġalumin": 8751,
      "Ġfaced": 8752,
      "Ġdivided": 8753,
      "abil": 8754,
      "ĠEth": 8755,
      "Ġsou": 8756,
      "Ġorganis": 8757,
      "Ġheading": 8758,
      "ĠLink": 8759,
      "Ġmassage": 8760,
      "mo": 8761,
      "ambling": 8762,
      "Ġfrustr": 8763,
      "Ġopposed": 8764,
      "ĠDonald": 8765,
      "ĠShould": 8766,
      "being": 8767,
      "Ġpacked": 8768,
      "Ġtoler": 8769,
      "Ġcolleagues": 8770,
      "ĠFox": 8771,
      "ĠDaniel": 8772,
      "Ġfocusing": 8773,
      "rations": 8774,
      "oric": 8775,
      "arry": 8776,
      "omed": 8777,
      "ĠKh": 8778,
      "Ġnorthern": 8779,
      "ĠSilver": 8780,
      "Ġexploring": 8781,
      "Ġspeakers": 8782,
      "Ġcombine": 8783,
      "unicip": 8784,
      "Ġevaluate": 8785,
      "ĠHenry": 8786,
      "ĠMedicine": 8787,
      "Ġske": 8788,
      "lah": 8789,
      "ĠDeath": 8790,
      "Ġdil": 8791,
      "fits": 8792,
      "sts": 8793,
      "unes": 8794,
      "Ġemployer": 8795,
      "ĠPhoto": 8796,
      "FA": 8797,
      "ĠPA": 8798,
      "ĠLas": 8799,
      "ĠMir": 8800,
      "Ġaer": 8801,
      "Ġcuts": 8802,
      "Ġwake": 8803,
      "Ġtrips": 8804,
      "gger": 8805,
      "athan": 8806,
      "Ġprime": 8807,
      "aza": 8808,
      "Ġlowest": 8809,
      "Ġ1998": 8810,
      "Ġunexpected": 8811,
      "ashing": 8812,
      "==": 8813,
      "Ġimplemented": 8814,
      "Ġlegisl": 8815,
      "imp": 8816,
      "68": 8817,
      "Ġrice": 8818,
      "Ġdomin": 8819,
      "Ġfloors": 8820,
      "stra": 8821,
      "Ġenemy": 8822,
      "Ġtransactions": 8823,
      "ĠKent": 8824,
      "Ġhoriz": 8825,
      "Ġyards": 8826,
      "ĠJews": 8827,
      "ĠSex": 8828,
      "ĠCome": 8829,
      "Ġ39": 8830,
      "Ġfiber": 8831,
      "Ġamongst": 8832,
      "Ġsentence": 8833,
      "Ġtalented": 8834,
      "Ġspir": 8835,
      "Ġsinger": 8836,
      "BM": 8837,
      "emed": 8838,
      "Ġmountains": 8839,
      "Ġordinary": 8840,
      "omic": 8841,
      "Ġsculpt": 8842,
      "ador": 8843,
      "Ġdisability": 8844,
      "ĠMedic": 8845,
      "Ġanniversary": 8846,
      "Ġdelivering": 8847,
      "Ġemotions": 8848,
      "Ġsubsequent": 8849,
      "Ġcotton": 8850,
      "Ġkeys": 8851,
      "Ġprivile": 8852,
      "Ġcalm": 8853,
      "Ġoppon": 8854,
      "ĠFred": 8855,
      "flow": 8856,
      "wall": 8857,
      "Ġlaser": 8858,
      "Ġcontacts": 8859,
      "Ġpermit": 8860,
      "amic": 8861,
      "Ġ1000": 8862,
      "atile": 8863,
      "ĠDisney": 8864,
      "osph": 8865,
      "aph": 8866,
      "Ġvacc": 8867,
      "ĠDog": 8868,
      "ourse": 8869,
      "ĠUr": 8870,
      "Ġactor": 8871,
      "Ġpointed": 8872,
      "Ġflexibility": 8873,
      "gressive": 8874,
      "ĠPu": 8875,
      "ĠSafety": 8876,
      "ylvania": 8877,
      "Ġestimate": 8878,
      "Ġacquire": 8879,
      "ĠBoy": 8880,
      "Ġsurvival": 8881,
      "Ġmad": 8882,
      "Ġdont": 8883,
      "CO": 8884,
      "ĠModern": 8885,
      "Ġsurvive": 8886,
      "ĠSummer": 8887,
      "Ġconvenience": 8888,
      "Ġpromoting": 8889,
      "Ġmaxim": 8890,
      "Ġvisits": 8891,
      "ĠQuality": 8892,
      "ĠRon": 8893,
      "Ġinterviews": 8894,
      "Ġpassionate": 8895,
      "rolled": 8896,
      "Ġdistingu": 8897,
      "umer": 8898,
      "mercial": 8899,
      "vision": 8900,
      "nders": 8901,
      "\":\"": 8902,
      "aug": 8903,
      "ĠBall": 8904,
      "Ġformula": 8905,
      "Ġflour": 8906,
      "dney": 8907,
      "Ġcomplim": 8908,
      "Ġpromotion": 8909,
      "Ġcameras": 8910,
      "ĠMess": 8911,
      "Ġsink": 8912,
      "Ġpeak": 8913,
      "Ġdiscrim": 8914,
      "Ġcopies": 8915,
      "Ġracing": 8916,
      "ĠClin": 8917,
      "gments": 8918,
      "rer": 8919,
      "usions": 8920,
      "%)": 8921,
      "after": 8922,
      "Ġparalle": 8923,
      "olis": 8924,
      "ĠRos": 8925,
      "Ġtemporary": 8926,
      "Ġtons": 8927,
      "Ġinitiative": 8928,
      "onymous": 8929,
      "Ġsurely": 8930,
      "Ġboards": 8931,
      "Ġminister": 8932,
      "Ġsignature": 8933,
      "Ġclubs": 8934,
      "Ġsummary": 8935,
      "Ġprinciple": 8936,
      "Ġcul": 8937,
      "ĠCru": 8938,
      "Ġchampions": 8939,
      "Ġpregnant": 8940,
      "rape": 8941,
      "Ġbatt": 8942,
      "Ġconfiguration": 8943,
      "Ġwithdraw": 8944,
      "urches": 8945,
      "Ġmanip": 8946,
      "izabeth": 8947,
      "gel": 8948,
      "mble": 8949,
      "istical": 8950,
      "Ġlayers": 8951,
      "ERS": 8952,
      "cycle": 8953,
      "je": 8954,
      "Ġimpression": 8955,
      "Ġtemplate": 8956,
      "ĠEdition": 8957,
      "Ġvolunteers": 8958,
      "Ġrarely": 8959,
      "Ġcouples": 8960,
      "Mr": 8961,
      "Ġdifficulty": 8962,
      "ĠSir": 8963,
      "mitting": 8964,
      "Ġterr": 8965,
      "Ġyoga": 8966,
      "Ġsuffered": 8967,
      "olt": 8968,
      "Ġcelebration": 8969,
      "Ġceremony": 8970,
      "throp": 8971,
      "Ġminds": 8972,
      "ĠCro": 8973,
      "Ġrum": 8974,
      "Ġenvironments": 8975,
      "Ġbeneficial": 8976,
      "Ġaccompan": 8977,
      "Ġvenue": 8978,
      "ĠSmart": 8979,
      "Ġbehaviour": 8980,
      "Ġparameters": 8981,
      "Ġhaz": 8982,
      "Ġpuzz": 8983,
      "Ġtemperatures": 8984,
      "vi": 8985,
      "run": 8986,
      "Ġmodule": 8987,
      "ĠFL": 8988,
      "Ġcourts": 8989,
      "ospel": 8990,
      "aters": 8991,
      "ĠDam": 8992,
      "ĠStock": 8993,
      "Ġraising": 8994,
      "Ġasset": 8995,
      "url": 8996,
      "Ġreaching": 8997,
      "ĠPhilipp": 8998,
      "Ġinjured": 8999,
      "ĠConnect": 9000,
      "Ġwisdom": 9001,
      "ĠLimited": 9002,
      "Ġtargeted": 9003,
      "style": 9004,
      "Ġhearts": 9005,
      "Ġsoldiers": 9006,
      "Ġtherap": 9007,
      "ĠJoin": 9008,
      "ĠField": 9009,
      "ĠRod": 9010,
      "ĠCT": 9011,
      "olar": 9012,
      "tains": 9013,
      "Ġabund": 9014,
      "Ġemotion": 9015,
      "bsp": 9016,
      "Ġprincipal": 9017,
      "Ġseasons": 9018,
      "Ġbills": 9019,
      "ultane": 9020,
      "aine": 9021,
      "ustration": 9022,
      "Ġboot": 9023,
      "Ġdemonstrated": 9024,
      "icket": 9025,
      "Ġought": 9026,
      "otive": 9027,
      "Ġbold": 9028,
      "aron": 9029,
      "Ġdishes": 9030,
      "Ġedit": 9031,
      "mg": 9032,
      "ilty": 9033,
      "ĠRen": 9034,
      "limited": 9035,
      "ĠHP": 9036,
      "urious": 9037,
      "rous": 9038,
      "Ġcolours": 9039,
      "ĠScotland": 9040,
      "Ġattending": 9041,
      "Ġprize": 9042,
      "ordan": 9043,
      "ĠLearning": 9044,
      "Ġadvantages": 9045,
      "67": 9046,
      "Ġdual": 9047,
      "Ġhack": 9048,
      "uis": 9049,
      "ilton": 9050,
      "Ġflag": 9051,
      "Ġinsights": 9052,
      "ortion": 9053,
      "Ġdecrease": 9054,
      "ĠChristians": 9055,
      "Ġcomprom": 9056,
      "ĠDri": 9057,
      "ĠKat": 9058,
      "ĠMD": 9059,
      "ĠMembers": 9060,
      "Ġcreativity": 9061,
      "Ġabilities": 9062,
      "Ġperformances": 9063,
      "indu": 9064,
      "Ġalign": 9065,
      "Ġstom": 9066,
      "power": 9067,
      "Ġregulation": 9068,
      "ĠFall": 9069,
      "ĠMother": 9070,
      "iami": 9071,
      "Che": 9072,
      "Ġaccum": 9073,
      "iti": 9074,
      "ĠFoot": 9075,
      "Ġrecyc": 9076,
      "Ġservers": 9077,
      "EP": 9078,
      "ĠMember": 9079,
      "Ġpanels": 9080,
      "pany": 9081,
      "Ġpor": 9082,
      "Ġtrusted": 9083,
      "aska": 9084,
      "Ġenhanced": 9085,
      "quest": 9086,
      "ĠDespite": 9087,
      "Ġfewer": 9088,
      "Ġceiling": 9089,
      "Ġsinging": 9090,
      "Ġmetab": 9091,
      "Ġvegetables": 9092,
      "Ġfranch": 9093,
      "ĠRef": 9094,
      "ĠEvent": 9095,
      "Ġstylish": 9096,
      "Go": 9097,
      "Ġspacious": 9098,
      "Ġemerging": 9099,
      "Ġorange": 9100,
      "Ġsubsid": 9101,
      "Ġ95": 9102,
      "Ġapplies": 9103,
      "Ġcum": 9104,
      "ĠPS": 9105,
      "rary": 9106,
      "bow": 9107,
      "Ġshirt": 9108,
      "market": 9109,
      "icking": 9110,
      "Ġstrip": 9111,
      "lahoma": 9112,
      "inyl": 9113,
      "ATION": 9114,
      "Ġholes": 9115,
      "Ġsensor": 9116,
      "ĠFac": 9117,
      "Ġdrives": 9118,
      "izza": 9119,
      "Ġfinest": 9120,
      "Ġflooring": 9121,
      "Ġrhy": 9122,
      "Ġtoys": 9123,
      "Ġinventory": 9124,
      "Ġdefect": 9125,
      "Ġnetworking": 9126,
      "rug": 9127,
      "ĠPsych": 9128,
      "Ġencount": 9129,
      "\",\"": 9130,
      "Ġconversion": 9131,
      "ĠAuto": 9132,
      "Ġscar": 9133,
      "ĠWelcome": 9134,
      "ĠIllinois": 9135,
      "Ġfilling": 9136,
      "Ġrecruit": 9137,
      "iffe": 9138,
      "Ġcompos": 9139,
      "Ġbio": 9140,
      "Ġkiss": 9141,
      "Ġreserved": 9142,
      "Ġpublishing": 9143,
      "ifer": 9144,
      "mates": 9145,
      "Ġcombat": 9146,
      "Ġparagraph": 9147,
      "ĠBroad": 9148,
      "ĠOfficer": 9149,
      "ÂĴ": 9150,
      "ĠÌ": 9151,
      "uating": 9152,
      "itched": 9153,
      "Ġremem": 9154,
      "rison": 9155,
      "Ġwhereas": 9156,
      "ĠProdu": 9157,
      "inson": 9158,
      "Ġasks": 9159,
      "Ġimpressed": 9160,
      "Ġrepresentation": 9161,
      "Ġgrat": 9162,
      "shire": 9163,
      "sylvania": 9164,
      "Ġ42": 9165,
      "Ġinvestments": 9166,
      "Ġbeds": 9167,
      "Note": 9168,
      "elve": 9169,
      "Ġreply": 9170,
      "ĠMethod": 9171,
      "opyright": 9172,
      "Ġmeasurements": 9173,
      "bourne": 9174,
      "alo": 9175,
      "anguage": 9176,
      "Ġmatching": 9177,
      "Ġslee": 9178,
      "American": 9179,
      "ĠUSB": 9180,
      "âĢĭ": 9181,
      "Ġexplo": 9182,
      "ĠTit": 9183,
      "Ġproducer": 9184,
      "Ġtie": 9185,
      "ĠToronto": 9186,
      "Ġdanger": 9187,
      "Ġangle": 9188,
      "bian": 9189,
      "stic": 9190,
      "Ġgirlfriend": 9191,
      "Ġfounder": 9192,
      "Ġdies": 9193,
      "Ġdiabetes": 9194,
      "letter": 9195,
      "claim": 9196,
      "Ġcontracts": 9197,
      "Ġconstructed": 9198,
      "hop": 9199,
      "Ġdesper": 9200,
      "Ġnerv": 9201,
      "Ġmedication": 9202,
      "Ġcompletion": 9203,
      "Ġouts": 9204,
      "Ġdeploy": 9205,
      "ĠRa": 9206,
      "igious": 9207,
      "ĠAge": 9208,
      "ĠBath": 9209,
      "Ġorganisation": 9210,
      "Ġpleasant": 9211,
      "Ġphotographer": 9212,
      "Ġownership": 9213,
      "ĠEstate": 9214,
      "Ġofficially": 9215,
      "ĠTool": 9216,
      "ĠHouston": 9217,
      "ishment": 9218,
      "Ġscreens": 9219,
      "Ġ120": 9220,
      "Ġquot": 9221,
      "Ġtrem": 9222,
      "Ġhip": 9223,
      "Ġdiagnosis": 9224,
      "ĠAdditionally": 9225,
      "Ġnose": 9226,
      "Ġromance": 9227,
      "ĠMA": 9228,
      "ĠTam": 9229,
      "inals": 9230,
      "vals": 9231,
      "ĠPakistan": 9232,
      "Ġ1970": 9233,
      "Ġjewelry": 9234,
      "vity": 9235,
      "Ġfarmers": 9236,
      "Ġfemin": 9237,
      "Ġaimed": 9238,
      "Ġtap": 9239,
      "cest": 9240,
      "Ġrecept": 9241,
      "Ġgrateful": 9242,
      "ĠLind": 9243,
      "home": 9244,
      "Ġ~": 9245,
      "800": 9246,
      "Ġpoetry": 9247,
      "ĠMade": 9248,
      "Ġworn": 9249,
      "ologists": 9250,
      "kel": 9251,
      "Ġinvestigate": 9252,
      "usively": 9253,
      "See": 9254,
      "anwhile": 9255,
      "Ġenabled": 9256,
      "isd": 9257,
      "Ġwrap": 9258,
      "Ġoverse": 9259,
      "Ġcertification": 9260,
      "ĠTar": 9261,
      "ĠLy": 9262,
      "cend": 9263,
      "Ġconvey": 9264,
      "Ġhappiness": 9265,
      "Ġterrible": 9266,
      "Ġswing": 9267,
      "world": 9268,
      "writer": 9269,
      "Ġconj": 9270,
      "pire": 9271,
      "Ġrefuge": 9272,
      "59": 9273,
      "Ġexplos": 9274,
      "ĠChapter": 9275,
      "Ġfantasy": 9276,
      "assion": 9277,
      "Ġrepairs": 9278,
      "makers": 9279,
      "hour": 9280,
      "ĠRun": 9281,
      "ĠAdam": 9282,
[...]
